[PAD]
[UNK]
[CLS]
[SEP]
[MASK]
이
다
.
로
는
에
을
지
기
가
고
의
1
한
하
자
서
대
은
시
,
사
2
해
를
인
0
나
도
전
스
수
원
으
정
9
국
했
상
일
부
리
제
있
장
)
(
어
과
보
라
코
주
업
아
"
만
진
들
재
3
경
위
공
적
신
회
비
소
면
성
중
명
'
관
등
화
계
선
니
구
동
o
개
5
영
4
산
조
금
무
단
트
8
것
감
게
연
방
유
여
문
내
역
용
행
그
미
7
할
러
확
월
안
마
와
생
오
세
분
우
발
통
모
6
터
며
간
치
체
입
포
실
년
요
n
데
e
드
%
난
c
a
현
최
증
당
r
된
바
종
s
출
·
차
반
교
거
예
민
’
‘
매
되
m
운
달
습
배
학
후
강
k
까
약
외
려
식
말
t
임
설
뉴
격
“
i
”
프
양
급
및
료
C
건
야
었
청
준
올
속
[
]
@
작
염
합
A
S
두
울
억
직
더
파
르
노
크
음
력
p
추
결
받
타
점
권
활
본
록
판
호
-
=
련
남
항
근
각
됐
저
히
표
따
천
h
심
투
품
박
김
환
않
물
번
온
밝
없
태
규
책
l
집
망
T
혔
검
승
던
백
w
복
y
처
협
함
황
질
g
았
래
석
육
레
총
광
디
날
때
특
법
형
능
향
불
험
I
른
열
B
피
같
북
평
참
초
겠
또
많
담
린
별
늘
K
u
병
편
목
군
독
E
응
축
언
N
토
P
티
획
접
카
브
께
택
G
앞
페
d
극
량
필
루
O
될
베
술
 
송
취
객
든
람
익
채
변
;
손
&
훈
높
창
ⓒ
령
줄
M
론
버
런
순
키
립
b
였
:
D
융
알
션
졌
럼
새
휴
액
워
철
류
존
/
못
돌
메
악
플
절
움
막
홍
침
벌
효
희
츠
센
누
j
즈
테
너
율
넘
맞
커
돼
~
글
L
름
란
R
락
완
왔
네
견
례
머
F
농
폭
애
삼
측
씨
범
V
랜
롯
충
좋
길
족
봉
팀
긴
쟁
?
곳
앙
탈
퍼
친
률
윤
클
착
갈
힘
균
…
엔
층
살
답
났
잘
럽
큰
져
걸
밀
논
널
케
허
뒤
▲
▶
골
H
느
핑
램
림
찰
블
U
털
째
패
탄
콘
홈
찾
렸
캠
랑
혈
득
첫
흥
먼
팬
볼
즌
쳐
벤
빠
략
촉
혁
욱
폐
큼
텔
낸
잡
귀
곡
혼
겨
템
f
W
릴
혜
갖
룹
팅
헌
v
싶
놓
붙
색
찬
렇
딜
낮
숙
Q
△
얼
겪
링
떨
넷
쓰
컨
냈
즐
칙
턴
욕
촌
눈
싱
텐
셜
값
핵
몰
웃
쳤
뿐
뤄
끝
징
캐
슈
쇼
콩
냐
닝
펀
퇴
밖
셀
컴
엄
Y
헤
웨
꾸
써
풀
콜
좌
끌
z
굴
님
십
맹
켜
섰
솔
잠
델
럴
틀
탁
쇄
렌
폼
돈
빈
뜻
닌
덧
덕
녀
픈
쉽
놀
롭
념
갔
랐
풍
뷰
씩
압
둔
튜
끼
J
펼
랫
쪽
척
얻
떠
컬
먹
춘
닥
섭
팔
앤
폰
푸
떤
킹
릭
낙
춤
혐
궁
뛰
힌
죠
흡
뮤
켓
춰
잔
떻
맡
슬
봤
맛
갑
겼
빨
됩
빌
슨
혀
앨
쿠
렵
∼
흐
!
앵
믹
꼽
죄
탕
킬
엘
셔
홀
녹
밥
◇
밤
납
㎡
빅
픽
젝
혹
듯
암
엇
웠
탑
싸
킨
셨
봐
몸
휘
닷
흘
칠
둘
왕
첨
쉬
읍
옥
※
엑
콤
핀
앱
듣
짜
칭
젠
챔
잇
낼
얘
컷
겁
뢰
X
꿈
ㆍ
+
릿
촬
맥
퀸
톡
짐
뜨
팩
좀
몇
겸
룸
#
딩
돕
폴
엠
즘
긍
늦
덤
즉
쓴
힐
Z
흑
벽
＜
＞
멀
꺼
삭
삶
벗
펴
낭
©
큐
쿄
컵
넣
넓
벨
텍
윗
숨
렴
맺
롱
웹
앉
맨
씀
곤
x
퓨
쏟
럭
괴
깊
윈
셰
셉
빛
봄
줬
젊
걱
Δ
켰
찍
멤
빙
깨
굉
곧
쯤
셈
덜
탐
짓
괄
싼
헬
◆
왜
멘
셋
웅
렉
랩
렀
뷔
탓
▷
팜
꼭
믿
톤
렬
흔
듀
눔
틱
잉
슷
냉
듭
탠
숲
옵
끈
끊
닉
칼
졸
뒀
쥐
랙
몬
됨
냥
닐
쿨
띄
씬
턱
벅
컸
칸
롤
랭
짝
낌
빚
눠
켈
옮
훨
→
㈜
쏠
죽
뭐
펜
썼
잃
쾌
쌓
밑
룬
쓸
봇
잖
놨
굿
엣
끄
댄
멜
■
틴
둥
릉
‧
섬
낄
숫
갱
룰
쁘
곽
젤
랴
렘
틈
뚜
닫
갤
뒷
룡
헝
묻
겹
멸
걷
`
줘
읽
美
팡
덴
샤
짧
챌
웰
뿌
땅
꽃
삽
핸
왼
꼬
깔
쉼
숭
븐
깝
쌍
캄
굳
톱
췄
닭
뀌
뱅
꾼
랍
캘
똑
돋
꼈
갯
밍
빵
껏
*
|
훔
━
캡
넥
밴
롄
옷
숍
녁
옹
팝
튼
찌
벼
밸
뽑
깜
횡
↑
빼
훌
딸
캔
겐
듈
中
엽
_
낀
묵
몽
잊
챙
닛
눴
##.
##다
##을
##는
##이
##에
##,
##은
##를
##하
##고
##가
##으로
##했
##)
##의
##한
##(
##에서
##로
##도
##일
##들
코로나
##19
##과
##해
##적
##명
##"
##와
##할
##월
##기
##·
##만
##게
##'
##인
##’
##며
##지
##%
##면
기자
##”
##년
##어
##습니다
##원
##되
##@
##었
##]
##까지
##억
##자
##라고
##다고
29
##된
지난
확진
##면서
##코로나
위해
##kr
##지만
##한다
##부터
##됐
밝혔
금지
무단
##았
##던
##1
##배포
통해
##성
##화
지역
##겠
##co
##=
미국
##아
##다는
진행
##com
지원
##개
##에게
##보다
##시
대한
##-
올해
##바이러스
이번
정부
10
관련
신종
확산
상황
위한
한국
##된다
기업
감염증
##;
이후
##도록
예정
함께
방역
##나
##대
증가
##주
국내
사업
경기
백신
서울
##2
가능
##라는
##경제
##여
시장
대비
중국
##3
전재
##뉴스
##는데
경우
이날
최근
때문
##분기
따르
개발
우리
세계
경제
기록
28
##차
온라인
##7
발생
계획
감소
모두
##~
대상
##전재
국가
현재
##amp
추가
##/
##입니다
운영
사회
따라
감염
##시간
##라며
전망
아니
이상
##될
##조
##천
한다
관계자
필요
제공
기준
참여
설명
##라
강화
사람
선수
해외
##서울
시작
##4
##?
대해
결과
영업
가운데
30
##5
##권
특히
##:
지난해
##상
가장
12
##달러
##위
20
발표
대표
신규
러시아
영화
교육
기간
##돼
다른
가격
입국
사태
마스크
##기업
##회
11
매출
##6
영향
판정
다양
확대
추진
확인
##해야
2020
##…
##사업
금융
선원
검사
투자
##센터
마련
대통령
문제
##본부
외국인
##당
생각
지속
기대
상승
대응
##시설
규모
##개월
##간
분석
##시장
##별
시간
서비스
##형
한편
영상
##받
개최
우려
환자
따른
예상
위기
##이나
상반기
다시
훈련
전년
국제
##씨
##8
공급
수준
유지
준비
정책
##분
##29
실적
##위원회
최대
전했
행사
생산
##서
거리
활용
오후
주요
전체
##9
인해
의원
##으며
##사회
##률
선박
사용
일본
조치
##&
다음
수요
격리
처음
강조
만들
##%)
##지역
##째
트럼프
많이
기사
조사
##장
전국
직원
새로운
실시
활동
모든
성장
적극
지금
판매
관리
등의
현장
글로벌
##부
방문
14
앞서
이런
##으면
100
##한다고
하락
##격리
사진
오전
프로그램
##였
기존
개선
된다
국민
이용
##기자
입장
결정
효과
##중
노력
부산
##회의
##산업
##%,
19
시행
동안
업무
진단
포함
하루
SK
대회
##연합뉴스
중앙
여행
방안
##제
평가
등이
##이익
##yna
학생
뉴스
인한
바이러스
27
##명의
제품
##자의
공개
계속
##지원
적용
##업체
##현지
보도
여파
시즌
안전
업체
##news
극복
##번
계약
##기관
시설
모습
선정
정도
저작권자
50
인천
최고
연기
사망자
직접
##리그
생활
내용
감독
사실
##대책
시민
지급
장기
##거나
각각
기술
디지털
##생활
##팀
##뉴시스
해당
누적
##엔
##포인트
신청
정보
부분
방식
또한
일부
소비자
북한
비롯
##처럼
##는다
부문
연구
구성
나타났
고려
시대
##해서
##달
열린
음성
중인
어려움
##의료
##정보
산업
회사
수도
만큼
##사
##약
전문
광주
확보
##기술
논의
협력
제한
구축
관심
미래
사례
달러
주장
더욱
대해서
근로자
##0
후보
##보
분야
회복
15
31
내년
전날
고용
##금융
##사진
또는
##치
##곳
환경
##교육
중심
의료
##신의
전략
집계
공연
재개
마음
하나
역시
전환
착용
과정
24
여름
임시
나왔
다만
국회
고객
보이
반영
방송
##건
상태
문화
방침
방지
특별
대책
중요
주민
의무
##데일리
회의
##조사
회장
건강
이야기
중단
나오
##호
부동산
위원장
16
치료제
개인
데이터
##재
안정
피해
연장
보내
##검사
없이
취소
하반기
비대
유럽
##병원
지적
##용
성공
##세
판단
##스
인구
예비군
학교
동기
대학
집중
##제공
26
시스템
##전
##율
목표
##층
자체
AI
전달
가치
기회
변화
일정
제보
아직
그러나
관객
공공
치료
임상
##니
13
의미
##경기
수출
##[
##그룹
21
##개발
자리
##진
물론
본격
대구
##gt
##내
##어요
롯데
긴급
##있
홈페이지
연속
오늘
보인다
23
2018
영국
기반
교수
조성
당시
지난달
도입
양성
##비
예방
의견
25
이미
도움
축소
공동
인원
##2020
장관
주택
##안
참석
활성
##계
점검
##어서
뉴딜
너무
60
상품
##국의
조금
평균
##재난
덧붙였
검토
##지수
동영상
##규모
임상시험
##두기
17
어려운
그러
##씩
##활동
##야
##합니다
##통신
캠페인
##에선
40
##p
##길
창업
이전
홍보
시기
역할
할인
베트남
거래
분양
화이자
공식
전문가
감사
반면
홍콩
##안전
##문화
##관리
보건
가족
전자
18
##다가
통합
관광
수업
수익
혁신
##투자
제주
이달
##ⓒ
정상
##단계
그런
체험
제외
자금
주목
주가
아이
우선
위험
차지
##복지
##왔
경쟁
적자
부담
##함
설치
측은
보였
합의
이유
22
모더
연결
비교
행정
파악
향후
대출
##서비스
그리고
##TV
비용
##우리
##는지
일자리
##트
##로부터
희망
##가격
승인
보여
경찰
최종
소비
사장
##대회
도시
현지
지방
원격
통한
경기도
##30
##방역
##한다는
경험
##생
가지
감염병
어떤
여러분
수가
관계
업계
##법
지정
일반
배우
서울시
참가
##나라
독일
##A
뉴시스
그렇
##죠
##정책
발전
선택
프로
선발
여부
70
마지막
##재단
집단
채널
구매
YTN
##했으며
##배
종합
민주당
핵심
사전
조정
##업계
단계
##신문
대화
이어
혐의
##학기
상대
당국
##점
국립
아닌
민간
알려졌
##수업
부족
입항
##협회
##한국
책임
중소기업
##실
##장의
경남
바란다
우수
기획
출연
요청
휴가
개봉
아시아
##와의
제작
출시
급증
경영
부산항
##당국
##위원장
어떻
##∼
비중
귀국
소개
유입
Copyrights
##오
##택트
##금지
요구
만나
주식
여전히
##신
당부
##선
콘텐츠
이어지
더불
일상
##시민
여러
늘어난
##고자
##펀드
동시
유튜브
통과
비해
매일
게임
실제
##음
##위기
스타
최소
작품
##감염
##대로
##%),
##다면
열리
우승
앞두
분위기
##!
해결
공간
##나가
##폼
총리
##이번
진출
수리
대부분
병원
나온
결국
##은행
##스포츠
##반
##는데요
먼저
##정부
자동차
성과
##시키
300
사이
비판
어렵
협의
##님
질문
제시
나가
발굴
메이저
보호
공유
임직원
##'(
체결
제도
##려고
역량
##’,
##24
제출
해소
단체
계기
완화
빠르
인도
관중
##데이터
##28
처리
브랜드
역대
##종합
자연
접종
악화
늘어나
미디어
올랐
공항
2019
##주택
##이노베이션
반응
이렇
##가구
##업의
##수
최선
##newsis
준수
그동안
접촉
34
##상품
##중앙
스페인
##드
##보건
##개국
전북
##냐
인력
부진
##라도
##교육청
##뿐
##비율
연계
##도시
주제
매출액
현대차
나머지
200
공감
절반
현대
소중
##’(
##노총
제기
응원
해야
제약
재정
##학교
##장관
그런데
국방부
민주
여기
삼성
파이낸셜
##유입
작년
##인데
##세계
##증권
##으나
차단
누구
##믹
##대비
##영상
법안
감염자
언급
부부
검역
철저히
##기에
자유
위해서
##전망
협약
##액
아동
보유
##환경
증상
최초
한다는
##앵커
사망
전화
응답
##기간
시험
여성
##www
32
나온다
구단
##체험
의사
사상
내부
##대의
협상
대형
선거
소재
##20
바이오
분기
감안
앨범
경쟁력
채용
마이애미
##중국
##10
##mt
추세
대신
예산
통화
거쳐
남성
방법
이상의
허용
플랫
고민
위치
##같이
2017
출전
아울러
##계층
교육부
##문의
돌파
사건
인터넷
기부
##부산
심각
작업
뉴욕
규제
##공인
##손실
신고
##가능
체류
재난
임대료
제조
모집
오픈
매년
논란
##아시아
##지원금
달리
##',
자신
소속
소장
삼성전자
지수
48
높이
차원
그룹
포스트
##사의
금값
취업
##께
##급
화상
##수칙
##로서
##국가
얘기
##단체
##공항
나섰
전파
CES
자산
기관
소식
손실
##보험
조기
트위터
##더라도
언론
##전하
##민주당
##세종
혜택
##콜
##치료제
기본
##c
실천
학습
##다며
카드
스포츠
반대
모델
내놓
소상
매우
##어야
완료
##평가
업종
신용
##계획
구조
##코리아
##대표
전월
자료
##셨
연구원
포인트
##인당
##훈련
이하
##마다
달성
화제
##테
이내
속도
##했으나
##두
##수도
투어
목소리
무대
##바이오
불구
근무
##회사
지침
그래서
##확산
##방송
관람
이벤트
오른
물량
인사
투입
무엇
어느
마케팅
프로젝트
현황
기능
리그
팬데
건설
즐길
인터뷰
호텔
##여행
각종
1000
TV
상당
기다립니다
매장
LG
통계
##조치
##lt
정세균
경북
작성
##시스템
발행
신속
##㎡
나라
자세
배터리
접수
청소년
##위원
줄이
인기
도전
대한민국
제안
국무총리
가까이
구체
##졌
##투데이
수입
지자체
##구
진입
지키
항체
##밖에
##됩니다
정말
##과학
바로
##질
목적
##기구
##기준
센터
##여자
인근
조직
##체계
심리
##머니
배달
##스타
줄어들
류현진
비율
연간
증시
예약
##회견
식당
독자
초기
울산
수립
음악
과제
##온
장소
##북
모바일
##자산
인상
외교
##즈
세종
##금
스타트업
출생
실질
사랑
유통
정치
스마트
같이
##져
##부문
과거
##등
전남
간담회
유동
위반
SNS
봉쇄
과학
＜ⓒ
##＞
항만
계절
##000
차이
방향
##상황
동참
현실
##G
이동
##미국
수치
식품
석유
극장
##자료
##텔레콤
##등급
이르
##edaily
##가량
##채무
상담
전반
유학생
침체
브라질
공장
##승
역사
##가지
##선수
##연구원
##란
한다고
##원호
촬영
##12
전통
상가
전기차
##만의
##군
위축
육성
##아야
전시
주도
##AI
취약
##국제
##fnnews
청년
표현
대전
이제
수행
맞춤
임대
바탕
##롭
소통
시청
건수
현상
인수
좌석
##도의
비상
차례
##언론
##+
투자자
항공사
##협약
##식
##27
##려는
유도
##고의
유일
이틀
거주
##록
헤럴드
500
##심리
사항
##라면서
##주의
주재
이해
워싱턴
의료진
소독
위생
##사항
제약사
인프라
KT
무료
##으로부터
##최근
##전략
단백질
힘든
포스코
상생
##앞
제대로
##니까
이라크
##폭
##조정
##07
##시즌
네이버
시범
국토
예비
발언
중대
선도
##자원
##지방
##산
빨리
어제
제로
##asiae
커피
헌혈
페트르
94
창출
금액
##통합
발열
##11
은행
##관광
관한
##기획
주문
공모
별도
이유로
등교
시도
항공
갈등
연합뉴스
##협력
긍정
도널드
합니다
공시
이용자
규정
GC
내달
대변인
##kbs
철저
친구
90
44
##면서도
##포스트
마무리
즐기
이러
효율
##가치
인재
##25
서로
미치
##연구
##이란
##관
나갈
##서의
차별
담당
기여
설립
시점
혈장
파우
2000
절차
연차
통계청
꾸준히
공무원
##체의
2016
2021
투여
오프라인
정원
등과
외부
혼인
나타나
펀드
##아요
##joongang
실시간
추정
mk
이노션
##더
페이스북
##아이
##국판
##hankyung
오르
판매량
##본의
보장
책정
소규모
##자동차
관광객
주변
##타임스
연말
##클로로퀸
면제
마감
인식
물류
주관
유치
타격
특파원
메시지
떨어졌
대상자
외국
힘들
##단의
##이사
행복
##전한
말씀
##박
전시회
##n
등록
월드
바이든
##17
이슈
재무
변경
##미
액션
##존
모임
##21
복지
이용해
노동
##라면
##거든요
인공지능
실업
상장
하이드
##네
집회
어린이
도쿄
80
친환경
농촌
##저작권자
개정안
##프로
##고요
##타워
##종시
실제로
호주
##seoul
EU
대유행
##강화
##디지털
불과
반발
절감
등도
##행사
완성
에너지
줄어든
##과정
출신
발견
새롭
##photo
##인력
소유
##제품
##국
스스로
##5000
##경향신문
대선
협업
##공원
##스럽
재고
안내
##온라인
올렸
단지
공실
개막
의약품
##품의
요인
동원
선보이
CEO
취지
트렌드
반도체
재택근무
##소득
##파이낸셜
유학
부총리
##드리
##%(
##오픈
##제의
##23
예능
전면
##연금
##신종
매력
heraldbiz
진화
##현재
잘못
##젠
당초
노사정
현금
주말
해제
나서
인간
##종
소득
##공사
교사
##같
이끌
허가
##감염증
에이티
이름
초과
차질
운동
##남
종로구
확정
프랑스
평양
청구
##키트
해서
만든
문재인
그린
##본
솔루션
밝힌
##그
대구시
브리핑
유행
다소
의심
##생산
##쯤
이탈
늘어났
##이하
##말
실험
##곡
음식
여자
권고
이익
만날
자랑
자제
약속
통신
##광주
인천항
입원
##으면서
##로써
##은데
SBS
##팩
운용
범위
굉장히
급감
자원
##세대
##치를
##시의
##부의
활약
농업
##계약
##상의
인텔
##집
가공
##군의
돌입
##P
##국장
나와
형태
세부
##고용
흐름
근로
##루
체계
유명
발매
##관계
##인천
##단
##천만
신뢰
##인가
수사
장애
거의
##백
##https
##구조
열릴
의지
원칙
걱정
##헤럴드
주로
걸쳐
강력
호흡
##민
KB
주최
##흥원
초대
2022
##티즈
##성과
스마트폰
마찬가지
조건
혈액
##파크
휴스턴
##대상
문의
##원장
명이
##닷컴
보고서
##heraldcorp
##기기
마이
대폭
##투어
폐쇄
##안정
아파트
웃음
##아서
##결과
##입국
##심의
##실적
게이츠
들어가
##업
##수의
임금
추천
제조업
##라운드
케어
##벤
##발
소감
55
##세요
##제도
85
##요
화물선
초청
모니터링
##국자
##리조트
가동
정부세종청사
정례
회원
해석
떨어지
가계
반드시
##브리핑
개정
62
오랜
행동
감정
##성장
신천지
##확실
구하
슈퍼
##동향
카메라
##간의
이송
세상
##세가
저희
##인지
겁니다
기대감
##민의
오히려
서구
탈출
##..
강원
퍼포먼스
인하
##60
요금
전기
수주
경신
배포
39
##도서관
##올해
##녹십자
##원의
기념
올리
##재정
어촌
마마
충북
##쇼
##언
배치
##용의
##준
##의회
복귀
뮤지컬
지표
##t
##금리
##주간
##인의
가구
##을지
가량
일시
부사장
##법인
##m
멤버
직전
사모
부상
공화
마쳤
##18
라이브
##비대
확장
토론
등장
##광역시
넘어섰
캐릭터
수칙
##야구
최대한
불가피
##매수
대체
노동자
##다만
집값
##공헌
##식의
사이트
가입
근거
##자치
##식품
##시청
##진단
제재
##비용
실패
신사업
분리
다르
급등
얼마나
티켓
##대학교
비슷
행위
공정
##전문
##보호
##사고
통해서
##환자
강의
접촉자
종료
상승세
##골프
장비
중구
면접
디자인
노래
지사
##sportsseoul
##언스
주니어
코리아
최저
##00
셰프
온스
##티
참가자
불법
인증
##연맹
에이
##께서
5000
필수
IT
신한
아시아나항공
##13
축제
조달
##러
당기
##건설
##인터넷
성적
시리즈
거부
매체
뉴질랜드
검찰
##산의
##을까
##으로서
##국민
약세
대처
##당의
영화제
##임
전수
요즘
보험
데뷔
골프
이행
##여름
##쇼핑
지연
의혹
GO
손님
##기금
##건강
코닥
개별
차량
##역량
모르
생태
##척
각국
이미지
증가세
트윗
##GOTTA
가진
##박람회
예측
연방
##벤처
인천시
해도
그쳤
분류
종목
자국
처벌
평소
##지난
원장
##연구소
##화학
##마을
상무
모색
특정
갖추
언제
경고
##창출
##주년
##31
협조
필리핀
완치
##감독
##제보
관람객
세인트
기분
##테크
존재
##16
빠른
금리
##행정
##공장
노인
부탁
캠핑
선언
무관
##질의
##마스크
##축구
측면
대안
국적
##의원
선진국
특성
매각
##지침
출항
##대학
선제
CBS
분산
지목
집합
종식
비즈니스
이탈리아
##효과
앞둔
##계의
불편
덕분
##D
연내
순이익
심화
##체
예매
##측
##청
도내
##선의
##15
##감
열심히
##줄
두기
여론
설정
베트남인
광주시
##신세계
충격
세대
가속
##먼
##카드
시각
베이징
콘서트
35
##회장
##판정
미만
전력
##셀
가정
신장
밝히
마을
##필드
연령
www
마스터스
활력
맞춰
음식점
##지구
##용품
그것
전쟁
WHO
600
수학
체온
##됨
KBS
승리
강한
충분
답변
전용
##든
정기
특징
설계
향상
원인
##패
상권
대한항공
하향
야외
##시켰
45
##물
이외
황정민
중점
##가스
##자금
주력
##운용
작용
##상자
89
##수익
##려면
종사자
됩니다
포럼
내수
객실
수상
이어졌
만드
인정
##해진
매주
풀이
마치
외환
원유
신생
알리
휴가철
가사
촉구
느끼
본부
충남
계정
면역
강행
실내
일단
선물
개방
전역
##앤
단기
##제주
##강
효능
시청자
##방
##느냐
북미
##종의
청와대
##볼
##카
어디
후원
##500
54
느낌
##재료
부채
무증상
##노인
현안
부여
"(
태국
발급
유가
최다
양산
그만큼
신선
##려
거론
##혁신
##동
훨씬
##donga
##는가
이사장
접근
펼치
84
2015
중순
경계
보급
##차례
관내
##해졌
##하우스
##긴
한화
분명히
로이터
국경
##반의
##분의
##초
강하
지지
##반장
##동기
토대
##누구
부통령
오피스
##주일
의결
나올
최신
성장세
해수부
plus
##시켜
편의
이어질
전투
##임대차
사고
내다봤
직무
내렸
##주민
대중
새로
잠정
열린다
노컷뉴스
오랜만
##ytn
진정
##크
##모델
인용
2023
##백신
박인비
제고
##상공
##발전
##유
##순이익
중증
그대로
싱글
##뉴딜
##CBS
벌이
여건
지도
배경
총회장
총회
세입자
물품
장점
##26
나눠
##운동
전해졌
흑자
네트워크
살펴보
수원
힘입
##총
모아
##14
심사
선수단
##존의
##만큼
들어갔
성추행
불리
##에스
베니스
체제
##송
##거래소
위협
##‘
백악관
국내외
대거
지인
그간
불안
##인데요
대만
자율
청약
##약품
병행
어르신
차등
##편
##앱
상용
##공간
지난주
한시
형성
컴백
상영
부대
41
KPGA
능력
##박의
##드릴
##로운
##5131
나누
요리
학원
##수요
##아동
##가상
##IT
전담
##밖
##현
신경
레알
시원
##‧
노사
동일
관광지
부작용
##시킬
##과제
구입
##어도
##컵
소폭
벗어나
아주
결합
##없이
나선
아버지
##에너지
##http
의장
마친
감면
##구의
부양책
실현
건물
##명회
측정
##외국인
중소
##노
임원
작가
투표
챔피
반복
허위
호소
체크
손해
##경영자
배송
충분히
우주
진료
고령
##이나마
##32
승선
##체육관
장르
순위
구속
힐링
시중
##공급
##조원
이래
보냈
다수
##랩
보완
장학금
##대전
##객의
##방안
##량
##sbs
선내
봉사
##협의회
본인
흥행
노조
판매가
설문
신설
##사이언스
##가족
통제
권한
해리스
이필모
##분야
식사
선사
늘어날
##그램
CNBC
떠나
전개
요소
##북한
38
선임
##드린다
보건소
애플
##데
##노동
연일
성인
##후
##처
토론회
##취재
나선다
강원도
##예술
##영화
##비상
##치료
##줬
공격
어려울
##정의
점유
##진흥
##엔터
비난
버스
##실장
##론
사흘
러닝
수석
급격히
지친
성명
##검역소
광고
소집
확충
중간
##2000
감축
명의
본다
지나
##M
가수
##국내
특수
##전자
##수습
기업인
나눔
늘리
##WHO
다저스
##갔
신세계
브라우저
##저
격차
만료
##놓
##책
##오프라인
##변화
농협
##가의
벤처
##모
내린
##캠프
남양주시
##“
도주
정리
전해
##기사
보안
400
국무
마이크
##경영
컨설팅
격려
도서관
양사
##kyunghyang
복합
플레이
부정
미리
동료
65
##주가
아프리카
##확인
고통
기억
수용
상당히
출장
떨어진
##50
##기의
자기
조선
##소서
뛰어난
한미
당분간
결혼
##부처
##근로자
아스트라
##문
야구
당장
##대출
##부채
단순
##지사
농가
피해자
가입자
##골
부회장
원내대표
##인구
평화
방학
산하
직장
결제
느낄
그때
거듭
독립
조선일보
이른바
정무
##운영
문체
##이닝
블룸버그
올림픽
##취약
##킹덤
가까운
원정
감시
주의
##일자리
##부장
경로
CTA
##체육
압박
##경연
출국
회사채
탑승
##빈
쇼핑
부처
##문서
##쓴
##창업
걸렸
정박
##위험
집행
숫자
58
일환
동의
교회
정확
기초
사이버
유사
교류
유관
세금
코스피
대면
##천억
##넷
PC
정신
##경남
폐업
부산시
52
이용한
##팀장
동반
##회복
알려
게시
움직임
##노조
##유지
당일
서부
##발생
지분
150
##개소
##사용
화웨이
##리포트
인공
##해도
소리
편성
2011
블루
월북
##체제
##시험
휴식
남북
보건부
##자는
##고도
##CEO
46
##회담
자녀
##준비
동맹
약물
김주형
kjhpress
켈리
유전자
##40
##으로써
검증
##4000
계열사
맞이
##콘텐츠
세계일보
외교부
오래
박정민
##플
##시가
항의
강제
##점검
##토
축구
이것
공사
##택지
법인
유휴
##공단
강세
엣지
##77
72
갖춘
지출
시급
바람
##다른
##휴직
51
예고
본회의
MBC
##부지
추이
##총회
##단백질
##공연
이곳
가전
##낙원
##잘
잇따라
시선
상금
예술
등판
##위의
##제로
궁금
아티스트
##난
담긴
구분
포기
릴레이
행정명령
##박스
전혀
소외
##악의
##앤드
보입니다
##바이오팜
소셜
##션
분명
##단장
체감
한은
담호
##소장
유치원
2013
모으
##EU
장면
연습
##내의
서류
이스타항공
드라마
관측
권역
기후
지구
KLPGA
메뉴
소요
##영화제
##등록
법률
한계
정규
순간
보고
##적자
##능력
그래도
외교관
##됐으며
##아의
입소
단독
##3000
자격
##지금
초반
살바도르
선호
한국은행
##사랑
바다
직장인
마이너스
##화폐
##CSI
달러화
##판매
헝가리
##제약
##국제공항
남기
news
HDC
토요일
3000
우즈베키스탄
만약
##표
##200
여당
##성의
마드리드
##채
##대응
모이
발휘
합동
##작
##과장
품목
착수
변형
얼굴
이중
질병
##생명
##마트
위원
워낙
##관의
적정
내리
취하
##비르
재활
##학년
##싱
꼽힌다
##예약
최소한
영입
김해
정식
##렌디
아들
심의
자동
##글로벌
이웃
질병관리본부
##포
##물질
120
##급여
재산
롯데월드
한층
##인원
출퇴근
라스베이거스
##7000
신곡
##사이트
출발
직후
수급
##거래
투약
도심
인종
##국공
##엠
##자연
이정재
예전
##Copyright
##인셉션
##월드
##방학
동아
43
##22
##감시
거뒀
사유
자주
학부모
##관중
##는다는
DB
보인
클라우드
##데시
##듯
후속
##장비
모았
자생
##경쟁
##외
출범
자가
##현장
올린
의문
All
건전
##B
영역
컨퍼런스
이적
지식
##돼야
나타내
##학과
##홈
편리
##벅스
##100
##미디어
##→
본사
넘어서
##중앙일보
주거
##kmib
마시
파트너
##시기
##나갈
##상금
국회의원
항공편
##된다고
올려
##다면서
경주
공백
##방지
##진영
##향후
##전염병
입지
##해져
저렴
랴오닝
주기
##사태
인권
김광현
##타
##정원
통상
##강철
동월
##휴양림
##구청장
통보
페트로
실행
##프로그램
테스트
##"[
이게
##대구
돌아가
조언
잠시
이뤄
배지현
##84
출입
바뀌
##미래
##8000
전일
##chosunbiz
올라
운행
손영래
##항공
##보안법
원가
##아도
지시
경기장
정우성
카자흐스탄
NHK
##분석
2008
초등
생기
##cbs
수강
##으니까
따라서
재미있
챌린지
열렸
##예비군
사무실
무산
##경북
선두
박람회
##K
완전히
##khan
점포
75
검색
##안보
##"]
피치
용역
인건비
##이용료
찬성
수산
제주도
##개선
##MBN
동물
어린
만한
##역의
타이틀
아이디어
##키로
압도
##교회
현역
모여
저소득층
데일리안
둔화
무역
합류
겨울
체육
이루
만난
치열
자회사
기조
##imaeil
연초
이용객
회복세
##바이저
chosunbiz
##감소
고령화
##긴급
##CES
상원
##홍콩
푸르지오
베를린
##부양책
외식
융합
김포
##외입
##살
전원
GS
눈길
##사가
##봉사
##segye
해양수산부
조심
##속
유효
들려
들어오
라인업
##전화
상임위
투수
입점
NH
57
생일
##C
아래
##동의
동선
##링
##일본
##장애
##이용
##사망
공매도
##시각
한때
북항
지켜
생명
적합
살리
창원
치르
##신고
##나와
##의약품
##진다
보상
##예방
##신청
대기
윤종신
선보인다
코오롱
야당
##습니까
##루이스
몰리
숙박
공론
##휴가
영어
사무국
채권
##회분
##는다고
##70
인물
패션
불라
##82
##지출
유로
등록금
언어
##거리
##호텔
비행기
수준의
##대가
특조
학대
##기록
예년
정하
##해양
##행위
##체류
노출
##",
##리
전염병
했었
##나의
적절
59
혼자
폭발
미쳤
취재
건립
불안감
사기
양호
만기
상위
##태의
##조선
상호
토트넘
총장
거치
등급
##최대
양국
촉진
안성
##수준
##다음
콘셉트
##코
펼쳤
별로
삼다수
##직원
##연전
과연
구현
조처
##dailian
##데일리안
기다리
고발
##조차
휴직
한경
드라이브
구미
##침체
면담
##노위
리뷰
##인과
곳곳
회원국
##액셀러레이터
단위
##통화
마켓
도민
확실
##에요
##면역
만족
##광부
##소
##라인
아마
##마켓
MLB
##포스
간부
##chosun
돌봄
##COVID
##단지
##순위
##재의
의해
승객
GDP
한국인
무더위
##스러운
공약
내일
낮추
##울산
##협의
##부동산
##청소년
##포티
안심
열기
절대
##음성
입증
행보
높였
##해의
파트
행정부
##S
호응
피하
##주인
##naver
"'
실태
다롄
##핑장
##러시아
##어의
77
기내
편안
##인식
요건
정책금융
##케어
즉시
실직
특화
일각
생계
박사
게재
개장
천안
관점
자치
제정
유럽연합
어려워
##GC
제일
재미
140
호남
##교통
향한
의정부
서민
삭제
억제
대외
판로
##지주
##장기
후보지
변수
농기계
##위생
나타냈
##권의
##콜라스
직업
이뤄졌
63
도출
800
##한다면
##된다는
의회
##장학금
바우처
##무역
국방
##는데도
##담당
여유
점차
98
##회의실
수시
저녁
56
재발
클럽
##농협
##공동
보낸
##응답
##셋
장중
photo
첨단
배제
##전환
수술
입찰
대전환
##마이
비전
##상담
테슬라
병상
손익
##마진
##러닝
출처
중독
추적
자문
나설
##약국
##인사
부르
33
##노동조합
##회관
##농업
PCR
##hankookilbo
##물의
멜로디
세웠
상시
코미디
통일부
##확진
##해질
이어진
충족
##경기장
##마저
##연합
국유
##반도체
일주일
##날
내놨
해상
##74
중계
##선거
##노동부
중동
남승민
##청장
##300
##소비자
37
전부
불어넣
##낸
개성
##진과
법제
몬스터
휴관
##85
##사례
따뜻
사업자
의도
선별
KBO
LPGA
지점
나눴
##량의
수혜
정규직
생겼
##물량
##2018
검역소
##맞춤
입주
##왼쪽
찾아가
##소프트
시국
##계획서
형식
연락
chosun
##영업
동아일보
상정
##료의
##시티
무려
##SNS
##44
외무
53
##오늘
선생
##해외
혹은
##90
##거래일
##텍
사각지대
##약식
증설
유엔
##갈
대우건설
택배
##할지
여름철
국산
BSI
송미영
##생의
창업자
47
##파티
사무
토크
##관련
독감
자사
자릿수
##잡
시너지
##SK
강사
추경
늘려
다낭
패키지
사과
대해선
##특히
##종재
민주주의
##규제
능동
##다시
##차별
호흡기
42
고속도로
대로
##800
급락
위탁
##봤
범죄
딜리버리
##요금
##재산
##민주
보건복지부
뮤직
알려진
기소
##스포츠서울
##6000
수시로
걸리
조합
소위
유은혜
헌신
##복제
##사실
생생
상업
##설의
합리
##현대
국면
##업종
CJ
위로
부각
##net
유력
##게임
사업장
##공정
##홀
막대
##하로
신체
##축제
상향
연설
임기
##협
챔피언십
##값
임대차
##한테
##고서
##오후
폭염
무디스
회생
매입
##비디오
##KBS
방과
임명
일손
대중교통
가졌
구성원
달라
##TF
도약
국비
인정받
내국인
##AP
rights
reserved
금감원
##석
##제이스
250
밀접
##듀
보통
##어린이
졸업
##예산
ICT
소수
백화점
##소의
##공공
##안타
입법
방호복
##학습
##미약
모범
폼페이
말린스
연출
원양어
##1000
##판
##베트남
293
드리
and
##덕분
##동안
##busan
싱가포르
넘치
상상
지원금
##금의
AP
활발
쇼핑몰
MK
안팎
##취업
대구경북
아쉽
##플러스
생과방
##강사
##구역
##면세점
##광장
##더나
단축
교통
남자
소진
125
##정적
해양
골드만
처분
코치
##교사
선고
속출
자아냈
외출
부서
##mkinternet
실무
##재개
바꾸
##치의
비자
6000
법무부
감성
##셔서
강남
인턴
donga
레이
도착
##석의
은성
과도
원의
##돈
##츠
접목
##투명
2009
##어스
그치
##끼리
무더기
##실점
##없
트립
건의
높여
##류
##몰
##건수
공기
##그린
협회
홍현희
세종문화회관
최고가
자영업
기쁘
##케
##원에
##FDA
##보고
검체
##올
근황
선배
설레
##피
지내
여상
나아가
총괄
극대
불참
밟
양키스
부모
130
월스트리트
##저널
치솟
기타
##올림픽
##예요
##의견
##차질
그냥
그러니까
노하우
태도
SUV
선전
##컨트리클럽
##파
향해
하락세
88
재학
##삼
원래
##버스
애초
김정은
놀이
흑인
유증
질의
##하반기
약화
함소원
연극
##질환
##으니
들어온
이뤄지지
##통신부
이용우
매수
잠실
##재정부
##특별
2012
느꼈
##한데
빠졌
시내
시티
고위험
제휴
개편
##시킨
자극
이뤄질
위주
만남
낙관
머물
드러냈
선보였
##킹
가을
BBQ
투숙
##증시
중기
##소비
측이
대결
산정
68
품질
어선
강릉
상한제
##타운
수산물
##부와
##편집
tvN
알렸
춘천
##연합회
##전의
##더라
싸움
한마디
##땡
안타깝
필라델피아
##바
##초의
소매
밝혀
운항
송파구
##딩
헬스
농산물
사정
학술
미션
동력
프리미엄
주체
나흘
남부
감당
##E
##리의
##너
##대행
인체
##세포
추격
##하나
점점
캄보디아
바라보
개관
표준
##로드
견조
돌잔치
##관장
삼양
선착순
단속
줄일
교원
참고
##수리
간의
##행의
담겼
원활
말라리아
물질
강렬
고심
군수
##보호법
LA
##후보
이겨
얼마
지하
커졌
조합원
유형
##물품
양상
##금액
##대면
재판매
무증
앞선
교민
##품안
##dt
조치원읍
지상
그게
문학
시위
##시대
남중국해
교대
출마
##기본
마진
예금
##SDI
##자격
##아직
외신
인플레이션
##봉
수확
##KLPGA
다치
가게
##부가
강연
##전남
상한
##imnews
근본
내내
발현
##트윗
추산
군민
쿠팡
##wowtv
자발
##혁명
##이상
줄였
감소세
바라
매매
키트
일방
공지
영화관
기금
##프라
##퍼티
##은행장
생산량
경사
화학
긴장
##b
##근로
##작업
보다
정비
36
##전국
인력난
##일보
분량
인사말
푸드
만났
정부서울청사
##지도
표결
위상
역학
##룸
관해
91
스트레스
담겨
8000
##요원
투쟁
축적
##상품권
##삭스
##72
무시
창작
##보증
선출
북경
##산업단지
미칠
경선
##이런
증권사
징계
둘러싼
탄생
##국회
위조
가맹점
퇴원
제네시스
선보인
복용
용량
항상
떨어져
##수출
##정상
##기와
주시
추후
동향
##imbc
소화
에이스
##냈
가하
견본
##출입
##공개
납부
사안
##설
강요
CNN
빠진
##유가
##신용
해수욕장
##정비
고도
유상
재원
음식물
누릴
##주행
##조달
터키
##쓰리
음원
2014
##직
FA
자본
엄격
육박
##방과
##문제
##정
##구나
스타일
매진
##중계
##사인
방해
##에스티
존슨
##된다면
교직원
박차
불만
##황과
신명
PRESSian
신임
##시당
##배달
##2019
동부
다중
부품
연대
코스
배려
기저
##리서치
공모전
무상
잔디
##사와
##스토어
##안전망
##처리
무게
맞추
##증자
변동
처한
입법회
뚜렷
보수
##사위
쓰레기
##철도
##이동
##휴양
마산
##톤
##총생산
수소
##짜리
##트리
##통계
신문
테마
강남구
아름다운
##접촉
조짐
아쉬움
증명
이마트
부지
유예
##80
##65
##기술원
##ICT
##네요
경상
##전처
용인
침해
구글
이창섭
##컴퓨팅
카페
67
기준선
폐지
법원
공연장
갤럭시
스쿨
##남부
민원
49
보험료
##포럼
##전쟁
등지
어떠
돼서
그리
다니
##표의
플로리다
주지사
##R
만전
지킬
FT
방문객
상임
간격
##기분
대조
전형
여행사
넘어선
지배
##교육감
##실사
##확대
음료
수단
93
86
74
##정자
뒷받침
계산
##손
the
항공기
충당
##사이드
##장치
교육감
##나기
아베
탑재
산림
한반도
부과
파산
하지만
아내
막상
##희망
##kwnews
최우선
##노컷뉴스
##지의
댄스
대사관
훅
벌어지
개막전
증정
##99
축하
법사
##사업자
다국적
##∙
##베이
초래
유해
분쟁
##장이
실력
악재
교체
오마이
전세
미니
이사
환율
##33
수수료
적응
##풀
##평
##탈
##더니
북구
##막
##병
4397
사라진
##업무
2025
태권
누리집
구상
추첨
##해요
반등
##GDP
갈수록
AFP
73
위촉
정체
저소득
여의도
취재진
사격
주춤
진로
동해
BBC
벤치
수원시
여름휴가
세트
연수
가질
##투
온도
아침
##단과
엑세스
여행객
##88
두산
##성판
유연
##KB
개념
국정
물가
하원
700
연관
##형편
##팔
##중의
##자고
거래일
레이크
##찬
헌법
이끄
골목
##방식
표시
필름
기구
의한
##모든
##기계
##훈의
사로잡
상대방
##sportschosun
와서
##파트
불가
말레이시아
##추진
도서
명단
##이미지
페스티벌
퇴장
##kg
사인
##건의
플랫폼
권리
솔로
취임
경향
금요일
##유로
##49
따로
포항
이례
와중
민선
시정
2030
장외
##랭킹
빠지
##트럼프
##지대
단순히
타깃
준다
공동체
요양
경로당
##대상자
##유의
긴장감
아세안
생성
해명
##아산
##의사
##잖아요
추억
AMD
정관용
##역사
##하의
성분
고위
잇따르
의제
##FT
##콘택트
2024
캐나다
##평균
##교류
##철
카톡
원주
그야말로
##상태
연다
##현의
확실히
지자
##etnews
##트레저
흥미
급여
경마
볼티모어
레드
신속히
증거
##수원
독재
앤서니
##알레르기
외곽
##수당
##여분
##명부
##장갑
1500
##중심
##미술관
##합의
##큐
하노이
##극복
##참여
##술
획득
증진
간편
마르티네스
##400
##타점
선포
##클럽
항목
##권단
루카셴코
섭취
러시아인
퍼지
최저치
다녀오
주인공
##오전
첸
지지율
##신사
실정
##평화
##목
보해
##경찰청
##범죄
텃밭
##지부
곧바로
뛰어넘
나이
건축
연구소
##심사
추출
일문일답
에피소드
무슨
##고등학교
자택
그럼에도
##에겐
##경로
뜨거운
##체크
##수입
##요인
##리퍼스
투명
##므로
##구성
CGV
##더라고요
아마존
부실
##부품
이어져
##여서
##교실
강점
유리
경복궁
코스닥
##테르
##지표
##38
손잡
##마리
위안
##집회
순차
##롯데
맞서
##당신
##메일
시절
##87
##시리즈
##산업의
##한화
정권
중화
스태프
실외
수집
해고
혼란
화장품
전인
##독제
의대
##`
로얄
간호사
상회
##주식
주당
연준
##경비
일회성
##설계
라인
##ㆍ
##센트
인도주의
##통상
아이폰
입학
##유통
후반
##청의
균형
##균형발전
원료
유소연
##전지
밀집
영남
성화
##일의
아이스
##건전
정착
##그동안
펼쳐진다
투자가
106
92
보컬
구직자
##플랫
미주
지위
담당자
철강
서울대
도와
탄탄
재단
##장소
##KPGA
짚
완전
리조트
##가이드
레스토랑
제목
들어간
##미터
루프
반환
##레
##선발
##분양
##교통부
##빅
답답
##여행객
거대
##브
##통
비치
조항
원숭이
##Fed
재판
180
커머스
옵티머스
##윤
##활용
##각
상인
##뱅크
개입
의약
옮기
중앙은행
뿌리
평일
##600
##기아차
이훈
결혼식
##모임
##균형
##군수
##외의
그려
관전
당연
된다는
외무성
캘리포니아
매칭
##영장
발맞춰
방어
##_
##무
아나운서
화성
전제
머리
##팝
##소독
리더
예외
챔피언
CCTV
##머
##컨벤션
일원
로봇
강도
64
##기능
하늘
분담
##삼다수
##데이
판결
정제
워크숍
사무총장
국제선
수령
후문
일대
손소
##마케팅
##평등
처방
선보일
앞장서
설비
도시락
포장
개학
##망
##스마트
봉태규
서수연
레고
박훈정
##양조
형사
공격수
야간
##라서
대국민
토너먼트
##발언
##불
jebo
다채
공포
윤호
민기
아예
##의장
##원단
##NIAID
##제조업
##로서의
##코리안
VR
##do
초점
두드러졌
##이전
##9000
##유럽
무리
대입
국외
101
##이후
##텔
##39
경상남도
달라진
##원격
생긴
##이의
##어촌
발송
월평균
맥도날드
광명
남양주
배럴
71
광주은행
##규
BSK
##봇
급격
아이템
일어나
##700
기숙사
충전
성남
##팬
뒤늦
청주
##X
세우
##엑
힘쓰
##학생
##써
무사히
옆
격상
멕시코
TF
생존
완벽
##2021
대학생
관행
걸린
옹호
##개인
87
씻
##코드
##방법
자꾸
보낼
물건
데모
응답자
##34
파워
##스타트
##km
##화호
해운대
공익
##83
추구
가스
드러나
부담감
##강종민
##로스
바닥
즉각
공직
출근
CSI
##메
술자리
산업은행
개설
구청장
다행히
가이드
체질
티웨이항공
##GWh
이메일
도매
문가영
##먹
고급
폭락
모양새
선방
##전기
동네
##많
배분
군산
직속
변신
주자
캐스팅
무조건
아닐까
##절차
듯한
think
##대한민국
머니
세포
징후
수많
##약의
##사법
관심사
##당했
책임자
##list
##icd
##19588
화려
하회
민관
앨버트
화이
결론
단장
부장
누리
역임
인센티브
##도민
##솔루션
Me
##투자자
전공
##900
엄마
소송
줄여
##45
##태평양
핸드볼
출석
95
체력
##경향
경비
어워드
##흥국
먹거리
거주지
##협정
배정
긴밀
ETF
틱톡
모자
사망률
이용이
입시
윤도현
증폭
##카페
##산림
앵커
◀
식량
봉합사
##%)’,
◎
프랜차이즈
##장과
똑같
드러났
내정
예선
비밀
감각
파격
인생
등산
진심
지켜보
일으키
즐거움
훈련장
잠재
잉글랜드
폭탄
오가
퇴직
솔직
화요일
장남
정당
돌아오
크린
서명
아무래도
인류
수십
헌혈증
재판부
증권
카카오
프리미어
키우
##공동체
##고객
수출입
연맹
JTBC
##체육회
명시
채택
스파이크
텐트
강좌
스페셜
접속
개혁
폭력
발병
##참
##수협
의식
새벽
##한미
##탄
배출
자산운용
발령
##소리
여수
연이
자전거
##캉
##교부금
문자
##보고서
옥외
오사카
클래스
손흥민
진행자
공고
##기관장
정밀
##활성
벌금
검거
화물
##미의
##OSEN
평생
##선박
1990
마음껏
보증
풍부
##내년
한동안
재배
안정세
감상
##음악
열정
##s
신청서
무급
##간담회
청취
시구
특별히
매니저
유발
##94
휴업
토로
##이제
##mbc
리스크
향하
빌미
##중대
##도로
자신감
##연의
깜짝
불러
윤종
##35
##람
임무
##첨단
대북
##도와
##Me
인도네시아
지능
4000
쫓
회계
궁중
커진
편의점
##영
##63
했으나
##령
##입
##콕
97
##보가
발의
##커머스
안전망
매도
민감
##의식
981
이뤄진
대량
러셀
윤활유
킹덤
크기
취업자
임차
바르셀로나
이재명
고정
부합
미사일
건데
트래블
가짜
총영사관
연주
통증
웨이스트
엔젤
##학대
부총재
##e
넘겼
올라가
##월간
조만간
승진
독점
갖췄
##조합
거친
바랍니다
베일
##놀라운
의학
안동
영광
저자
##89
풍경
1968
##새로운
##독일
##청구
자리매김
##책임
조세
##기반
수영장
되찾
성격
대체로
취득
We
돌아왔
##나요
거기
Copyright
상주
본토
한정
전후
1300
##자리
청문회
김효주
##주자
던지
키워드
진짜
웃돌
절실
##낭
도로
포스터
##버리
진영
보탬
시가총액
선행
##경대
전주
##포의
##제재
##복의
이스라엘
##탑
발판
##제한
지원자
관할
시당
드러내
반납
##청년
##대사관
이태석
공조
##태권
진도
통영
가중
완강기
##한겨레
##다운
##보건소
공영
61
##솔
리서치
##전이
##짐
도모
##공고
##POP
##게티
DA
명품
정한
실물
그림
##일정
마트
하마다
오랫동안
아웃사이더
##행
누군가
아닌가
개척
미투
충돌
기부금
우리금융그룹
창조
##04
표명
패널
쉼터
공감대
##홈런
거두
중반
훔치
코레아
주지
##우주
전당
리더십
이뤘
ppkjm
한국노총
확신
트래
##세기
범죄인
서비스업
수도권
##분기점
협의회
평창
발족
##나눔
랭킹
호평
벨기에
##을까요
매월
에어컨
##중견
서버
기량
월세
##열차
개시
##공관
##히어로
탄력
##콘서트
남해안
##상권
웨일
징역
여전
FC
폐기
##지식
나타난
마리
아끼
공략
##진료
##증
지불
어땠
계신
회복기
원동력
수식어
방영
##련의
##162
특구
##㎞
금은
##해제
2010
정통
군사
식음료
##소재
파견
##인도
든다
훼손
분당
들여
담배
##매출
##매일신문
##질문
아무
쏘
익숙
부자
진상
일선
##모의
정해
지향
##임상
반입
서면
##때
##정밀
##블러즈
초이스
기계
TSMC
##상반기
FBI
당선
##응
##자본
정점
가득
##일반
##베스트
##계망
가시
118
##공
승용차
##애
##재판소
##포탈
of
##공시
문빈
##대사
은어
##%)’
마리오
내외
프리
지적도
##했었
##sedaily
각지
타입
##팜
##통의
칭찬
유망
사투
나타날
##구요
개인별
##진의
과장
##력
논문
##블
오직
##CTA
책임감
##토론
선호도
골자
알려져
99
1998
떠났
##곤
군위
군위군
아무런
정유
##그러나
상당수
호조
##알
##터미널
##정도
철회
골프장
##52
##매체
교환
특허
##푸
##슈퍼
##전문가
엔터
문구
김민재
저조
쿠폰
홈런
##타수
##득점
갑자기
치렀
장려
##공의
텐센트
가리
##촌마을
김대중
열차
혼합
##추가
##세의
##증가
높일
##09
##사건
공부
키워
비하
꽝
성수기
고르
백인
##퍼
【
전월세
잔액
##래
##화의
폐기물
최적
##케이블카
왕래
빅맥
이은영
##편의
즐겨
플러스
붙잡
김포시
앞세워
##공학
한성권
##보험료
노후
##축산
##전북
1600
개강
오도
훌륭
어쨌든
사노
사라지
##글로불린
##미디어넷
공백기
##드립니다
##감사
삭감
상관없이
##복합
업그레이드
조회
독서
탐색
갱신
NBA
이상직
##59
입주자
##사람
##남의
##도청
밴드
발목
금속
##현산
목사
##신뢰
전방
##열
##촬영
신작
##물가
점수
극단
696
오지현
부활
증세
##감독원
생물
신의주
견인
##관광공사
낮춰
##갯골
##인공지능
96
싣
영유권
지하철
효력
오름세
##투쟁
문제점
상용차
##함께
##박물관
체포
##회의소
베스트
미흡
고대
167
복무
기술력
파업
한국감정원
빙그레
안겼
구리
성능
##교
딥
##연료
##구매
성남시
에코
요기
스크린
기념사업
키즈
사용료
##CC
##법원
명령
이윤
촉발
점진
##보장
의존도
##아트
왜냐하면
박명훈
찾아보
성숙
지켜야
순천
##영리
잔여
물리
근접
몰두
비싼
102
##스카이
힘내
스루
구역
어울리
##느라
발사
간단
주주
밀워키
플로리다주
보스턴
##끌
##행업
돌아갈
보조
증대
##수산청
자치구
우위
반박
회식
예타
##8585
월요일
타자
##팅
시판
군의
무언가
한식
##joseilbo
##해선
태양광
##음식
비말
7000
캡처
교실
##채널
##일자
##담회
출판사
게이트
##부총리
선진
수정
문턱
##바우처
연료
2002
착공
〈
난항
종로
김근희
시황
밑돌
영향력
스웨덴
여행지
카카오톡
놓인
##통과
2007
운전
사우디
표정
올릴
##원은
소식통
미루
탈북자
##TREASURE
우영
in
##케이
서머
디딤돌
전액
이만희
##일까
##재생
나옵니다
회당
동아닷컴
기념식
##시켜야
##갱신
조절
81
##커스
조종사
퇴직금
##거의
진전
별다른
##75
##캠퍼스
엄청난
재충전
##41
##37
##64
탈락
꼽히
전장
111
공기업
예의
##hanmail
금호산업
수영
##새
증원
##jtbc
관찰
나파
남동구
나스닥
의향
모듈
기온
지명
받아들이
02
##398
social
스토리
##랜드
##차원
피드백
에드윈
하드보일드
동생
한데
무기한
저점
##속도
거세
##경쟁력
클래시
이동걸
##로선
##항공편
적발
##여성
하역
##g
사회관
콘퍼런스
##가정
돌아갔
##동서
서한
기재
농구
보조금
황희
##】
동대문
파미
회담
수리공
피부
##든지
158
##신생
화면
다녀온
꾸러미
비상사태
350
한류
##창원
##소멸
티셔츠
##청작
소자본
##회로
시사
김해시
테이블
산업의
약품
뜨겁
임팩트
변호사
박종일
신축
##익과
끊임없
82
전례
비싸
휴대
코트
할머니
##WSJ
종가
##자마자
힘써
매경
커뮤니티
##사무소
##기한
조율
상실
##일간스포츠
비핵화
라임
##필리핀
텐데
파이널
게다가
##73
##수지
기기
닷새
기한
스탠더드
신호
호실
##인권
##단기
금이
##사각지대
##캠페인
##전형
##카카오톡
캠프
##훈
내비쳤
매달
반전
##개동
여지
과잉
##건축
요원
상징
##된다며
폴리
소녀
집권
이른다
##격의
야구장
##제작
시니어
##경찰
##트롯
##경기도
홈경기
양보
##적의
생태계
##안산
●
##도움
평택
베이비
온실가스
##감염병
위해선
시가
렌터카
늦추
##성모병원
여야
로컬
오사카부
##기후
밥솥
생분해성
##노트
한방
위원회
##유치원
##강전
비관
##트럭
DGIST
##화면
통하
##행복
아마추어
줄어드
##공무원
##전부
##랑
신나
it
텍사스
팀장
총력
##청사
중입니다
##욕
패러다임
성폭행
네덜란드
##월세
조례
사스
훈훈
스트롱
용품
월간
##36
범행
##글
송금
경쟁사
부산일보
##대주주
클래식
무단이탈
##송금
시상식
타당
##체온
행태
##밥
대목
스위스
##확보
안전성
아웃
런던
장마
암살자
고부
동행
낳
거점
##실리콘
늘렸
돌리
##프
##동이
##어항
##CCSI
달라질
손쉽
한꺼번에
##항만
성성
##소득세
##연준
##디
##규정
##전주
모니터
저하
정지
##재무
실수
아쉬운
창원시
##꾼
대행
##기존
넷플릭스
드린다
동구
신중
양양
IND
IFA
##스타트업
이건
##극장
국립보건원
모테기
브릭
수상자
##푸드
평범
머물렀
##국립
보답
##버렸
들어왔
##수리공
##리가
공문
들어갈
근무자
발탁
끈다
니즈
중학교
##주도
바꿔
명도
각자
##학력
고향
해요
##I
미뤄졌
멋진
gonna
##주문
된다면
기다려
광장
날씨
##적십자사
강구
놓치
벌써
치러
고소득
##통제
환매
미국인
##합병
##컴퍼니
몰랐
거주자
지도자
걸릴
열려
##58
정의
환기
안건희
##투표
내지
수혈
첫날
동작
##보드
맞물려
##내사
영종
감지
##엘
##진료소
길리
##결제
의류
불황
몇몇
양측
##적료
단골
##페이
##런
##비의
시세
당첨
##일수록
RBD
##내용
소형
공존
지혜
직면
주니
패밀리
재편
도선사
##gmail
주간
##워
경력
##품은
진흥
최대치
회피
##차량
무기
펼쳐지
가이드라인
메우
##47
고문
완공
조찬
이자
뉴클레오시드
##유공자
항공업
저작
강경
애널리스트
청년층
수험
코인
나고야
직격탄
궁금증
##낭시
연봉
##폭력
김봉수
미세먼지
전민기
☏
중복
표본
##홍
##꺼
지휘
농담
155
76
회수
##영역
수요일
##나무
꾸준
신의
최희서
결심
나와서
겹쳐
##혈액
피버
##회계
내실
진주
열풍
##칼
##토크
커지
베테랑
머무르
기인
1981
당사자
##리거
##BNT
납품가
뉴스룸
##원가
##퀸
##필요
과감
과학자
##48
##토론회
심지어
##오른쪽
##채용
고수
산업단지
정성
저지르
비트코인
##법의
##반응
##결정
다루
##관은
당신
모인
송도
크루즈
계층
##57
핵산
##실험
##십니까
##이러
107
##2022
무력
손길
면치
교외
전적
봐야
담보
현행
버전
##좋
78
##처분
그나마
돌기
확립
접할
성실
박물관
##준다
##발표
##랜
##생태
##IC
경품
유감
합법
포착
유니폼
부양
도자기
카운터포인트
포트폴리오
신한은행
변동성
객관
##십
110
##1996
최경주
욕구
버블
##사기
##제휴
광범위
원자재
##마당
벌어졌
고체
유흥
움직이
커질
이란
마니아
캐서린
##대화
출간
겨냥
다이어트
##컨설팅
스카이
고성
##태
##순환
중고차
기원
이목
##자치단
커뮤니케이션
출동
납입
##목적
무한
영화계
남편
특례
반년
##덕
마사회
지역민
소프트웨어
맨체스터
연상호
##후의
과천
##86
##맨
모아진다
##일부
부당
윤호중
꺼내
##항
실점
##면적
접근성
롯데마트
##밤
##동력
##협상
교섭
##자유
주차
##샷
낯선
##인간
미친
적립
##매
##키
사라졌
재즈
학교의
애정
##hwan
캐주얼
경찰의
프로모션
주류
줄줄이
##보수
##승인
##원대
##전시
꼬집
##효율
##기침
도달
수비
무릎
##RFA
운송
##고는
QR
##가들의
계열
지도부
국장
양천구
##운수
즐거운
비정규직
재택
기울이
to
컴퓨터
한글
##인증
##미팅
대여
##구단
이동해
구간
##신천지
##천안
##감면
##유동
##中
종전
##가공
##상승
항구
##답
된다고
규칙
##임시
##개의
남겼
랠리
매수세
마크
이용은
식료품
##사모
펼친다
집행정지
고시
이태원
##니스
##담가
게시판
사내
포괄
##칭
##spotvnews
유방
FDA
순천시
##회생
디저트
남녀노소
붙잡혔
수렴
##hani
벌였
##남자
감탄
반려
취급
##격차
어려워진
돌파구
쓰이
미술
여겨
구멍
즐거워
##수단
##08
타지
앓
주역
비하인드
##고교
##입북
국회법
게시물
질환
결핵
올랜도
조지
대우
##연
##지상
##문학
홈플러스
##지난해
총선
보여준다
목숨
##작년
##지법
##경복궁
##통역
##육성
응급
일명
##온천
##회가
펼쳐
서빙
조리
연합
##백화점
##물산
유니버설
책임지
##터
##해수욕장
청부
정은경
##요의
타인
청결
##수가
##치가
걸친
##피해
##라이온즈
인지
뷰티
급속도
관건
순매도
##MLB
포털
법정
##美
유출
##상준
##파의
##보도
##냐는
싹
할아버지
통화량
##사단
##최
##용관
##아픔
무인
추대
##호남
##사유
##장벽
##센서스
맛있
대표자
128
##시재
##4251
소방청
출점
출산
##일수
주방
셀프
비박
기독교
라이프
양치
네오
청원
쌍용
중도
##섬
민방위
##레고
트레일
##백주
산림청
치유
만성
##총장
경영난
내려
##물자
##주한
청소
156
##양성
재검사
존스
105
군인
독려
MC
박성광
##첫
하루빨리
데가
##수상
액체
딱
편곡
여덟
##의료진
문성혁
입수
어머니
복잡
이정현
박스오피스
블록버스터
##사업단
구민
드디어
##코미디
독특
##부대
이상인
내년도
##처장
엄중
재기
주전
##남성
##유치
킬링
더욱더
명확
일간
##43
##51
##2017
##어가
정했
모른다
##교수
장수영
presy
이영환
카니발
사이즈
명목
##예방법
##슈
깔끔
의존
COVID
##희
납품
AMC
스탠다드
싸우
필리스
노리
##아카데미
재건축
신용보증기금
시뮬레이션
##이정재
소설
##1273
셀룰로스
##힘내
##셀프
폭넓
##의의
##GM
업로드
시일
##733
##혈액원
동반성
산소
크리에이터
그랬
차기
대접
일레븐
인접
강의실
연예인
##관객
키움
신분증
##가계
없애
안보
374
CCSI
##권역
##지속
이낙연
Mnet
해병대
통장
끊이
독거
숙주
재차
##드림
접어들
플립
1967
격화
구수환
##연구회
복구
만의
채산성
공룡
시설물
##79
챗
##굿
던전
##․
##할인
후렴
##55
과일
##됐으나
댓글
애플리케이션
플러그인
고문역
카지노
입장객
테니
해지
##tf
교육청
세심
##니다
곡이
트랙
for
##식당
전염
횡령
즐겁
감동
돌아온다
제조사
##배상
윤석헌
##보좌관
우승자
정작
스프링
##서로
미네소타
기도
##원자력
뚫
소지
들으면
이용섭
수장
##스가
##69
눈치
관장
전시관
##무의
넘기
##군민
꽤
디아스
##어치
컨소시엄
한참
##임의
자립
with
##탈락
##야드
돌아섰
결단
쟁점
다변
각광
##병상
##어질
##캠핑
꼽혔
개의
##커피
##청과
한창
수차례
일요일
##원이
##한지
관문
##방향
우울
내셔널스
이정은
##한제
지나치
1211
내세우
혹시
홍남기
합쳐
놀이터
올라갔
세미나
소멸
##부정
편집
##MOU
둘째
##공익
##경험
##종목
241
폐광
부인
대가
바이어
잦
##in
다섯
원이
##네트워크
차익
성향
##LG
동결
참석자
##킬로
##연계
##메가
OECD
##8145
##혁
견제
입력
##으려는
##봉사자
##PCR
배부
##숲
##익
사후
쾌적
##느냐는
시행령
##홀딩스
세네갈
##빠르
Baa
우유
##누리
이동환
채무
갖춰
##경찰서
Olive
청계동
##잖
보험금
##AR
종사
니혼
##이자이
##문화재
##서머
ERP
##국금
230
기업체
##거
##망의
알아보
##염의
##FC
너무나
##바이
##마의
##선원
제거
66
##청주
신청자
활약상
방송인
놀라운
등극
명성
##컨
토끼
특종
속초
돼야
농림
결항
미술관
##룬
간다면
고생
##95
갈망
스페인어
안무
장식
##퍼포먼스
가져
##자형
##구장
##92
##전년
치매
##코페
예비역
자칫
약간
##척의
##97
브라
실거
위법
##모집
경과
독보
##기우
##251
##53
##42
복원
환불
그랜드
숙소
추락
유타
플레이오프
관계없이
다과
라운드
대수
이른
전문의
##황
##시스
1200
##위안
##또
방위비
수능
스푸트니크
고전
끌어올리
##mRNA
감수
##민간
610
애쓰
##경사
활기
##자릿수
특색
##or
2004
작전
##부부
##멀
##패밀리
알리바바
여력
테크
##검역
##강의
블랙
##총괄
플랜
노선
##56
정확히
빨라
장기간
인플루엔자
상황도
횟수
##흐름
##중소기업
216
조화
이때
땐
계좌
##형태
황지영
##98
##전당
PGA
쉬운
##배터리
파리
##공백
아이돌
##'…
분자
보전
회동
##〉
응모
##하락
##연습장
신차
##오염
속한
파키스탄
알고리즘
특유
하선
##단위
##밴드
품종
##룰
삽시도
저장
인디
고른
##사장
토지
이혼
##색
##디스플레이
이걸
어린이집
##연극
##세상
대첩
로테이션
센카쿠
파라다이스
특허청
##KDN
pjh
##중소
##였으며
원산지
##수사대
고촌읍
119
맞대결
희귀
쏟아지
##무증상
성장률
시간대
##영업자
##홉킨스
걸려
청춘
후원금
중학생
고등학교
161
##대통령
##MS
너무너무
##한가
옥스퍼드
용기
수여
##그렇
UEFA
##산행
들어올
##영국
##승선원
2005
깊이
##진도
복제
MOU
open
##현대산업개발
##사업소
Hollywood
##Arthur
Francis
드릴
##까만
##번의
충실
뮤지션
##46
##쟁의
관광업
설득
##스코어
프로듀서
다급
대담
빌려
발간
##조건
역설
##여부
염두
스포츠서울
떠오르
내다보
##내과
newsen
##newsen
copyright
양평
##외국
이뤄지는
열대야
##뉴
카를로스
##트립
##델
파운드
재선
서초구
단둥
고래
김유진
조망
##족
어려웠
평점
대단
OCI
반찬
제작진
급성장
동남아
##봉쇄
중부
웃도
##L
##자체
탑승객
##판단
걸로
인터
##다고요
호재
아트
##닝
##경
남녀
나무
반중
장병
배당
##국민카드
안다
컨디션
437
##또는
정강
고령자
영수증
사연
잡히
##웰
양식
리모
재외
##재택근무
마땅
##원인
중진
키움증권
한도
기축
오리
송훈
유나이티
성북구
##인치
방글라데시
국제법
수위
여아
순둥이
##시터
항균
캠퍼스
대동공업
##세자
오태훈
##혈압
거짓
##백만
전반기
##김
##부두
##대에
구형
겸비
하하
운명
##구간
사업비
tf
완성도
참견
번이
최우
##빠른
칼럼니스트
기쁠
##자면
지켜봐
희생
이뤄지며
전무
##UEFA
도중
고의
바르
느슨
조용
송환
사용량
심층
김도읍
대응책
대내외
##틱
종교
##양
##WP
획기
##특구
##105
투기
KTX
경기력
##는다면
재료
##고가
느낀다
러브
##연수
편입
##딜
IPO
우량
난다
치른다
살아가
고교
##매각
##대우
겹치
학업
구현모
과시
대다수
파티
불씨
도구
가성
##당과
##-)
69
##황의
더욱이
논리
##자산운용
윌슨
조명
심도
올라온
삼진
##투수
행진
vs
폰세
##줘야
견고
##LPGA
박현경
##신탁
던졌
분노
살인
반성
평상시
김동명
##OECD
덮친
풍성
승부
크다
##각의
정해진
##넥
간소
아무리
환영
전격
104
경전철
육아
##돌봄
##대한
순서
PD
올라섰
##식이
##군요
침투
벌어진
삼성증권
##숙박
##순천
##부문장
##텍사스
누가
떨어질
##학회
##송의
882
##헬기
##연대
휴대폰
들어간다
근거리
광역
##mydaily
수에
##차용
단행
종이
따라가
원내
고무
##교의
##㎏
후손
##연장
막히
세워
종류
검단
할리우드
생리대
##OSP
이명영
기안
과목
ELS
셋째
오른다
LNG
성사
##부활
신부
감비아
##법안
MWC
##동맹
##탄소
민물고기
##％
##아수
권력
비투비
예민
막내
시공
김경래
메모리
라이더
##자수
경찰관
당사국
밀입국
이종호
108
##너스
##테크윈
##스와프
주중
##비와
작동
제압
##스포츠조선
한다면
연금
##가입
함정
##북대
농축
갚
##시립
##았었
유이
들뜨
출품
남한
##경주
빌보드
##피버
##암
아레나
be
안주
##에이티
무더운
최우수
##례의
며칠
##음식점
끼치
##순
164
문진
본관
##프랑스
급변
##연결
잇달
구제
면모
고소
보고회
가점
시립
##수본
고척
색깔
포부
LH
회의실
##태승
떠난
일어난
연장선
상반
인적
가상
학사
컨트롤
디스플레이
##준칙
위로금
##코스
아픈
널리
##㎡,
비해서
연인
2003
##아들
##마음
주한
민족
##중공업
시군
쇼크
놀라
##볼넷
통산
데이비스
수용체
처절
가격대
풀린
##언서
중지
몰린
##명소
##모바일
포모스
삼성전기
시흥
시나리오
##연차
관여
강서구
유기
이원일
내려간
출소
갑작스러운
##좌석
문서
코스로
폴란드
##리스트
균형발전
공로
##행진
급등세
격인
##제기
압력
초저
송파
##구청
스윙
전과
682
멈추
##특권
특별법
발달
##3001
##관리자
어쩔
##증서
공원
고양이
사죄
조정기
개점
물놀이
녹색
##술의
추가경정예산
넓혀
전작
뺀
로드맵
ACL
오른쪽
공통
##공제
##핵
##플라자
블록체인
질서
특이
전향
성장주
말년
지배인
억제력
윤종원
##상거래
조형물
160
##요트
##청원
제프
컴퓨팅
##비치
피로감
##항목
장편
위하
##코닥
키웠
신선대
##신약
적어도
떼
세포주
단백
돋보이
##방의
원에
##호주
##증진
해법
처해
메이커
감회
파괴
기침
후배
컬러
엔딩
##무대
##메시지
창의
##양의
남겨진
신도
소환
##리자
러시
##IND
섹시
청사
공언
축사
간사
##응방
연체
##마
뛸
당연히
##감축
일관
다큐멘터리
대사
##예년
##유전자
수요자
안방
화장실
심장
수고
창사
법령
근처
##무엇
나의
편하
##61
##역본
비록
디즈니
의뢰
##토록
입사
전경
생계비
별개
현저히
데이비드
##인더스
##1997
추광호
CC
##풍산
바이
단말기
240
치명률
양파
선택과
##프로젝트
##심
##가운데
해설
굳이
##체인
패권
에프
##NUGU
부적절
##테크노
가톨릭
놀랐
고지
구장
트로피
피폐
과열
구청
##현황
신약
체중
빈틈
상식
##창업자
국악
자세히
등재
유저
고충
##해당
상하이
##방위
##조직
찾아오
##대본
##거점
DNA
욜
경제학
대법원
주거비
덩달
바람직
##드렸
나란히
상하
보일
달라졌
둘러보
일괄
##그런
##패스
##뉴욕
거품
##주파
##달의
##에다
레이스
##치킨
##보조금
알차
만인
1138
조경태
사직
##용역
김태년
##피아
합작
##VR
조속히
털어놨
돌아온
장학
##마이애미
유전
이력서
##|
탁월
##인프라
결집
제작사
##길이
##자생
거둔
피고인
##듯이
피아노
남수단
##폐업
##쉼터
##상생
책자
우편
##MWC
업데이트
그리스
##연도
고맙
전선
##램
처우
주신
환경부
##혼
브레인
##고양이
권아솔
이루어지
##콤
##페트르
##소수자
안녕
내릴
응시
침수
대원
경제인
개원
진주시
베이
##조스
##상가
##이마트
안면
▶(
김종대
골드바
1921
##2580
##실의
인지도
##05
##6500
##공무
##이훈
##려던
기울여야
##xportsnews
##종이
농어촌
##학
밀리
##메디
흘렀
도레미
하우스
생길
산발
##매일
##ZERO
FEVER
part
##Inception
여정
출연진
맛집
##경의
##나마
##마사회
수협
치른
늘린
애리조
##홍보
강동원
몽골
가평
영장
163
##osen
재입
##신협
총량
##우즈베키스탄
##리바운드
투구
연구자
드림
##진출
##월드컵
##돔
공용
단번에
들리
더더욱
그날
유권자
원주시
##농산물
로렌
쉴
수락
멀리
##부모
육군
기적
흡수
ESPN
구호
남미
의료비
도울
최기영
##EV
국고
순찰
##탈해
접점
열악
레시피
##밀
존경
윤태현
tomatoyoon
##FOMC
##이미
전사
고유
##자재
##전력
기피
##능동
바꿨
##금값
##클리어링
##레이
##02
놀란
##놀
조롱
매뉴얼
그라운드
디자이너
정치국
##칠
로케이션
역의
##배우
##간접
##브라질
유의미
##코트
상점
##이시아
##봐야
##향
블라디보스토크
인공호흡기
##블루
시진핑
명분
나들목
낮췄
긴밀히
동계
급속히
실전
OSEN
얼어붙
##작품
쏠림
##경보
보육
봐도
기상
##웨이
##혜택
학기
면세
플라스틱
가림막
##조약
문화재청
가파르
##니얼
이어진다
##중증
공무
크리스티나
사용자
생애
신분
국한
##천의
CNET
335
거센
##세트
구로구
맞붙
##과세
몸값
속속
##예
정순형
junsh
화답
##카자흐스탄
하위
패턴
##보안
고양
언론사
##엔지니어링
우세
##단가
박지원
가동률
##모듈
##생활비
차세대
박쥐
초등학생
##행동
승선원
잠재력
추미애
##고투
파크
##부사장
부서장
서밋
정확도
면세점
통신사
세계유산
적시
전해진다
##머레
경매
##엄마
이거
##진입
열지
직관
##라든가
##스타일
증강현실
수출액
##승은
##서울시
##NIH
보인다고
생쥐
밀크
으뜸
##빅맥
소프트
윈프리
##매립지
가구원
생략
안산시
##수산물
##워치
움막
출입국
##관리법
내기
공직자
##죄
적도
득점
악영향
이뤄지고
##논의
날짜
KISA
침묵
##평소
영문
꽉
인제
연평균
살린
접하
ohoh
##병기
##뭐
##모두
##문해
거소
##비자
학위
제제
뵙
love
작곡
녹음
really
people
마디
이겨낼
업소
마리아노
극장가
발대식
인문학
유의
##페스티벌
힙
할매
미뤄
##진행
북측
견해
##질병
##내달
##참한
손수
짐작
개인위생
##발급
##렌
면적
##상장
약값
마주
약자
단어
객석
꿈꾸
##테일
제치
##키드
청량
악용
실형
##공유
##공모
##을수록
나름
##네트
##디자인
아닙니다
##비아
띠
##2023
##기원
##ONE
정형
반사
##밀러
남다른
만들어진
슬기
에어
옮겨
넘어가
공표
극찬
인형
이현아
##조사단
##애플
적립금
마운드
내려갔
패배
살려
발돋움
팔꿈치
인연
송구
##만약
##엠스
내려가
오바마
중시
퇴출
##으론
##확대회의
꺼리
##인회
##액션
구출
돌이킬
##질병관리본부
교훈
##높
쏠리
가맹
마거릿
할지
길이
##동물
##낼
##융합
가늠
MLCC
외면
##활의
대국
##N
##끈
최장
##㎡)
브이
나뉘
##도심
유급
피력
보잉
순환
##96
##작전
188
가슴
만난다
##비중
##제조
간접
고공
콜라보
뛰어들
인천국제공항공사
##직의
##차단
인사이트
멤피스
##지디
##zdnet
ZDNet
4329
준공
검출
구두
철학
##시행
믿음
택시
삼계탕
##삽시
##인공
과기
##숍
시내버스
빠져
괜찮
화생방
##비시
##석유
RNA
메리
266
태어난
연면적
라이
DJ
##하인
면역력
가깝
곡선
OTT
선수협
문성현
##창
##%→
정서
곳도
단일
박수
파이팅
해커
##세네갈
##획단
괴롭힘
##도쿄
##충남
##확인서
콜드
##7733
##초등
잡혔
푹
추방
억압
첫째
입단
원양
살아나
##롯데월드
윤대희
##부양
자격증
##라든지
국책
봅니다
##캄보디아
쪽방
표류기
과자
찐
온천
치료비
품평회
맘
박지혜
##적용
극심한
##빵
##실습
##양식
대두
퀴즈
재밌
##PETR
##IMF
어기
개그맨
##카지노
초회
넘어설
준우승
주어진다
##씨티
우호
##농가
저널
지나가
나중
증평군
연회
편한
더블
##트랙
성금
##호의
각별
휴가지
참모
피터
##커
##cm
다지
##선거법
저지
트윈스
실책
특집
제네릭
##기획사
지우
입주민
땀
건데요
##공동대책위원회
근절
165
153
이방인
거장
330
싱어
턱없이
특강
##멘
올라갈
##H
##될지
임박
1997
센서
잠복기
분배
한지우
뉴욕주
공공시설
푸젠
받아들여
서초
좁
FOMC
##형의
남측
보강
해시
고려대
형평
환원
컵스
볼넷
##93
잭
라이트
##68
심하
확률
당하
재현
##제는
##면의
서열
노동당
##살인
추격자
마침
구립
##주체
한전
입구
죽음
돌보
##주시
##타이
지켜봐야
본선
열화상
끼쳤
##JCT
제동
게리
##널
어업
동거인
유인
4500
스테이
아모
##풋볼
태세
대의원
##인덱스
##미스터
통역
검진
당황
##품
김태형
##셔
##2002
##쪽
##학년도
##세율
말라
막판
의자
동미
미쓰
##예금
페이지
##출연
##인텔
##그래픽
103
##담당자
정교
Fed
쿠키
박스
##한방
##체인지
붕괴
매물
장시간
##관계자
실사
##브랜드
치과
##꺼야
거시
##개혁
후기
영동
모의고사
집중호우
MBN
장장
체육회
베이커리
발레
공인
당면
##저축
―
2300
##복무
서포터
누계
##jebo
##제이
##대주
최신형
##힐링
##정치
그걸
노근리
79
##르미
요트
##IFA
##다양
##전시관
##bp
일치
핑크
##걸음
##리얼
조립
권한쟁의심판
##발전소
##엑스포
멀린
부위
OCR
##천은
##자녀
안전거리
##증권거래소
고조
불거지
모형
총재
이정진
대대
붙이
##개방
장익수
독성
결승전
집짓기
채소
##실천
보탰
그랬던
그럴까
역이
영감
시화
문해
벤자민
To
전의
풀어낸
섭외
급기야
남겨
술집
일어날
위약
나선다고
대명사
고루
구매자
##자도
##사로
활발히
아메리카
챙기
명실상부
날아가
모양
기흥
안무가
찾아왔
과감히
잡지
선점
흔적
크리스
눈앞
후퇴
##항의
손실액
재능기부
##송라이터
##뮤직
간절
거짓말
자부심
##여객
##무안
돌려주
##이사장
##복수
##인터뷰
##스퀘어
850
과다
##오마이
종종
샀
빠져나가
코리안
by
세분
환전
기종
143
머무
얼음
배인규
거절
절박
부연
##설비
송출
저커버그
나쁘
3500
미드필더
수비수
##자문
역점
이력
##pressian
83
##01
브레그먼
그래픽
##제네
mRNA
심한
##강남
##서초
출원
##어서다
##라기
최악
##튜버
오브라이언
당국자
노스캐롤라이나주
여행자
##연출
유치에
기판
##포털
분열
##준의
중식
157
coinlocker
실업자
농업기술센터
들어설
AR
Sh
##119
##법상
##최고
##환
271
생필품
느껴
장치
##일간
##한다며
CP
##지요
##급식
실감
##합동
청정
금시장
친중파
수리온
소방
황각규
##백억
혈세
대니얼
신뢰도
세운
골든
뭔가
건설사
옛
##스페인
##뉴질랜드
김현경
##근
##영의
북부
모처럼
오락
##예매
주소
##보이즈
올바른
유독
키오스
철도
##줘
임신
##외교
정치력
가급적
##부서
다짐
권장
On
##주점
##천시
세단
##新
RFA
남포
추인
서대문구
고스란히
민생
역동
넘긴
##허브
달해
##여건
##혈장
산업용
달랐
라이스
샤피로
코로
머스크
2040
BMW
버핏
기조연설
갖춰야
##투석
##동자
변하
대한체육회
##조세
##임원
##스튜디오
##청정기
##전담
##혼란
##서수연
##배정
세일
여객
필두
버리
안착
동성애
샷
##렀다
##어제
##도원
사이언스
출하량
오클라호마시티
##라이프
냉방
미래형
##삽시도
소득세
##지나
버크셔
메그
공단
영동군
헬기
예스
##비빔밥
보석
펫
빈번
일수
공론화
숙의
##항체
국제통화기금
##특정
##진이
별명
누리꾼
차관
저출산
다룬
##완전
내로
아실
엑스트라
국제기구
김진
거머쥐
##제프
기쁜
닿
##럽
##돌
메일
##해진다
돌풍
주거지
명소
진지
popnews
heraldpop
학술지
졸탄
다녀간
##진자
kim
고강도
개최지
공이
올라서
##스테이
##증폭
##외교부
##골프장
리듬
녹여
눈여겨
직영
##예측
소망
멀티플렉스
나간
불꽃
사원
기증
##리스
1900
##났
레이커
##도서
찾아내
영구
##예정
미래인
##대수
##득
##joins
##순손실
##전시실
450
##자치구
가라앉
보편
현명
다가왔
다우존스
##로움
온누리
##민족
##쇼핑몰
가져올
##삼성
##차이
##르
##캐피탈
##재정법
##사업비
라이언
동남
##태그
중개
국부
일어났
이어서
신인
샌프란시스코
449
##우
필드
스폰서
마이클
##매제
미세
##사무
##개관
사단
까지
##재무제표
아닐
뼈
뉴노
국채
말레
고리
투자처
##음에도
6800
건설업
폐도
##경마
##원주
본국
눈높이
##강원
##고령
전파로
관리자
다리
##2003
##인플레이션
##졸
##아웃
##화이자
억울
##매매
만족도
##밀착
##수산
꺾
노무현
##측정
맡기
표창
수천
##에서부터
이승훈
##모닝
114
이론
경계심
벨라루스
##전통
통로
sj
유경준
열람실
NC
##기회
엑스레이
마중물
채워
외치
##㈜
오염
여권
변동비
2001
ʺ
##ʺ
도드
##도드
넓히
유흥주
##패션
https
이대로
다극
##벨트
프리랜서
##조성
김소연
그분
자식
채우
발사체
더구나
##ESS
트리오
조작
나이키
##FM
용이
##치는
맞춘
화두
##친환경
##범
##남대
애경
##리라
##광고
교내
오리올
##가장
바꿀
경제활동인구
##철의
국영
라는
보존
예식
이화여대
##악
##종사자
##관망
가파른
##보유
서방
##집단
저스틴
##요기
강판
##위반
해운
특급
포틀랜드
##국방
위대
오페라
발발
##lee
##비상사태
##BSI
구독
쏠린다
##이치현
##쉬
턱시도
현대제철
인허가
노르웨이
방위
##효
밥상
쌀
KF
이산화
소강
##필
##작가
##부정의
훈육
##추
##학원
DT
큐리
##서류
《
심신
베네치아
보관
##NYSE
##성분
##수사
확인서
##부여
##감염자
144
IMF
360
긴축
훌쩍
증권가
##KISA
친해
원금
스타크래프트
자정
##농
##위가
발동
##염과
빈틈없
##너무
##꼭
수인
오대환
일반인
통지
##던데
서사
달려가
##다의
바가
방송사
노스캐롤라이나
리스트
이레
##의정부
출입자
방문자
##')
취했
248
일사천리
##어라
시켜
무거운
##검찰청
그려졌
트레이닝
아꼈
아빠
직선
향유
구비
차근차근
##목표
##어려운
무작위
흔히
느낀
터미널
498
국무부
뿌듯
##져서
##태국
워너
##청이
줌
##눈
민경석
newsmaker
볼리비아
키울
##업과
대하
손병두
따지
##베드
이탈자
##원사
##요금제
##대원
##하노이
퍼져
##소주
##기업인
피할
IC
항바이러스제
왼쪽
제너
##구축
1478
취미
레저
스콧
도발
증액
케이블
연동
야경
##베이징
조제
##민선
##적립금
가말
##완
말리
몰렸
##루수
##리온
고개
가해자
포토
좌승
##창작
구로
##가짜
건축비
색다른
무자비
##폴
무비
구할
##정말
조세일보
##잔
수만
적임자
웹툰
##허가
홀로
예술가
##것
대장
스튜디오
머크
##밀정
##품목
##헬스
고철
##학술지
동남아시아
주석
늘릴
##도로공사
닛케이
기승
##콘
##스쿨
라이온즈
공적
##노동자
##전시회
러닝메이트
정문
합성
산출
청약률
##주로
파운드리
게스트
관중석
##’)
심판
웃돈
발부
밀레
##IB
금과
명은
파생
만회
캐디
부정행위
퇴치
IATA
건당
##수와
##핸드볼
##설명
##운
시키
부터
##내일
적혀
##임금
유색인
##덤
클린
사업체
수와
##123
가져가
계시
해외여행
##맹의
##쓰
일으킬
##책의
데이브
##상업
무전기
역성
나아갈
시노
기준치
IPTV
##전공
더딘
기탁
인덱스
##역대
159
##화력
지났
##슬
##국민주
254
하이브리드
일제히
태블릿
keun
깨끗
##콘퍼런스
확실시
##재즈
##위크
##아름다운
##쿠폰
오스트리아
오디션
##레스
1100
제품군
GM
꺾이
##스와
야기
전송
##실물
번영
전념
##제이기
넷째
이인영
##munhwa
충청
전산
##메뉴
들깨
오늘날
아산
외화
마사지
##인먼
##농요
##담사
##뮤지컬
다를
존중
오디오
##분경
기성
무주군
트레이너
명예
##도스
##도장
##임대료
이기
공청회
필연
##연소
반장
##배송
##KOTRA
프로젝터
DID
Atomo
에듀
##공매도
TS
174
오서산
상품권
산학
중앙일보
원천
티저
기운
폭등
회견
기다렸
언제나
행정력
해킹
##MC
푸른
생보
1700
##더불
금년
##시국
서먹서먹
##유이
##GSK
##비스
독창
공관
##7375
풀어내
보람
##었었
이렇게
기다린
##광역
수산업
##촉진
시어머니
##탕
소문
휴식기
dream
##比
당뇨병
##웃
안건
컨벤션
살해
##파운드
앞당겨
금감
##행과
트레이드
##250
##인생
주차장
동갑내기
되짚
메이
##한편
##컬
상세
매점
발산
탈환
##가라
불문
##아연
##기대
##포장
온전히
##선진국
농민
감자
간다
바쁜
조용히
살아남
입대
##관사
##통업
줄인
##원송
챙긴
##판사
띈다
유소년
스포츠조선
피츠버그
지냈
재테크
KDB
월드컵
단점
##의체
미래산업
스포츠동아
고가
낮출
##워싱턴
##지회
##육의
컷오프
##플레이
Rights
Reserved
이음
만하
446
방제
##믹스
시연
상처
##397
선보인다고
##"…
한쪽
##객
꾸려
WSJ
쿡
바짝
멈출
끌어올린
광역시
부임
젝시
수어
화폐
던진
내주
당했
세인트루이스
불펜
##발의
미추홀
수백만
##상한제
택지
##회사채
총액
##작용
남포항
한강
-'
느와르
인해서
해온다
BIG
집무실
아카데미
파트너십
##개주
모을
##약용
##세미나
치킨
엎친
수년
##어떻
펼칠
예술인
##고리
코너
일가
낙폭
매코
##일인
밀착
제언
한눈
1992
썰매
##67
##찾아가
위성
##분에
오브
##결합
진술
진실
##요령
##매치
##Untact
##문재인
후보자
지방분
이바지
서양식
다운로드
##시점
##방해
프레젠테이션
##엠아이
미얀마
교과목
면책
뛰어나
무너지
##로워
명부
개막식
##할까
몫
착한
터지
##접수
##New
##과거
##회수
##용량
##으려면
휴먼
##왕
퇴근
다가올
의과
중환자실
##연말
공세
##캡틴
##4353
해병
정면
초선
점프
280
##던스
##담배
생체
싫
산책
로켓
전폭
유가증권
##중단
김부겸
##토의
정치인
##아모
피서지
액수
##플로리다
급속
한국어
##전산망
이대호
그쳐
분담금
익명
이병훈
전달식
놓여
관악구
##테마
그친
##망치
##실질
볼보
클로로퀸
##훈련장
후유증
##사망자
케이블카
900
판사
전라북도
신파
리포트
##LA
노트북
밸류
연쇄
타임
##관박쥐
순회
##정통부
##총의
##3069
직결
베터
앤디
##양국
함평군
고농도
기장
디비
인포
르네상스
열도
키르기스스탄
차림
차가운
떠오른
미룬
안타까움
##지시
식물
##인가요
##The
##부지사
디바이스
애덤
##유출
구도
살균
안부
##워킹
팔리
늘려야
##골목
##얼
새울
##공감
규격
악기
그럼
##극단
한껏
친밀
화가
애틋
##부족
##mm
시티투어
기해
##포드
준비기
##넬
전라남도
건춘문
스펙
##보통
광산구
##소설
수업료
1944
##링단
홍범도
##에스원
##중량
베토벤
##륙
##2012
떡볶이
성폭력
##부산시
##성남
폭소
이뤄져야
수거
타운
줄여야
강자
##힐
싸여
##2014
어서
시상
##지자체
##동시
하시
했으니
법무법인
##사원
낫
거창군
강력히
누락
트로트
168
1116
총출동
빼놓
정화
주식회사
##입장
조달청
피의자
##존슨
단호
##이게
기고
##비노
소소
사소
임할
기다림
선발투수
팻말
성지
##비즈니스
##기장
슬프
##라가
##무도
귀금속
복숭아
옥수수
##토지
반환점
복수
구직
##2013
간절히
##후보지
순증
##회차
아성
심정
##구인
에일리
##여기
무겁
양형
##엑스
모은
공산
경영학
##정신
분포
아르헨티나
연다고
##요즘
입니다
##비나
##부진
##치웠
##윈
입소자
계단
##우승
##128
##틴
##알파
지지자
우루무치
여가
##음료
우여곡절
##드사이
그저
##증한
##미군
##페이스북
알파벳
도스
##타당
##토트넘
칼럼
##밸리
봉사자
##교협
마일스
묶
애틀랜타
멀티
##71
로드리게스
안겨
빈볼
결과물
아프
돼지
##송파
슈퍼컴퓨터
아미노산
배수로
##우선
##스러워
쾌감
말자
대타협
수기
입장권
행사장
절실히
민심
넉
애니메이션
우한
##유형
##시흥
##mtstarnews
대란
이은
##카메라
빌딩
##건물
도로공사
##사별
탔
인테리어
##요양
정세
##지정
혈소판
커플
2434
##젯
##스토리
정오
##삼성전자
##하이닉스
##톡
김승두
kimsdoo
대립
오해
총학생회
##daum
수록
높인
헤지
상관
타이
##콩
달아났
##산업은행
149
##↑
134
##선전
텅
달달
메울
HUG
부착
비행
도전장
각오
##움
##담보
명확히
팔레스타인
홍진영
##칸
달라지
##근무
이수
2359
397
##현대차
폴리티
공산주의
##셔야
라이프치히
아까
지닌
결코
##7800
따져
유영규
##ykyou
풀리
##보훈
##감과
막중
##규칙
##영향
##장한
##상황실
CPU
호전
##창조
더워
##속편
##maekyung
나쁜
##업소
장맛비
##주대
알레르기
##현실
이동욱
##돼서
감액
압구정
바뀔
작물
##신속
청중
##이강원
밸런스
##큰
전주시
되게
조력자
박정
고립
일대기
톤즈
##실직
재해
##5700
##Baa
품격
##등의
##發
체포영장
##력사
하이라이트
끊임없이
##BSK
##출국
낙점
##은데요
###
##철인
큐브
조속
보여준
더위
완자
오리탕
침착
책임져
##향의
신주인수권
보태기
초콜릿
군악
모를
뻗
강기준
세전
##피크
개소식
라디오
양적
##아베
기관지
서지영
베스트셀러
##이야기
이기작
##남항
영등포구
일자
후반기
울주군
표면
체내
형편
##복
##태세
리라
박정호
화요
##담호
달려온
월마트
성과급
##화재
##간호사
연산
##삼양
원사
##홍춘
##casinohong
##파레
동백
##밀집
ESG
스파
##승용차
황보선
##go
수료
실습
##표시
##가인
자급
##단독
블럭
유재석
주인
레전드
방치
끌어들이
##DGIST
##개념
제게
##배당
##보험의
프로게이머
방송국
##아프리카
체인
모은다
혼돈
대금
원룸
피오
##아스
작사
##신다면
기발
are
못지
영혼
##소방서
##예수교
436
생물학
트롯
##앉
다행
몰입
기립
한해서
다각
기울여
ABC
##마는
근육
##어시스트
##인수
이스타
##저리
다룬다
##란스
반경
도보
##썸머
당당
음색
머릿속
##곡인
짰
봐주시면
떨렸
끌어올렸
상설
독서실
용도
거래량
##비교
##지인
혐오
취한
##345
대륙
지켰
대손
GKL
창립
##백혈병
윤민
중고
##먼저
##IPO
##서부
재직
칠레
##책임자
##웍스
##03
목회
AFC
동아시아
##944
기아차
일례
행방
복도
자라
헤이룽장
##객실
##선물
이태희
##해서라도
곱하
크레이머
##착오
##목상
시달리
여의
##스마트폰
##경과
이용료
최전선
로비
알렉스
홈구장
일으켰
옵션
##78
유격수
내걸
수백
##동대문
hACE
##수욕장
휘말리
매번
상관없
##학술
밑도
##기적
괴리
볼거리
편지
경관
onlinenews
##호가
흘러가
##공식
중견
고정비
밀어붙이
##지로
##점유
##마녀
주연
##해수
조세범
비타민
월급
##주석
퍼진
지쳐
들어와
##역
선상
잠잠
줄지
예컨대
모빌리티
테이
2500
배운
176
##지질혈증
오한
부리
##家
제네바
일축
밀양
유사시
##냐고
##친화
조아
수반
몰려
실리
##유튜브
##우산
박탈
급부상
지체
##집행
안산
##행장
##소사이어티
205
굽히
##실업
군부대
543
떠올리
돌아보
##부제
중위
박성현
부추기
조장
##동과
##아파트
올스타
병변
##클린
##핏
##회도
##퍼스트
270
변종
내야석
김지원
##택배
숨졌
내세워
경연
약국
김수영
평등
그녀
김낙현
채팅
##당하
##벨
노래방
드러난
##신규
수당
끼니
급식
##보낸
장거리
차감
궤도
##남양주
##시약
이듬해
알찬
락다운
##누가
타율
세력
##SBS
##가수
근무지
사들였
각기
식별
##초과
명동
이덕영
##남도
목포
맥락
손가락
농심
특실
교보
화물차
크루그먼
##호수
##문화예술
1117
대학가
시에
고점
엠스
##;,
의총
##리츠
경유
##봐
##합리
##연령
위약금
신영
##약물
광화문
영원히
육로
취식
뽐내
문화재
산불
##만장
살피
포화
명칭
될지
마칠
엔진
2600
세율
거액
밀렸
성당
##골퍼
리디아
##㎡(
영양
##자신
페인
289
미군
각별히
##귀
제대
아이스크림
방역대
과학관
스터디
CF
김연경
내려왔
태어날
어떨지
온몸
김정유
모금
삼척시
##온의
욕심
구독자
##금지법
감리교
식의
신재
주입
##네이버
그럴
용어
##소방
무주
##제회
##로직스
내과
##빌리
역내
항원
##테마파크
aT
이청용
비빔밥
온열
CHOSUN
핑계
빨간
슈트
##Five
보육원
##동정
##울림
신자
유니세프
프랑스어
##상과
군포
오른팔
소주방
##동철
필하모닉
단원
대차
장착
##개미
##엣지
기성용
에미상
정선
##오프라
전미도
##》
이동형
##몽테
스미레
정지훈
##에프
미비
##76
##요소
성범죄
결승
유무
650
##동제
##부도
영세
성적표
긴박
돌아와
거쳐야
권유
만두
판매처
과밀
##미술
낭비
##의학
지라
아쿠아
든든
갈증
치명
멋있
끝없이
##싶
경진
문건
명문
##레알
총무
찾아온
재치
소품
##보상
480
##친
##스트림
담아내
##장도
##독단
부치
##적극
면밀히
##채의
애로
##SARS
출격
창업주
제주항공
이끌어냈
장난
선보여
데려오
##건과
##189
넉넉
목동
장충
##싱에
레게톤
댄스홀
##댄스
어우러져서
감회가
묘했
들으면서
신나고
##진주
창고
취할
식자재
어쩌면
##스스로
##혼자
어색
##기억
연상
단호히
이영호
사의
##식음료
##공기업
##다이소
오토
##검토
리딩
미팅
벅스
##농구
앤드
부응
걸린다
##고와
##NH
##관이
학생과
근력
##아시아나항공
마곡
##결국
공교
빠져나간
위의
##박카스
##세린
##사간
실무자
Security
##알토
##이드
음주
오징어
피자
한두
조시형
##빌
안시
##외환
##남북
헌혈자
종업원
시인
각급
##717
466
##루프
##트롤
미뤘
베리
##비에르
##EPL
실망
##징
학부
미지수
드미트리
인공위성
저지른
##볼티모어
바뀐
막힌
버티
화이트
펼친
루키
임희정
텍사스주
꿇
BBB
##교섭
인원수
##정보원
살포
##제인
##예비
##가명
주권
쌓인
야구팬
달려
IP
주효
갯골
발걸음
선례
##인재
1994
##정지
##로봇
아닌지
뛴
영토
##생물
##휴게소
##이재준
##벤트
가까워
순연
울컥
메인
들이
##평생
유네스코
##113
##인터
박태환
은평
메디신
양우석
##국토
소액
##기념관
##이라크
##전체
123
현물
골드
순익
##ｍ
골퍼
시카고
##런던
##라루스
##웹
떠올랐
##챔피언십
이민지
간섭
KIA
성황리
미달
UN
협정
신화
아기
##7752
##뷰티
신상품
컬렉션
##임대
벨트
최저임금
##오프
##회원
월북자
귀향
거란
기세
##수처
##감정
터트렸
출현
이색
박이
박기원
커서
지단
##으려고
일찍
##비축
나갔
단정
재학생
##김명원
kmx
##1105
##클라우드
##저장
##키르기스스탄
가해
##DB
##상환
9000
홍천
##강원도
가족의
전략가
##V
범주
##동네
##애리조
질주
##해상
##갑
화합
김용우
##캘리포니아
알트리아
어긋나
동서
##On
##노래
마권
승합차
두드러질
##예술인
굳건
최형두
의구심
평년
##진작
##대안
##운송
풍산
##CCMS
밀폐
##여행사
미공
##고시
유광석
##캠
##멕시코
잠수함
##중위
474
정국
##식과
##타임
타사
##일상
워런
220
소위원회
##육
170
발전소
포용
거둘
##서양
청두
서프라이즈
요지부동
다툼
이춘희
만장일치
##당시
##돕
##동원
1970
##임상시험
분획
##구안
서은광
정관
디비피
조업
##아이템
##2016
##스팅
예사
카리스마
케미스트리
##소녀
결실
엄청
랜턴
##조끼
##노사정
들뜬
경지
109
아이치
##돼도
축복
##오의
중립
PETR
산재
신생아
##통시
엔지니어링
김학균
##복과
##액세스
##특보
평택항
한빛
##착한
관방
##개편
국산화
##환경청
##정식
활동가
아이러니
노숙자
비상시
실수요자
고노
대군
수성
입혀야
포스
파파
씁쓸
파장
추석
LY
실장
리얼
흥국
##생기
통학
스토어
함안군
팟캐스트
루지
##성당
##출생
인텔코리아
##공은
민법
하림
서무
해피
KOTRA
진도군
BoA
문장대
면세품
구보
카탈로그
휴양림
##조리
##홈페이지
벌기
##공직자
달여
만만
양산시
유선
결렬
강호동
이상민
##촌동
계약자
학급
이명철
발효
친숙
때로
pasta
접한
##아침
경주시
코멘트
찾아갈
##중과
스펙트럼
캐치
달려갈
나위
##마세요
##했으면
##mk
화재
신입
받아들일
##레드
명당
체육관
거창
박래
케이크
안병용
블로그
##가논
##디의
##이탈리아
##부당
##AFP
직계
##제약사
나노
1996
둘러
##슛
뜨거워서
##창의
##연내
개통
##나노
통풍
풋
조바심
합해져서
흥얼거리
OST
남다를
토닥여
##필름
노골
분의
##한강
흔쾌히
##탄생
권영진
희망퇴직
201
주고받
##레저
보탠
무거워
##대유행
##코노
##메라
맞대
##인상
##인솔자
##직무
##2011
적외선
엄정
빈혈
##양사
희망자
유료
중심지
합쳐진
마늘
중환자
바꾼
대전시
음압
재량
##대형
경색
최상층
420
##조항
현행법
궈안
연세대
##효능
키릴
1957
소련
린드
##블럼
허리
내줬
소토
날카로운
##클
190
##211
일으킨
수면
##환의
##펜
은평구
지니
뇌
통감
##공작
저런
체형
초월
욕망
##절대
스톱
##간다
##첨가제
약진
코엑스
##선정
##누적
440
##여수
개개인
##축
##여단
캔버스
소극
고소장
##구호
##과학관
영업소
##DC
##됐었
잔소리
##성적
##갯벌
##낚시
커진다
써야
경각심
##웅
경영진
황당
진보
한산
##멜린다
##불안
샬럿
살펴볼
심상
정가
월별
사들인
김호
원치
##요건
##호흡기
##CP
##현금
##다는데요
코레
##나주
타워
청사진
당의
##구성원
추측
가방
올라왔
##은퇴
##오브
##아메리카
1580
추종
친지
사우스
##차이나
캐피탈
번거
네티즌
다름
불린다
##끝
##ABS
내밀
선발전
##라우
감리
댐
##성추
사운드
##영회
##기자재
##어떤
##러스
합병
유아
박소연
##세금
주길
외야석
과세
##베리
국민체육진흥공단
순전히
##입니까
##중간
실효성
시그
##꽃
봉화
자동화
한남
여타
##바다
발주
capital
##은의
135
##소셜
불발
##우수
플래시
논쟁
에스퍼
제임스
##’…
이뤄냈
다니엘
규율
두루
##탈출
색상
클릭
유용
##헌장
##촌
##손님
빚어지
수분
세밀
양극
박근혜
번화가
생활비
##염력
##구민
클립
체조
##김동우
bosun
배급사
이상일
##대의원
하나하나
걸음
세일즈
관악
##발사체
##만주
##포차
##테이블
##코인
모레
##노력
단기간
현대모비스
##손익
두려움
동화면세점
산단
한국프로축구연맹
##송가
탐방
카탈루냐
##폰
##장외
부평구
##PC
##국외
##겔
##이념
라운지
파동
비춰
오프닝
신흥
392
익산
군청
끈끈
##짓
신조
##Stable
##브루
##독재
HMM
컨테이너
##습관
4900
##대인
##수석
김지영
시름
연중
##선세
피아니스트
유찬
2006
##숙
##유산
중국인
미처
##결산
플래그
##maniareport
판명
##탈퇴
##조작
친화
공중
171
한상
##난도
진땀
야무진
##갓
##가영
실버
스타트
바퀴
즐겼
불거졌
흔들
##비정규직
일부분
1974
##강좌
갈라
Show
시의
똑같이
##T
##언제
세법
드라이버
경위
##반찬
##둘
국정원
##왕실
개소
덴버
거듭났
나빠
##개정
비리
##402
인벤
놓였
절벽
##범위
아픔
##TEU
##인근
그해
펑크
서막
풍겼
마구
원리
승무원
가정용
##기지
##헌
외교통상부
##제시
경찰청
배상
고사
잇단
##조선소
조지아
혼잡도
첫발
제천
요금제
##키즈
##폐도
감사패
알릭스
삼정
프로세서
##박윤경
##산책
##방촌
소부
바이올린
넘나드
구미시
라고
세비야
##한국노총
카디널스
##잔고
휴게소
##편한
##튜
##뚜
##활주로
전체주의
뉴웰
바텍
주조
##여대
##장어
회사원
풀릴
가져다
일행
도운
##사전
한다며
##민주주의
한올
##종류
##의존
##토막
철거
계도
##깜짝
음성군
##IE
김예분
금치
보안관
##무슨
##내기
신혼
줄곧
영업장
씨티
천안시
##왜
건조
경제성장
홍삼
##학부
닥락
##준다고
강민경
##인지라
##터널
##부국
정이
젊음
비트
위트
래핑
##킬링
복근
##행렬
##이건
shock
##만장이
##니와
수습
##NYT
이노베이션
아우르
권익
##강당
##지검
교단
3128
라니티딘
##a
콩트
빛나
몸매
##공연장
멘토링
이관
보리스
##설서
소리치
위기관리
##굿모닝
만화
가세
내려놓
입단식
선후배
야구단
척척
##지난주
##62
시행착오
08
##대기
##반한
##mkculture
초창기
##굿바이
증언
김예진
돌려
##1880
뚝
숨진
##특별시
##외출
라비
실력파
속여
##북부
감원
방탄소년단
로스앤젤레스
연고
출판
탐사
##철강
상황실
IB
##행인
카타르
강경래
##영종도
임헌정
kane
사물
##베포
ABS
합심
시위대
##木
동북
##졌으며
눈물
염려
서두르
137
##ANVISA
산정호수
늘어남
##54
##텀
오하
쓰인다
##혜주
장단
하소연
##최초
엇갈리
534
##타가
EPL
##공약
##팡
##챌린지
보태
##예프
어깨
흔들리
로스
타석
케이
858
##버
##연패
생겨
후방
서서히
가벼운
메츠
질적
출사표
커버
##善
약이
322
##성동
##광명
원자
건너
장사
##황정민
황정
##다치
과격
적기
수그러들
lee
##점프
근대
보좌관
무렵
##메이저
폐렴
돌아선
##절벽
상해
##까
높인다
드론
혁명
태풍
가르치
응급처치
메모
##남방
유산
##항시
Air
미친다
시차
병력
##현상
짙
뛰어드
마카오
발권
##아스트라
##조원대
올인
##빛
ⓒ(
접어든
창구
커져
불교
##여당
박원순
서양
팔렸
질타
은퇴
뱅크
##WTI
상쇄
##레이팅
##언니
1023
경부고속도로
교통망
##신한
##ETF
197
이동하
##옵션
사우나
녹화
##대도
##원유
유류
연가
441
갤러리
택하
SOL
##외파
언니
587
변환
옥상
자외선
단가
진작
성별
MZ
방대
김동우
공방
##클래식
##귀신
아무것
127
사명
분이
붐비
데스크
만끽
김유경
제이브이
일터
##강국
뛰어든
전신
스페이스
##뒀
##동학
##전기차
##화웨이
출하
##NYMEX
염증
이용도
##드라이브
표방
관영
원활히
임영록
컬투쇼
감량
김태균
##군청
내역
이뤄지면
##균
##수시로
부재
##게이츠
##검
##넥스
##저런
926
송종욱
미스터
##꿈
##관입
##장권
NEW
물꼬
밑거름
행암동
##젤
기유
##흑인
##유행
전입
불신
##콜라
수변
##용지
사퇴
연세
대박
주호영
휘발유
정만기
##소비세
벌금형
##핑크
##다시피
이재정
##양양
##2600
송연
탐지
##태종
##팬데
덧붙이
결속
학계
꼼수
부산대
핀테크
##가전
##다퉈
걸맞
박해웅
##대응력
반기
의의
다가오
##추경
나인
재산세
국립중앙도서관
명인
##다스
구단주
순손실
##스루
##국과
파라다
##BBQ
전셋값
부대시설
2400
##실로
##까진
앙상블
합격
동문
##경영인
용서
소유자
포도
DGB
드러낸
도박
연출력
신기
불러일으키
##우의
만일
돌아올
##상차림
상차림
군단
의기투합
산초
##으러
##공화
햄버거
스티커
on
최적화
냉전
##아빠
맛본
본청
갈치
주어지
기관장
김수현
日
韓
건지
탈퇴
위안부
식물원
##특성
MICE
##PM
##GW
##악화
##릉
조출
##생률
##세브
걷어찬
김운용
##유발
모드
충청북도
112
##이용자
쌍방울
항생제
필터
집중력
##세로
모건
정파
가평군
업무상
치료법
##헝가리
서삼석
손발
호조세
정립
##소위
열사
##안동
##싱가포르
아연
##변경
##가게
유준
고기잡이배
턱턱
사귄
덜컥
속상했
말려도
떠나보냈
시약
김경수
##입맛
##1352
##품주
##온도
안현모
가볍
김성은
##잠수함
##양대
이광수
배우자
공통점
신호등
우완
LTE
스테이지
이광호
수박
탁족
왕세자
##방제
결산
간호
##㏊
참사
토익
##우드
##대미
허락
김자인
내무부
##텍스
-“
지파
##클래시
MRO
위즈
##블레이저
해서웨이
게이브
판소리
이주민
위스키
이혁
흡연
##프랜차이즈
송가
활력소
벗어났
##드린
나와야
상수도
##운동장
주위
##에게서
##메드
힘겨운
##특허
달려든
괴한
##레전드
사셨
잔인
친해서
한화투자증권
##반영
따라야
공제
태백
##학관
진안
SM
인삼
##9900
1975
##역강
GSK
군사분계선
##Hyperimmune
globulin
에필로그
EPILOGUE
Action
Answer
##FEVER
##티니
##ATINY
EDM
온다며
##THANXX
세바스찬
##그라시
##Gracias
전주부
강해서
##청춘
##HOOK
파트와
아닐지
재미나
곡마
들으시는
new
you
듦과
##휴업
파행
청장
저력
비주얼
폐허
##sportsworldi
시책
대치
궁전
더운
삼가
379
##핀
모티
패치
유쾌
사냥
어느덧
기할
박병진
##폐쇄
##매우
##ZOOM
##부에
지평
물결
공립
##비속
불법행위
관해서
적격
불참자
##병원장
필수품
##중학교
시제품
##수영장
진학
##연락망
매혹
걸려요
##상대
승문
##광학
타결
##스테이션
경쾌
##치과
##넌
참전
영국인
##도당
정경두
고집
2508
민간인
##미사일
귀환
거둬
우철
##아티스트
세계인
가로챈
핫
##보험금
##진로
##종료
##조의
##기도
경합
##%·
##친구
타이드
LED
클러스터
##촉식
처지
고마움
##DA
미소
##新疆
역유
##놀이
왔으나
124
염원
##ddaily
림팩
연안
막지
##1121
##철저
영화사
베르
토론토
##CT
역전
적시타
때려
##150
타선
뒤집
부상자
##대방건설
##바이든
단절
상상력
중의
##지구의
309
서둘러
##3200
세포독성
##시안
##125
##포항
그리웠
##보이
흐르
##ㅣ
부스
##노무
성원
##fomos
##긍정
공예
스코어
##차세대
천문학
엄태구
전여
뭘
여객기
공공장소
##변동
미룰
##신청서
##하구
정전
대상지
폭우
##유급
콘테
##비즈
발길
총수
이매뉴얼
전혈
5200
최소화
##충북
남긴
주저
상한가
희비
##츄
에소
김치
가할
##전수
전대
무섭
싸늘
습도
##부담
수출상
거듭나
표출
##경재
##죽
근속
##여가
남지
KRX
포지션
두려워
허브
서유럽
액셀
##중교
1160
##◇
##블랙
넘겨
다우
케이스
이지예
다가가
##공항세
##PSC
##검색
불요불급
파이어
##KT
누르
노린다
고해
##상도의
##이행
직위
MAS
구애
##착용
##2031
실효
논평
##보고회
##플랜
갑작스럽
숨지
조대엽
심했
##당원
델라웨어주
Part
위어
##2101
소기업
대단히
일당
##입법
전현우
지급액
마찰
점심
털어놓
##어르신
가상현실
수목원
바이에른
모듈러
밀려
조빛나
##항공우주
신발
##보존
##핑
##대외
sportal
##sportalkorea
진열
플로이드
##로수
저항
공도읍
한샘
##점사
##전투
광진구
타이밍
##유해
##06
성인용
인민
헤쳐
##드라마
##OTT
##103
##다인
캐시
##특강
##코레
견과
물티슈
대답
##향서
국난
##북구
에스
꼴
##DLF
들어선
##다르
잔치
불매
도청
절정
본안
니나
김명환
신촌
138
##야당
엄히
검색어
무선
동국
미미
##140
의장단
외식업
##기본법
대부
초중
배관
이집트
데일리
##’.
민원실
듯하
포즈
##제철
미숙
##브릿지
##체가
##농촌
휴양지
봐서
##해운
##비전
210
흔들림
##버블
##향식
성장도
##칭한
정의당
햇살
##성급
댈러스
우정
밝혀졌
##日
함평
실증
##재해
대학교
뜻깊
##정규
##kangwon
1999
##탈리
갱스터
기밀
스캔들
지용
무리뉴
작정
##인제
순조
삼척
올리브
##버레
자투리
##라디오
】
##주주
응대
##트위터
##매트
피크닉
호이안
감사원
김도훈
보호자
##이랑
격투기
떡
##셰프
파도
가져왔
본점
126
축산
바둑
커미셔너
##는데다
김도윤
##王
동상
비축
##장인
산업별
##온누리
발코니
##용인
함유
면밀
##샵
서점
##으므로
블록
임명장
##디옹
분해
시야
이뤄져
##달통
손보사
양식업
최고점
외산
연천
양말
외항선
이동의
인민일보
오케스트라
##용시
##라이브
수매
##자급
업성
##저수지
풍선
980
경호
##임차
좌우
월곶
지휘관
마크롱
##냉동선
변이
##하늘
##내린
기쁨
기점
닐슨
##진화
##모자
험한
이모님
삐지
맏형
용돈
테마주
하경민
##5777
일찌감치
제철
엄태웅
##파워
공고문
##싱어
딜러
창단
자연환경
##대학원
납치
수력
서정
닛산
##인형
일일이
완수
보직
학점
##탄력
상의
연임
도시미쓰
##도구
워터
실비
세액
전재수
리복
##번호
1800
세븐일레븐
##CCTV
식탁
손질
리뉴
##마리오
임대인
박경민
노년층
크리스티안슨
##파리
##쌍용
남쪽
##피엠
인형극
벤지
타이어
apM
요키치
퇴소
빵집
##본청
##품질
##처벌
비위
##안병선
터진
조세호
내면
##조아
사우디아라비아
감산
더디
차입
현수막
##신다고
##별로
장의
강원랜드
750
회차
##채권
광양
줄어든다
##분권
돌렸
퀘스트
중압감
교통수단
박동욱
##ATEEZ
##렙
##가이
##던가
something
fresh
little
bit
excited
good
release
guys
위기감
맨프레드
잇따른
샛별
팀원
정재훈
귀가
동전
ETC
시현
과민성
##방광
##로라
음향
시가지
산체스
##전달
접촉도
쌍방향
##작동
##하이드
1995
##ESPN
루이스
끝내
한숨
유망주
국내선
사법
도산
사업주
##Stay
Strong
##상국
1888
놓쳐
##넨
##후속
##주기
아이파크
당첨자
##주경
이해관계
##오랜
##하하하
광산
##광주시
장터
지낸
##컬리
##대부분
트라우마
1950
호소문
무너진
2519
3521
##시한
시한
배후
##충당
##금이
열어
분위
합해
품귀
수법
과실
와이드
들려주
원론
자긍심
무척
기업가
그만두
##AFC
빠질
마틴
##코오롱
##유틸리티
##SUV
주행
##111
##점자
크로
곤충
드물
휴양
##MAS
##위구르
풍미
김건우
##신영
고양시
##금회
##996
##752
아마도
IgM
##IgG
수안보
등락
##집니다
151
빌리
116
해군
##몰이
보름
pbj
공공재
##통언
업주
당한
무사
핸드
콜린스
##롤
지킨
##스트로스
디비전
쏟아졌
##노선
##출판
노희준
##과천
고분
##양가
##차익
##물리학
##한눈
성취
반짝
##동해
다가갔
프로페셔널
주안점
괴로워
걸작
양이
##베테랑
대본
구함
##근거
339
##학의
이해도
남짓
##전문점
##계절
##QR
위구르
탄압
암울
맞닿
##챗
상기
쌓여
방한
게임기
통일
##만족
##해고
##여의
235
##CHANNEL
##ichannela
##｜
어떨까
세울
##지에
김재순
거제
기꺼이
합치
녹지대
##소형
##팟
WP
강화군
비법
제자
띄워
##활
대세
##아니
음모론
퍼질
##다거나
데밍스
is
목격
소홀
##전월세
##세력
유념
2156
아스널
##특산물
##모더
##마드리드
페스타
##타임즈
##인사이트
공수
##노사
132
다졌
##고궁
사은품
원대
파나마
##젊
##작의
##금시장
##세운
해임
학문
우산
예배
행적
조별
##푸르지오
##정역
천안아산역
두정
##달러화
##골드
Index
한몫
잡힌
오하이오주
코어
도이체
##과목
교장
##청정
현원
방만
##픽
##신사업
올린다
##기아
현직
US
##다자간
부정수
전주국
서대
##이랜드
나뉜다
##PGA
강민석
##3355
광구
##테크놀로지
안간힘
도도
자이언츠
무색
##혜의
글씨
낸다
기미
서바이벌
진출권
퓨릭
대변
##전용
간사인
의안
##법사
##청와대
용적률
기용
레지
한적
이분
나눌
##봉화
##백두대간
지참
막바지
이정호
##종합시험
##하이츠
모토
##이것
##급식소
##81
##모피
##완화
장학생
고등학생
##하이브리드
본격화
##항공사
1339
##숨
우체국
불거진
차려
곤란
이형진
##김태환
hjin
KTB
##방문
##옥스퍼드
이젠
미성년자
##포유
실린
##부분
##deok
브렌트
가용
제자리
##jiyeong
483
배급
상영관
##244
한발
로드
##내와
##편집자
임차인
##정확
아날로그
상륙
극심
페루
창저우
##기가
ESS
##기안
산은
빌러
##유흥주
154
##부회장
대체재
##손해
##인도적
징수
##mbcplus
##질서
##내외
##제출
##특례
##한법
김용환
속초시
뜰
##태양광
송현수
songh
##초록
##였으나
##컬러
##도약
##수신
##검증
과외
##비비
##도매
슈판
과반
##웃음
기본소득
포석
##극
##네이처
재조합
##실시간
감봉
young
편견
보복
여로
두드러지
–
직종
안선영
##유연
Net
법규
##학점제
대학원
##털
원두
부패
##APAC
Steel
Outlook
순수
최태원
승자
고열
수의
1400
저널리즘
중국어
##미니
김형신
하향식
전교조
옮겼
마포
##수급
Key
ROOKIE
##공화국
반감
정상급
연주자
현대건설
왔으며
ENM
린다
호주가
##기념
음반
##효주
됐으며
##실현
하단
다각도
##계곡
##유아
예산안
기강
##이창섭
음주운전
제명
221
로마
받아들었
알베르토
바르베라
기상청
트래픽
세련
땜질
jyjun
연령층
##의미
##무용
강했
실권주
##지분
도르트문트
침낭
스테이크
김현수
교통편
##검찰
초안
차주
##녀의
역부족
##무사
##험자
엉덩이
멀미약
##맥스
##문약
##175
##α
파급
신보
예매처
생수
FM
성경
관용
할까요
##毅
교과
##대교
소방대원
논설위원
중산
##장막성전
##기소
CM
##풍력
##◀
##쿱
다투
그래야
생육
##한반도
수량
김현태
텍스트
##도가
스가
##비누
##소통
저감
검사장
Korea
##큐어
입출
##스탠리
선풍기
##지휘
마술
톡톡히
##월북
##연극제
김하용
오름길
만신창
생고생
은인
속상함
부전자전
##시와
호찌
##민시
##케미
대주주
아랍에미리트
공급량
##지산
간식
이휘경
크림
도래
부다페스트
농축산물
성도
##중복
##팬텀
휠라
직주
##근접
Zones
##펀
중남미
메르스
켄
리얼리티
독도
커쇼
##신선
연출가
노준철
소스
가리켜
공연계
##레온
한컴
김현식
까닭
고기연
...
대극장
보도국
시크릿
일기
동승자
야참
정원석
고백
##닛케이
고독사
교황
##주라
진보당
NVR
양도
ANA
##미칼
##완강기
가이던스
훔쳐
오로지
패시브
캐논
스탭
##언어
데이브레이크
##스티어
##플러그
식중독
##테니스
이창진
##生
한우
병역
목포역
청송
##응원
파크뷰
포천시
이건명
##머더
##발라드
강아정
AW
삐
아약스
##채빈
##서유기
임광현
##연회
곱창
이영록
##고운
숙련
유성훈
##사자상
경인
##단속
손상원
sangwon
##DPA
hypark
##위해
폐가
은신
내후년
폭행
##발견
속보
비긴
##예전
바깥
##듣
통행
leejj
##0537
박력
##.."
##수요일
그만
플레이어
##그럼에도
##네이션
ASL
홍익표
저해
영농
지역인
이스트먼
모셔올
##클라인
핏빛
희망찬
##모스크바
##개성
속의
##반납
노동조합
열흘
가령
이어받
라리
치러야
감추
##챔피
자축
북유럽
##박자
풍광
##항암제
코미
코미디언
대략
##추세
벌인
페드로
박병석
농도
##밋
2100
따라붙
연구개발
남향
##Bay
알파
##104
##랲은
##방침
위배
목요일
한상희
angela
##0204
##구상
애잔
떠돌
mkculture
##님의
##;(
곁
거쳤
일으켜
##4294
##6813
끊기
진권
예쁘
빅스
엑소
빌린
승차
##워크
나선다는
##미스트
##NBA
문답
접경
온갖
##주제
##101
살릴
외롭
8500
FnC
##Only
월등
놓이
스트로크
##출전
1958
거르
소화기
##외과
유익
미모
##족의
바캉스
##여러
##윤리
알약
나타났으며
경상북도
면했
##그것
##1990
백암
설악
난관
##송출
장희구
맛보
##맥주
수혜자
##인데다
115
北
야망
공모자
##1601
##1259
themoon
##외부
이브닝
호이
카일
픽업
돌아간다
만루
##삼진
##자책
번의
##루타
##자책점
##베
버디
숙였
해온
받아들였
1980
1984
##승률
##세인트
##현직
신인왕
이소영
최혜진
미닛메이드
클리어링
파기
##옛
英
선뜻
##..”
비로소
가산
합한
##영등포
##마포
##동작
##서대문
##노원
##성북
##매가
##충격
화학합성
하계
홍원찬
요르단
갉아먹
##김인남
가져서
민폐
남달랐
지극히
##주의자
594
##행해
섞인
2932
239
라이언즈
은사자상
슈퍼볼
입소문
알린
내게
##측근
둘러싸
##가을
박종훈
김상현
한중
##설사
전기료
##취소
##선축
조식
통찰
##할수록
##수력
490
김지운
주축
채로
주현종
빈자리
##해왔으나
사증
조류
작업자
총동원
##물류
##캡스
수천만
##반대
##서장
도왔
응급실
하차
이노
시화전
##상작
463
##적금
신풍
##289
깨닫
이럴
##재활
저변
명과
겨울철
미정
톰
##강제
속옷
만지
##신체
##증후군
##시티투어
크레인
짜릿
풋볼
##한의
##식물원
김영섭
##개시
##유예
화분
프랑스와
도저히
##구입
##시세
움직였
암호
##기판
캐리
370
상공
##120
압수수색
##Camp
426
의식주
329
##정동
김윤지
##66
##아워
3218
##득의
전미
4400
시연회
##했으니
맡겼
##동대
사료
##납부금
##인국
##문화원
떨어진다
어플리케이션
어려워졌
진정서
앤드루
쿠오모
##공중
단편
곱
비거리
스트리밍
마침내
##페루
장벽
##都
khkkim
예보
가져야
오류
##영어
단서
친절
##경색
우원식
##지가
될까
법인세
물러서
구원
3360
##감도
취합
##경정
주사
합병증
비례
넘어간
##발주자
##당장
차바위
민원인
라면
교육비
##식물
하메스
리버풀
전술
경향신문
##360
방금
##저희
배식
급식소
가만히
이어가기
##국방부
##리호
도지사
판매액
방증
금전
##㎝
동명
보훈
신형
증거금
생소
##예탁
IBK
기본급
##국번
ungaungae
안성시
##성시
9200
상파울루주
3213
##그래도
재조명
##타이틀
하이
규범
메시
그물망
##434
우상
##NEJM
보폭
##창구
##예의
park
시멘트
##여럿
테헤란
##수탁
두드러진
기류
운임
부천
들여다보
집안
헌팅
SBSCNBC
수개월
황기선
juanito
##ACL
전락
지켜본
##옥
여섯
JP
팬더
##택시
제작비
한솔
##닉스
오프
발표회
ELB
상담원
##총리
취항
430
수신
##LED
OEM
##디스커버리
##실태
##판매업
닮
천산갑
총영사
Inc
일조
핵보유국
##反
사립대
##분리
김선순
##'.
증감
##돼지
##high
아르셀
##Negative
용산구
원피스
##휴가철
##기인
종합부동산세
##촌의
연구회
빨라질
##키친
##마련
##보증금
보증금
##손영래
몰릴
이념
##항원
뽐냈
레이놀즈
법치주의
민속
현대산업개발
작곡가
결성
소나타
##서진
기장군
가결
##융자
세제
이민혁
임현식
포상
동학
숙제
차승원
집필
##트래픽
토종
##아가
260
##인포
출판인
은행나무
말살
##노래방
중산층
##걸
개막이
늦춰
튀
아메리칸
스핀
승점
##승점
화력
##단둥
매달리
첼시
##산악자전거
응하
데이
##탁자
알전구
##어게인
덮밥
닭꼬치
##BMW
철처히
충실히
##으세요
육류
김도형
##잡이
도매상
은행장
대열
맑
개헌
##연속
근간
##대만
##GS
##정책금융
NIM
관망세
##갤러리
평면
##이스
ACE
##丹東
##117
심문
풍력
경쟁자
##쇄나
금은방
넘보
리얼미터
##수행
이글스
mtkht
클로
##병의
치닫
##지급
##愛
CNS
1983
##777
소홀히
고진
##플라이
소시
튼튼
##시향
##표준
##큐브
가려
시사회
태어나
##푸른
맞물리
##보단
##캔
연예
숭실대
태영
##다지만
##정예
##모씨
신라
고용부
##욱
##･
벤투
##공기
##팔불출
##둥이
부자간
삐걱대
남승
##가간
##베이비
옛날
묶여
탕정
##티켓
워킹
##아마존
꾀하
8344
신학
신앙
근데
##객석
보이콧
한국남
##동발
##발열
##트레이닝
##이슈
##일지
기업공개
##분담
들어서
들려준다
침입
디테일
억만장자
##동산
정시
영도구
##가칭
##금은
##씻
6400
검경
정읍
반송
센스
초연
jinny
교육용
##가슴살
##상은
링크
객원
재생
댜오위다오
##기타
##소상
텡
##Z
##매장
메가
##재고
##궁
동궁
무서운
굴곡
##공업
레고랜드
##춘천
복식
정선군
김종호
IRP
경찰서
스타터
##찐
머신
##ytnplus
##아티
##출처
권명숙
버라이어티
감귤
스토리텔링
수질
##권리
-‘
거실
##분류
원외
이동률
우드
이정
##증명
공설
달서
지문
목욕탕
##리드
##쏠
##국악
종자
임진
장군
두류
캠핑카
##클리닝
하빕
심포니
햄스터
마차도
허약
안강현
##국립대
국민은행
파프리카
금천구
##외식
##원스
확고
양동
외형
잎새
##구와
떨어졌었
##씨도
궁극
중재
취해
조급
펼쳐진
##퀴즈
변해
자가용
226
##파마
일제
채취
한양대
친하
휴장
냉동
선적
142
농산어촌
##락소
##스미스
교착
녹십자
포항시
##연수원
이형권
지양
터졌
##닭
1989
우대
##스러움
굳건히
지금껏
198
코드
수감
절로
케미
끝낸
##리아
가스터
##일동
##8010
##5207
##동등
##Pilot
BE
힙합
쏙
매너
넘어온
어민
북송
한지연
판매로
김보겸
텔레
내보내
법상
부적격
##파우
유현석
##네오
파이프라인
윌리엄스
바스켓
고발장
순례
##돼왔
중소형
##과열
##수수료
##코퍼레이션
##자회
##069
불러올
빈민가
##LH
잠식
##취
##우울
##힘들
모스크바
##시킨다
어딘가
##군위
##결의
##건자재
##130
3747
##1947
##1729
##1701
##1486
##1428
##1049
##덴
##셜
쌓았
yccho
조용철
가사도
팸
##벨벳
##피고인
쏠렸
마냥
입성
드립니다
##포스코
##종신
실속
##어온
##수정
##리스크
속해
##플레이스
한국경제연구원
##IoT
##증하
##노종
##순간
##JTBC
##3880
정읍시
##143
연휴
사회주의
##워터
입맛
한정판
hjk
경구
##산단
##소송
분과
##CareStart
인디애나
##국지연
혈액형
머지않
##페인트
##기초
트랙터
145
##한다면서
남조선
##아무리
##패닉
##감시자
##항이
맡겨
맡길
변성완
##스터
##입학
##직접
##미생물학
안타
복귀전
클리블랜드
##269
캔자스시티
까다로운
골라
##레어
##선우
맹활약
레드삭스
버락
인도적
##카가
속도전
##강동
##양천
##용산
##광진
##보증서
##단백
질량
피서객
시퀀스
##아무래도
##하드보일드
채워야
유대
체크인
##나오
##주요
1150
##애니
##관광업
##해온
분주
하늘길
할까
##부를
443
##언의
위정현
살펴봤
당사
##통일부
##퇴직금
##절감
적힌
김영철
재개봉
열띤
의하
내비치
175
##%↑
##상파울루
fidelis
내려졌
##ㆍ충남
##수목원
##4200
##으려
##사회단체
태화강
##백로
억누르
지루
##체크카드
기하
##쿡
초보
살림
카테고리
원할
##국내외
##경우
카멀
계승
##혈의
고취
Front
일반석
##보딩
1135
##％)
##김유진
##패의
장금
영예
##학당
당해
목돈
매치
##수영
##선진
##보급
잭슨빌
##직업
##시도
개미
푼
권위
07
##관광객
기업어음
텐데요
숨기
번지
##불교
8400
찬반
##정당
장기근속
신원
##국적
수월
##대금
오르내리
김진희
##희망자
##웨
기지
김종민
닷컴
김홍일
디캠프
이진성
##QMIT
레이지
1748
7010
948
4815
##지주사
다각화
여신
장갑
복장
##스팟
##트리트
경제학자
엉뚱
우연히
발단
새삼
흘러
핀셋
##평상시
##사용료
문화원
##에듀
무리수
행안
영등포
272
수송
임하
##루키
커리어
달콤
장도
##부정수
##급대
##보류
##맛있
##캐리어
미안
감염원
인비
##府
사립
458
##신문협회
호찌민
결혼식장
다이노스
스트리트
##웨어
보이스
두렵
##국정
지지층
##캐피털
##종과
앨리
넘버
함양
##크로스
이동한
헤엄쳐
##록의
재건
성토
##추천
##내수
이대헌
좀처럼
아쉬웠
엔지니어
##검진
감내
##디아스
부티크
투숙객
##그래서
풀어냈
##기부
##재배
행선지
엘리먼
##인분
벌인다
##이사의
##존속
데리
바닷가
##역부
상당산성
UAE
아랍
##탐사선
따라잡
모험
##투자가
kwon
길거리
변했
재단법인
백범
고성장
##180
##인경
씨앗
##방글라데시
##kona
나간다는
권영미
##견과
주점
원거리
역류
고위급
판매사
겹쳤
코엑스몰
##故
##면사무소
트럭
##자세
##실에
인피니티
##노마
이의
요약
이명박
본다면
원안
##3100
##한국은행
##로우
지주사
시공사
하도급
##산지
맛과
임재영
사거리
곤지
##암읍
맹대환
송갑석
2150
##오피스
노벨
로버트
맨해튼
사무소
##이웃
걸치
백두대간
##협곡
박찬근
##geun
이단
보임
##밀접
콜라
##환기
##김동언
##kde
탈피
위중
차종
혼합형
민노총
강경파
간주
안내문
공실률
반문
그다지
장애물
임했
##개년
##걷
토론자
커다란
##월보
골고루
신장위
##구르
벗어난
자질
##성훈
##응급처치
##사채
가져갈
##지난달
해결책
플라
중추
##업자
##캅
굴기
축전
신예
돌연
고비
대치동
##신호
##플란트
메디
##MJ
LPG
막혀
외쳐
##승현
##녹
key
창립식
정혜신
심폐
##으로선
##역학
재임
COLOR
착용감
수전
166
내각
의석
##사상
##드가
김민수
##수렴
대동
##클러스터
최승근
##csk
##3480
##순차
Debt
EBITDA
박성제
##선사
psj
##미래형
동대문구
장인
에티오피아
문화유산
##레일
개리
동아리
장이
228
##구글
김민
루마니아
정문호
브라운
시사점
부제
정소영
wjsry
##emd
직급
끼칠
##ND
Flu
##ITU
조력
##91
캘리
출자
##건설기계
요새
어떻게
하버드대
협연
권오현
구상도
고군분투
상급
전지
정일훈
방점
##감사관
##심판
당위
유안
친근
분석가
퍼블리싱
##강연
IoT
임의
##배구
수지
하천
sewonlee
불려
##육회
이웃들이
다용도
냉동선
##바둑
향했
폭풍
부득이
##가요
망신
##박용
##대대
이면
장악
한겨레
##강요
라이트급
상환
팁
휴대용
쭉
##106
몰려들
반갑
미스터리
##농기계
내려오
라오스
수익금
만점
##변의
##해석
본질
그건
##노근리
##번지
##영원
푯말
##무역투자진흥공사
무난히
2200
포맷
초음파
도정
제과점
sun
자차
##버린
천연
은은
윤여일
일감
SCOAP
abc
몸동작
##Q
완벽히
콘리
1592
##大阪
요시히데
##유소년
빚어질
오렌지
양수
##청약
##쓰레기
##"(
힘쓸
##PE
##투시
##BG
방산
모신
부결
피어스
위함
##社
비장
들어섰
박찬호
##ST
허성무
##양수산
##브라더스
##양제
이상현
판상
##광과
##운지
피트
##ZSS
##ZCS
##집계
##앨범
즉석
##권고
##선강
반증
덮어씌우
귀순
맵
##서원
4251
249
적절히
##이상배
김태환
김학범
부의장
##토요일
옥탑방
##세에
민영규
가라오케
다녀갔
youngkyu
신림역
초록
지역구
달서구
이곡
죽이
머스트
##따로
##대호
##KOEN
김사무엘
액티비티
임용
훔친
113
공정거래위
지리
금강
System
정담회
##가람
##LIVE
넓혔
주무
2270
##담
다뤘
럭셔리
##어선
넨
##특조
도안
첨부
학년
참맛
##알리
이전인
웨인라이트
허드슨
내려진
WTA
KOVO
##SE
천춘
벌일
모였
시공미디어
엘시티
BNK
진원
##궁중
단연
##국자생
개교
빅토리아
2350
낭독
남녘
얼룩진
##선과
##하위
##GMP
대통령상
피겨
##아보
표창식
소음
##의대
슬롯
젊은이
우드워드
환영사
어치
낮춰야
앤트워프
##화상
첫선
지켜줄
##225
징계권
자존심
잘츠부르크
각본
맥코넬
##정리
##실행
감정평가
검열
임영웅
판매자
##지문
##화제
일본군
##유식
강근주
테라스
##W
##보전
엄선
##랄라
##바베큐
조도
셀렉
해즈브로
09
##마을문고
파이
보배
이윤정
레온
##한전
소노
가변
의협
ITER
##쥬
##숙씨
##픽셀
의견서
선선
장발
고창
##신범철
##에코
##출장
군포시
염태영
청렴
이승헌
##원내대표
장어
##【
##처방
박선욱
조사원
##행태
불륜
##토탈
꾀할
##칭하
거래처
특산품
원조
##엽
과태료
##중독
203
콘티넨자
##가로
##일까요
구좌읍
터져
꺼냈
어긴
이재우
남구
무분별
##592
1002
마당
##견
##변
전태양
인터랙티브
풀뿌리
##맛
자명
융자
##페어
김민지
페어
재회
크리스마스
배움
##평양
유철종
의료기
##겸
끔찍
일과
##봉작
##Refresh
##구속
떠난다
박일경
##무좀
파킨슨병
##9805
##4501
박성호
안구
향연
포문
막강
멘토
인당
325
##고속
새로워
김지혜
항변
풍자
희생양
쎌
##퓨
##가드
##사정
##은결
메카
##교육부
뒤처지
139
##통장
무주택
유닛
##용자
##감성
##고려
##랲
이진우
신정원
##맘
##상영
김광수
##한금
별것
체화
구인
##외로움
##군인
##관광협회
이철우
영외
김영만
소보
##주근
hoya
끊긴
관료
##비어
푸르
##진짜
##쉽
##매니아
어스
##트리니
##잣
샤이니
NCT
죄책
우버
철수
사활
갈림길
절약
온다
난무
교양
리튬
##근영
chogy
학과
이중고
처했
가정의
스케줄
##국은
점쳐
박양우
빨라졌
##종기
표기
우동명
그제
홍순상
명승부
##형민
넓힌다는
##Asset
Backed
부쩍
퍼뜨리
##烏
##魯
##齊
지린
##福
섞
취향
샘
김현주
덕양구
파주
간곡히
수순
##주사
교란
##반부
##6379
##이날
1190
자연재해
##증세
##인력난
Rh
비어
규탄
##상인
##899
##598
##3130
##성서
관례
가로막
로즈
##알림
##적립
에인절스
초구
넘어갔
플래허티
제구
맥스
스티븐
##타자
##350
결장
데려온
##라테
OPS
##린
제패
장하나
##카카오
시비
##the
##서점
펜데
포드
##CBO
##대구경북
고순
상수
##영동
##이해
영덕
따라다닌다
##와도
##이상의
인성
품고
##기조
이뤄낸
##수주
##스톱
##성공
정반대
알릴
##자라
명절
##다발
##백스
##부럽
185
콘솔
##무단
##유엔
##발행
122
382
##인형극
철원
재검토
##로울
확연히
써니
##옵티컬
##셍
##각국
농작물
##피플
##툴
좌충우돌
난감
교동
공공성
울산시
##관찰
##신장
##살리
##강릉
##침수
##로마
주세페
윤형
ADT
벤치마킹
이지은
민첩
best
처치
쓰러진
군대
자필
유포
허점
재입국
##평균치
벌어질
가닥
199
##동반
혈압
##응의
수중
안전사고
생중
김미경
배울
##격
개조
##라프
입맞춤
전한
##피해자
##SPA
걸림돌
##치유
##증급
##기상
약한
차입금
인내
##의결
휴학
##그랜드
##축의
폐장
개수
152
검역관
저축
##1900
1640
##매도
희생자
##방문자
##SCMP
홍역
##명단
##O
##BARDA
##5500
스테판
##국민은행
과제물
##부총장
고글
무장
##이라고
순탄
특권
메인스
##실러
저명
케빈
##배출
할증료
Smart
오승록
노원
넬리
성패
##키움
##텐
제주특별자치도
일곱
형제
##실내
찾아보기
HSBC
말미
##스런
준다고
재정난
##스리
##아이이
연달
여수시
미증
상단
이성
신도림
등대
##머리
찾아갔
##냄
당내
withwit
##절
부속
##천과
##대선
일한
유세
이재갑
##9890
##6860
##캐나다
##자전거
분계선
인출
전동
##수소
윌밍턴
세월
동조
野
착오
속수무책
취득세
##구미
##관광지
부른다
한잔
열쇠
##2128
결별
쿠티뉴
단우
두세
늙
살폈
주임
해내
가난
##레잇
챙겼
번호
숙달
항공우주국
고온
자연히
이미경
갈취
##김구
##기념사업
##본토
##시킨다는
##승연
변제
컴포넌트
##파키스탄
##히
영웅
한진
##4252
나아지
진압
부추겼
##Out
우선주의
기틀
김효진
##거래법
##점시
브로슈어
경희대
좁히
##뉴노
##원자재
업력
스위트
##journalist
##장에
탄소
틔워
무너졌
서대석
##943
##피싱
ATM
기술보증기금
누렸
광명시
##아칸소
##오리건
##몬태나주
펜실베이니아주
##749
전공의
김태현
진행형
어려워진다
##유사
##138
##샌프란시스코
##여파
장세
공정성
지면
요식업
풀렸
##제자
##파이브
##HDC
##시킴
화성시
고성군
##대폭
##주류
##렌터카
##결혼
법조
이루어진
특단
소금
낡
깨지
비달
뗐
원한다
##적정
##위축
지하상가
놀랍
자평
마라톤
조희연
이석문
##부턴
355
최정우
후인
유진
##마이크
가리키
올라와
로페즈
매직
윤화섭
명심
2900
##文
공제조합
물러났
내민
##가가
##뷰
척추
##원료비
##청취
##1442
##0623
안상현
접견
심리학
거나
##CJ
1969
비협조
맞췄
핵무기
남수
##미일
##모인
외의
개국
명맥
조건부
강타
##174
##주거비
내려앉
소회
##수실
알림
코리
Stable
##서식
육상
지경
번진
##2025
김기덕
##박정희
대응력
##해지지
브리티시
기리
협력체
전문지
##동아리
##sisajournal
인위
##Go
제각각
##東
##도널드
지르
알라바
매장이
김승룡
srkim
비비
##중개사
편향
##답변
구별
##여름철
##고급
##더블
권위주의
##GSMA
##출자
##악기
관람석
돌려받
The
공산당
ZTE
##코프
##고문
##형식
##매입
다녀와야
불시
##예산안
미복
##체전
스트라이크
##도박
빙상
##탈취
##전선
다운
##때문
하순
어필
초읽기
본머스
##에이
윤봉우
이세원
접대
김위수
집사
설아
애묘
영업기
##승부
##섭
박상진
우승컵
가린다
모회사
##장사
로프
등반
##라라
두꺼운
##역할
버팀목
한국일보
위헌
##무형문화재
전승
켜졌
고질
챙겨
##링크
##096770
창문
전통문화
##학교의
산지
standard
고난
must
go
윤홍선
前
슬로건
##시드
##넷플릭스
##인데도
##점인
욕설
앞날
맹비난
협박
##별도
입체
정수
헤드셋
관세
##홀로
손상
돈의
비준
클리닉
플랜트
1050
욘
요동치
집행부
마다
8929
##고양
##124
##수확
seo
국보
부드러운
##이렇
경증
트레
고흥군
농업용수
웨스트브룩
야투
청산
급상승
##늘
KIC
굵직
##잉
타진
##쿠팡
MIT
정황
##보완
고지서
하종민
광진
넓힐
##성추행
진술서
루소
##여척
smj
레이디스
패드
##수자원
##매출액
훔쳤
##입찰
PE
##압도
##합성
NIH
BNT
##테네시
충주
이뤄지도록
나타낸다
##지청
OSP
##깅효과로
목표물
##동월
스카이라
##준다는
##단체상
##마사지
다로
##피터
CVC
복안
##국유
김형민
루트
문명
퇴보
인제군
##당사
##관서
유현
##면장
##분쟁
##으니까요
192
마라
##8100
##5360
##3045
가까웠
응원가
항셍지수
이온
##콩대
선관위
정쟁
##군산
##석표
##보환
다방면
##218
법의
호우
##귀국
처장
##주관
단언
##성금
##군사
##보유량
남동
파주시
##톡스
수다
사행
경마장
응용
선택지
들어선다
##인터내셔널
박지훈
##종로
손봉석
paulsohn
##성능
±
##양재
반독점
##교과
handbrother
##애인
줘야
항해
기름
빛냈
내걸렸
스탠
닭고기
펀딩
김창룡
수평
보유량
순항
##늙
##싹
전망대
서식
주소지
더군다나
##WTO
온기
##자나
회장단
##열도
##활동가
##145
수십만
##토스
교습소
한대희
Data
뒤흔들
아쿠아리움
괴산
##신대
나아질
유신
225
비보
##능
##업인
교통량
실직자
외모
##+’
리도
돋보인
감병
##진실
##레이크
그거
##평론가
##화장품
##세정제
##정선
##판다
##1506
##특수
좌담회
##약속
성모상
판촉
문항
NES
공주
종신
지휘자
페트렌코
##의제
대책위
탐조
노래극
추모
개발자
##담당관
호박
##당은
로하스
개연
태미
JB
##노병
탐사선
내딛
담임
조계종
##사업장
##최소
##우려
들으며
박민
Star
##이달
체벌
나들이
사고나
춘천시
##기설
출구
가오
슬랙스
탈바꿈
##원료
크라운
Act
##미치
해안
육수
굽
'#
##문화제
##접촉자
##동장
##보양
귀여운
구경
강릉시
HP
해이
오프라
Future
트래버스
학습지
한울
빨간색
##유적지
입담
##엔딩
##차관
##젤리
전인지
○
pompom
정명진
전기레인지
프로세스
탄도
벗어날
봉오동
##스쿨링
이격
##즘
##탠
##다드
##재조합
##마루
센토사섬
팬덤
페리시치
##타입
##배민
탄자니아
하비
이광연
##러버
아이언
김성환
##소가
다니엘레
루케
##편식
월등히
##구이
수족관
박혜연
##API
헤어졌
##현안
감찰
유충
대의
7733
##이스트
255
무관용
##230
##%↓
##곡선
황성원
##잖아
광복
신혼집
마쳤으며
##동상이몽
148
##│
##성향
##선승
엘리미
콜로세움
채정원
고기
아시안
슈퍼마켓
늘어난다
##학급
조태용
##용작
활로
##네바
이랜드
##농장
##폭탄
미워했
증평
##주재
만경대
1356
##지와
감행
박성환
생산자
로스터
##조절
후지필름
향토
골머리
곤두세우
스타디움
포르투갈
치러진다
##구립
보이지
인멸
김경민
손발톱
스티렌
##1241
채워진다
##찾
견주
드립
스탠드업
##회당
##유감
기념행사
##급변
브라질리아
##4649
권위자
혹평
이재승
꾸릴
쉐
193
올랜
인파
내몬
페이퍼
아이콘
하다
##이상규
boyondal
##DFC
의거
##의약
디지털카메라
지원사
양성광
지웠
김수정
##블록
마감재
목동야구장
탁구장
658
##랲의
##승의
박준배
nofatejb
##농업기술센터
토토
뉴델리
##行
김인경
##새간
김정태
석학
드리웠
이재윤
##연락
외로움
붉
난민
##폐
착석
열망
관통
##880
큽니다
##대구시
원점
##중재
609
서적
MZMC
사기죄
##히트
##게임즈
##서울대
펠리
##컨스
##선생
전이
##한데다
석사
##총국
유례
##광
##F
따를
바꿔야
##弗
##974
금의
##경력자
##최다
운전자
아이오
##2004
##핀셋
최첨단
봉착
계약서
##무관용
컨트리클럽
연을
대표인
##동아
##정읍
원주민
지붕
달째
태우
좌파
박상
##칩
윤병인
냉철
jsh
129
외관
##소수
나타낼
정말로
김철현
소아암
##슬기
문경
##필터
환한
언젠가
폴라리스
경영자
제조업체인
##전적
하와이
태평양
1988
##1800
##1153
일용직
문창석
dympna
송경재
##파리바
##스러웠
힘겹
펼쳐질
워커
광고비
피칭
##133
##트리플
이닝
드래프트
##+)
불렸
리드
데릭
넥센
##리치
지켜볼
##353
알렉산더
시즈
합창
##휴스턴
신경전
쏟아져
##배치
##디자이너
꼼꼼히
##독감
급하
##강서
##은평
신반포
새달
난이도
폐암
##미동
울진
쏠려
##각종
실상
##up
명대
오만
버텨
해변
귀엽
##봐요
전단
권고사직
안내서
##음악제
원전
불행
테이크아웃
비결
##7200
영위
황시영
제때
제너럴
경제부
남중
##국해
내세웠
yes
pcs
교통안전
김홍기
부끄러운
피리
우천
##박수
흥겨운
나왔으며
김한근
EPA
##교체
라틴
##슬라이딩
number
이승현
World
##Korean
flight
##Back
##Zone
Boarding
573
장담
서기
자취
기동
청주시
##증평
종일
##게이츠재단
아틀레
##티코
##엥
황혜진
제어
김현철
honestly
##마지막
##역원
야심
퍼졌
실렸
대형주
지나친
PER
##로터
##치진
금호
사라질
##밀양
둘러볼
설렘
##뱅킹
##mint
숙수
신세
셧다운
템플스테이
##평창
해남
둬
학우
답례품
##정권
앗
죄송
치밀
과밀화
생리
부수
왕실
살라미나
##스호
마쳐
무제한
탐구
사회부
위계
김서연
고베
##soccerbest
##besteleven
##일레븐
##마이닝
상장지수
##입시
371
##탈의
대회장
촉박
굴종
570
피해야
##7366
정직
필자
dpa
리처드
##뒤
3400
##고등학생
##송파구
##지향
##중구
##원도
편취
틈타
##고르
잠깐
##쾌감
##세이프
포커스
전편
퀄리티
344
썬
##차일
노린
##사이버
Normal
밀려났
메모리얼
TPC
WGC
133
##액도
단결
실어
교역
##선언
휴교
국공립
강해
집세
##쳐
달아난
권오봉
지어
ʹ
##ʹ
구운
임유정
##irene
출입구
모호
##의류
실용
안타까운
##'"
휴게
##으리라는
대리점
겹친
누군가의
기념품
##순회
균등
당원
##경담
##5470
1650
##4170
미시간주
##힐스
앞지르
##연기
각인
후회
달래
지난번
##다는데
열매
##레지
디럭스
##증대
##한지숙
미착용
jshan
입장료
##군데
##조제
비접
##놨다
뮌헨
간판
##서부동
건네
시계
걸어가
##정기
##게끔
##레이터
##직감
다날
##이브
##집교
##NASA
산업체
##권한쟁의심판
일탈
권지예
금융채
##크리에이터
김호연
저장고
##승장
시동
에스원
놔두
##의존도
숨통
펼쳐왔
바빠서
##야말로
##창고
##콜카타
서벵골주
콜카타
##5335
citizenk
##구형
##장려상
감싸
외국어
발기부전
##식도염
##에소
조약
지지부진
정신병
알렉산드르
동유럽
게을리
##왔으나
청취자
보드
포레스트
##위탁
니켈
##컴퓨터
##아영
발제
목표치
hong
변비약
##똥
정장제
정현진
##213
##203
245
합산
치안
##의료비
환급
점원
919
##밀의
껑충
오리지널
하안동
##택
석권
##NEW
누그러진
호응도
##LABCCIN
##원식
##빌딩
납득
퍼시픽
견줘
##판의
kimpro
##7777
##329
##깅
천정부지
실리콘밸리
써도
살필
##160
cho
LINC
##발매
정의선
##휘
광기
입안자
찾아올
원단
건도
서쪽
일절
##6600
##렉스
한림
##렬
내자
국도
김종인
##위한
##공과
##본드
부평역
유물
반도
지린성
##4060
2884
##결
제막식
##등교
부설
##리어드
쓴다
앞섰
##자동
##Seoul
탱고
나눠서
##전라
찬사
박희재
이뤄지기
지주회사
소매업
속마음
##소생
교보문고
##당한
##암살자
거슬러
##정장
고품질
##중헌
##오렌지
퍼뜨린
소관
박진
바뀐다
##프리랜서
##영농
강당
농작업
##안심
##은지
##포용
##135
김덕준
casiopea
##solid
structure
financial
flexibility
##미탈
벼랑
합숙
##IDT
##협동조합
바리스타
##집값
동양
김흥순
##・
단단
해운업
생태학
양평군
팔린
고속
겸임
정할
김은비
차이점
##京都
조각
회부
사직야구장
옳
##소방청
고액
모일
##숫자
스타벅
지중해
리비아
1352
2029
##활력
##점포
양재
마포구
한스
##페이먼
##복판
##치치
오찬
다뤄졌
해로운
##틀
일깨웠
##합
김은별
평창동
##그라피
일거리
이정란
##고등
잃어버린
##머스켓
##함평군
##4883
##경계
##빚
##U
출장비
직고
##트레이너
박영선
탄핵
어둡
##출판사
대행사
황금
sky
포지셔닝
끝냈
배구
환산
헛스윙
듭니다
##현수
배의
##유업
잠적
송치
##안무
극히
tsl
따른다
##남수
##줄기
아바타
맞출
##One
##thec
##루스
빌라
7500
##백서
##KF
##노동조합원
보건의료노조
##체불
superdoo
소리쳤
##못
파이터
##걸작
##떡볶이
멀미
미용실
냉정
단지로
피엠
송승환
신시
박명성
설도
오디
신춘수
장우재
##홍현
##주열
##비크
열람
##사당
후의
##토요
감천
쑥
##한류
191
강등
동급
##재조사
수직
왜곡
교인
봐요
넘겨졌
라브
##컴
5060
종영
속죄
오감
거래소
News
한지
강민수
##온스
챙길
##러브
##무기
##National
Institute
해답
스코틀랜드
헤드
##김훈남
조사망
축산물
대권
##믿
건넸
대천
피켓
이동훈
도배
##빠
##백자
허지웅
##초기
외양
늦출
이와테현
##知
CIC
뭉치
이희영
307
##대법원
쓰러지
244
문인
##화성
##렘
보류
반나절
넘쳐
Use
##미라클
##날씨
##영과
##국시
탈취
차분
송하진
델타
명명
군필
##인벤
백로
브라이언
##뿌리
가축
예찰
군데
콩쿠르
수형자
피험자
##대조
단회
우루
##무치
정성호
##동남
입행
##오로
##펭
강국
##딥
##농수산
##작물
##박정민
상품성
##넝쿨
테이핑
경영계
##진지
##COP
▼
##헤엄
세균
##이음
안테나
##관리비
##원자
강인
##호조
##금속
##지방행정
정촌
탑승자
olive
카본
▽
부딪히
##일제
온정
부국
##4750
미취학
메가폰
http
룩셈부르크
올라간
##소규모
높여야
국군
파이브
##정유진
동화
부평
월요
여비
SSG
아름답
AS
윤리
부흥
##하루
##동부
보루
앞장섰
썸머
출연자
172
스티브
세무
필기
##여론
##원회
##그때
월명
##주거지
코스트코
흩어져
AOK
비타
##삼척
블루투스
지영호
##접종
##도내
##내국인
변이형
##오히려
크리스토퍼
놀런
대표작
초고
비철
정우
느티나무
##면접
손형주
차출
##LNG
필요시
견디
잔류
로또
##사지
---
돋보였
##제일제당
##식량
거처
##자민
##나간다는
jcpark
##우편
입건
반쪽
##공단역
박기호
##옵티머스
goodday
교계
김효
##AUSMIN
##일과
##부산항
고란
태권도
허석
##하고
비디오
##ON
##겟
미용
기아
세계무역기구
다자
사용법
딜레마
전직
##한경
##쯔양
하방
피지컬
스타일링
##가공업
##GOOD
참조
##태양
737
346
지구인
얼라이언스
DDR
##박인비
어른
ITCC
유족
해건
케인
##병과
안쪽
##유적
##이직
병해충
농경지
##☎
다코타
##냐면
어찌
조동찬
범죄자
##학부모
방성훈
##9174
##오토
초량
촛불
전임
단양
식구
부경
원작
클리어
##캐릭터
어빙
##단원
깔린
##연봉
대화방
##레이트
##공동대책위
##응체
백종원
두터운
294
탐지견
진경
히트
차트
느리
##폐기물
받아들인
##호에
여론전
버킷
물러나
##갈취
약점
IOTG
툴킷
##공갈
##부담금
danieloh
##화베이
간직
##전날
##㎜
##독점
충격파
정육
##민감
##재탁
수천억
기자단
1987
##칼로리
리쿠
최소치
송철호
ℓ
승마
자본주의
인수자
yulnetphoto
##브러더스
논산
친권
##찬의
노멀
강지은
##김현
구해
##그냥
최정
귀추
##니버
1932
알려질
##교육법
전문점
##요청
야권
될까요
개명
엘리베이터
##침해
##소닉
##락
파시즘
진료비
아닙니까
노원구
상벌
##베일리
의해서
##국채
##공산
침대
##FBI
의심증
연제
##숯불
근육통
브루어스
##시마
##위즈
습관
묶인
아라리
##상습
##버세
지주
연주회
지연주
이종섭
읍내
행장
파란색
어가
##갤럭시
##심도
##브라이트
되살리
인덕션
##〉,
##똘똘한
에이블
##셀렉
##성남시
특사
독립군
저작물
NPL
##365
##139
2885
아찔
##롤러코스터
폭소탄
##거용
##치매
바지
냉감
난방
##보복
##평가서
울트라
골키퍼
탐라
##청송
백일홍
##펀딩
자이언
SKE
##류재
##제서
##연령층
##TS
##후레쉬
황사
##통통
##cool
감일
보철
##참가율
회화
무사증
막대풍선
##플라스틱
##바운드
##사이다
신림동
진동
유상대
아티
##토사
모노레일
PCS
##터치
잔지바르
앤써니
뱀
김양수
##복주산
##통고산
##운문산
##운장산
금천
척도
hgo
참관
##리식
불렀
가까스로
불법체류
##문정
##FA
사령탑
##161
##선도
1092
상습
자진
##불법
##학위
이인철
BSL
와도
##전원
##업장
일평균
넘길
##TY
##핫식스
##해비타트
해비타트
해산물
##프리
살펴
##함정
##그러
##농어촌
물자
되돌리
투사
##저소득층
테마파크
이월드
신조어
썩이
##싸움
##모르
##우호
##건도
trdk
##0114
##김민정
복리
나빠졌
미주리
위스콘신
아랑곳
##소매업
1986
매콤
출렁다리
하드웨어
촉각
꽂혀
##흥행
열연
##신문고
김용섭
소원
그로트
##Placebo
##BICF
##변기
##봉인
요들송
요들
##뽕
##이리오
##쑈
류근지
서태훈
##돌과
꿀리
쇼와
##잇츠
센세이션
애드리브
스푼
삼박자
헤이븐
##스탠드업
번뜩이
분장
관공서
방심
##라스베이거스
마요르카
본지
매해
이근영
##단순
##팅가
##8634
빠져나갔
##자율
##융의
흘러갈
백악
##CoV
선천성
##편성
부인과
『
##』
영미
웬만
채비
##이상직
##고발장
##무급
변모
##연을
##열기
걸어서
본사가
채광
드레스
nohsm
##빙
축구장
흘리
##일단
##귀금속
토마토
뭄바이
붙여
##림
식재
떠났으나
1299
터놓
김소영
##교포
##조지아
##승적
세워줄
##102
##519
##428
##뚝
학자
##군위군
대리
모아진
##Rahmania
Astrini
##Aizat
Amdan
##Chillies
##PAAM
랩퍼
##Quest
삽니다
겨우
본래
##시사
치러질
뉴올리언스
어웨이
컴플렉스
마지노선
중일
태어났
돌려준다
##플랫폼
윤진서
유권
##butter
One
시트
코나
##선택과
##후강사
감춘
##116
드문
##일요일
##미선
##遼
##寧
pse
##0212
모디
꿀
##십시오
흘린
민사
은폐
##미숙
sms
일라이
##전염
2681
위장
##플라
##견이
##마감
역외
UCLG
폭등세
완만
##허가제
낯설
모터
147
가꾸
국익
건자재
##769
##알엘
진성
불거져
BNP
이용빈
##원법
브룩스
티모시
##스퍼
대니
후안
올리버
김혜경
##스탬프
##존경
스탬프
김인철
재수생
베어스
##양키스
##진에
내준
사수
호세
외야
조던
신시내티
이어간
162
131
##227
히어로즈
세이브
디트로이트
땅볼
토미
내셔널
놓쳤
##304
터뜨렸
##375
##980
ISPS
##여제
존재감
이보미
긁
브랜틀리
해체
##즉각
##리더십
##그래퍼
##보트
##1222
창궐
뒤지
가져오
##가심
##로또
##파인
기술원
장단점
##열역학
##885
이동호
##문주
체험학습
솔직히
애니
##소자본
남이섬
##난타
울타리
##무늬
##사이
##는커녕
자국민
그래프
리핑
즈음
자처
웨스트
##윙
펜스
노바
hanajjang
##현진
닌텐도
##모여
홍콩인
나온다고
나기
##문체
##게이머
정산
끼친
##타로
시흥시
##사이클링
역주행
귀한
##호기
가져온
위태
비추
김강일
제안서
스피드
이은정
##eu
##영작
들여오
##모터스
양주시
거제시
##연설
승부수
일별
##대형트럭
발원
렛츠
김영인
kimyi
배지
##방문객
서장원
superpower
감격
##댈
##달리
##야구장
장묘
##팁
최상위
역경
##문자
사라져
요양원
몰랐다
##바트
외계인
##togo
##Amazing
comfort
service
##시절
기준점
##추방
국방위원회
nghj
절제
되돌아보
날려
방출
몸싸움
떠날
이청룡
##개척
내장
덥
김장성
외주
끌기
혜안
##≫
내용증명
종결
##식설
남반구
##920
##잔액
어려워져
##아주
##뉴스투데이
게티
극한
편이
임종명
##해변
##읍성
빠를
김주남
소동
테네시주
올라오
채색
수호
##이가
카이로
##비행기
##저금리
속전속결
##반환
##시위
##항기
기체
환입
##일치
sy
소지자
##BNPP
##클래스
부딪혔
이나영
##로직
스타쉽
군부
##벨레
##자식
김동현
지하철역
코다
렉시
동맹국
강서
##징역
##두산
동승
##부인
꾸리
사우스햄턴
채웠
##영화관
##그녀
##시네마
##해소
##곱
약정
메탈
kwj
김하성
##서대
##최소한
856
##증상
로리
##WGC
빼앗
페덱스
역효과
대항
##道
##등록금
가르
밀어내기
##병동
싸인
234
향수
맞물린
문장
##통운
충원
##릴
##운의
##계약서
간과
버틸
##단순히
판가름
엇갈렸
완충
북동부
절대로
저리
##차일드
TOO
전자서명
김지선
##시니어
공헌
경륜
독주
##글씨
버렸
##청문회
노릇
주어진
newsinfo
##청결
##무료
310
아닌데
계셨
프런트
##스트리트
베란다
야생화
좁혀
대도
##낼지
208
##바틀
수술실
yunew
녹아들
##만유
##에즈
친정
김남희
가뜩이나
##할머니
##얼굴
##몇
어차피
##tvN
복주산
통고산
운문산
운장산
사이언
##"...
##입출
##떼
쌓이
들끓
뷔페
산다
case
힘써왔
##PBR
##2015
##촹반
##科
행각
칩
##장단
당정
USA
절망
##주간경향
피로
갓
고용량
##편리
측근
찾아볼
그쳤으며
##용액
씹
츄
##키스
대덕
해리
##정안
금융업
##2529
미시령
놀라움
413
페트
##1200
##nm
##잠정
son
데이터베이스
##816
921
##유한
##185
강신욱
비워
기프트
한성
##에프아이
편집국
간략
기울였
드러낼
속이
##으리라
이유진
##매창
##3600
jhj
##932
##발굴
##유휴
순이자
흥행작
왓
##마크
##만을
186
오클라호마주
434
양의지
김남수
##애경
##셰어
##얼라이언스
##운항
##국산
연연
##서구
조오섭
ARS
칠판
손꼽힌다
김상돈
##580
##밸
트랜드
마스터
민트
##CDC
잣대
##급난
차장
엇갈린
##쇼크
##증설
로베르트코흐
거꾸로
##Off
##유흥
단란
내륙
honey
LS
##전무
신동빈
소주
펜션
##계좌
이수한
##광화문
경시
에디터
보컬리스트
##뜰
최강
천연가스
##몸
신바람
##댐
##체육공원
나폴리
##원정
##상임
##소속
##모건
낮춘
콜롬비아
##코스닥
채운
합계
풀기
체온계
묵살
썩
미끼
엿볼
증권업
앞세운
467
입문
민병희
서남
##작곡
##kimkey
이동전
373
멜린다
글자
털리
##뉴올리언스
##데토
##쿤
페이스
잡혀
식스
조정훈
찬스
슬림
5600
##충청
제소
진원지
saint
판독
정량
무안
hwangtae
옌스
머물러
##어느
##x
##인문학
에어부산
섬유
신축성
걸어왔
속내
정한다
패스트
##처의
헌정
쾌거
yej
##베클
##506
##한시
나돌
##배양
##탁식
이지
##110
오빠
해프닝
후생
기다릴
645
Ba
##기재
8590
제의
노동계
양주성
깎
재발견
##℃
김명섭
전시장
스포츠카
보유자
중저가
##문헌
윤지
Travel
차라리
초빙
##부패
그곳
앞뒤
수비력
##적설
tuney
##LeYN
##yonhap
##graphics
지정학
다뤄
우즈
각계
Kitchen
넘나들
##강력
석탄
##동물농장
##크루
##계장
##전체주의
##지적
##494
##시장법
##용법
카세트
##RT
##징기스
뚜껑
시드
##인대
Player
우군
보낸다
남아프리카
연사
모바일게임
로드리고
희소식
인기몰이
동석
계획표
사이먼
잇따랐
##주변
지배력
제프리
샤인
당도
##ha
##쉴
##도정
다녀올
임상은
선봉
##생계
##민생
편광판
##다이오드
한국장학재단
전창
##료
결격
대한빙상경기연맹
기권
이한승
불공정
##안시성
이기영
##진다고
에디
##엄
##샤
제국
겨루
##꾸러미
못지않
의외
고작
승격
긴급사
##태가
##광구
분사
충청남도
##플러그인
문민
##민준
##커멘트
베르너
정동원
##운동가
그릴리
에비
광학
취침
물씬
##역한
버추얼
농번기
##AD
##배분
준다는
애써
철폐
남용
김성훈
ROAD
익스프레스
##갈치
##으시
##919
##%.
##봅니다
낭만
반값
EMK
적잖
##집무실
등서
바라본
동등
교리
##다기
저질렀
계세요
##심각
##앙
자아내
적나라
출발점
공평
##또한
수정안
학력
##민설
##한우
##최종
3040
##세후
##순이자
##박싱
박명림
정종태
초석
EUA
Cancer
한아름
노보
가드
테니스
김보경
지각
건축물
수입액
##신발
광교
##ml
##right
보령시
##그나마
##내년도
이종희
랭크
##출발
##않
SOC
과반수
교재
##질수록
##밀폐
다도
##교가
삼광
##J
이용철
##평택항
영친왕
도자
기술자
보그다노비치
까다롭
##김정현
##다더라
##시급
장마철
##호항
##파트너
자본력
급물살
아우
##콰라
##아트홀
671
발전량
원화
##맞
##소시
AIG
박재현
압축
육성재
##지휘부
##평의
##박재구
##오일
##IATA
##항공업
##였음에도
이탈로
##감시단
##투입
번역
들어간다고
조정관
김윤기
의창
##창원시
요리사
##산학
##4900
우범기
##명령
이정민
##일국
##달째
##너리
환노위
극도
김계수
임용식
목욕
##외전
##웅조
교토
파일
옮긴
##부로
귀신
삼척항
불문율
에마뉘엘
대릉원
관리도
미약
##웨이트
입힌
삼성카드
크리스티
##만들
보험업법
##xylitol
익산시
##치인
프린세스
논하
소아병
각의
빈국
##일시
call
##비르가
##역과
유제
낙동강
알루미늄
##東京
강제력
산이
##현은
##매니저
##겨루기
위문품
##표현
갑작스런
급한
물의
##야르
신용카드
##서가
낙후
청순
##사도
##금감원
##구제
부원장
618
##379
소중히
몸통
##이사회
##피스
아웃도어
선명
벌여
##617
급급
gttsw
남궁
##헌혈
##핵심
갖춰져
WIdO
##재충전
고택
져야
##캐
평창군
##대리
미생물학
Ly
수지상
간염
RUH
슈테
##파니
펜더
KDI
강연자
##페이스
나이트
##메멘토
범인
##센서
코카
그런가
쿠데타
그린다
첩보
##어쩌
##측정기
베르나르
부의
##포천
##문항
원영
페트리
띄운다
##UN
성북
민정
잦아들
어려웠을
부랴부랴
wayne
##국을
##114
금방
##전망대
도핑
##빨강
##검경
값진
묶였
김창성
solrali
##005930
군정
##동영상
스테디셀러
자선
##교양
클러치
사라진다
공짜
일몰
아이즈
##비드
화병
##회전
유지관리
MD
영양실조
유명희
##세일
이재은
##접점
맞댄다
##FAO
Corona
비유
극우
##사적
퓨처
일본어
노숙
##내자
흔들릴
스니커즈
##尖
##閣
##전라남도
GSL
##서강
##컨텐츠
성찰
##Business
Survey
##나이키
알링턴
김재호
greatnemo
##칸타타
##언더
##퇴원
신규수
##아이폰
전각
##재현
곶감
세자빈
##연애
이맘때
sisa
##외교관
제온
객체
##코리
국어
겁니까
양의
계곡
##요리
완제
연못
550
##모으
##배수
##만일
##고시원
지하차도
##여야
윤슬
##생과
세정제
철갑상어
LCD
확장팩
연락도
리허설
나가라
##도전
정해졌
윤상원
지워
##빌려
동기간
SSD
빙자
##신재
가했
##신개
공시지가
##크워스
앤트
수적
쓰임새
안내도
족욕
편백
유출량
##㎘
##해경청
##개세
나사
기정사실
완납
##△
##조선일보
모닝
이정훈
달린
##KSPO
빌게이츠
이수지
엑스
생산비
##환전
리사
맛볼
##禁
타협
##안내
인가
김학도
hoonjs
속편
##장년층
의료인
##동국
##라이프치히
개발비
착잡
연기력
아저씨
##선수협
##고수
만족감
도대체
572
법무
빙엄
##어워드
북한이탈주민
들어줄
##증강현실
지낼
##레코드
HEALS
##ppm
##발현
캘리포니아주
HBO
돌아설
##실록
바른
특산물
영사관
##개최
남발
##임직원
##분자
숙원
프레스
##땐
비룡
##지원사
양자
장기화
##횟수
과징금
묵직
##예술제
책의
RPA
막말
분분
앳
스피커
##기치
여왕
KAIT
##탭
현관
꼴찌
탁구
박준현
연료비
##동동
정연우
##민방위
##콘서트홀
생고기
장례식
공군
장애인
복직
영천향교
##엔진
##목포
##도리
인선
##봄
카운터
오션
KCC
##분당
##동력차
##산소
오피스텔
##재웅
##그런데
위례
원목
서귀포
인쇄
와이즈
##웨일
대디
이춘재
김성현
##재미
##팡웨이
킬러
영양소
송무
##1500
##EMS
제스트
주치의
학회
포천
##내장
탈모
##정고
공유림
##현대판
넥슨
쪽지
##규격
서울랜드
보첼리
민자
도수
APT
##오랑
SBR
KAI
리히텐슈타인
패혈증
보충
정견
남원
##청렴
제이준
##마이스터
알칸타라
##시오
덕수
##foresttrip
유병
##체중
##황금
마녀
최영윤
##freeyaw
옮겨졌
대지
##둔
구급대
수돗물
##외고
##교원
moon
대한축구협회
강팀
##계속
##신다
##7773
오간
기술료
성재준
##오파
##HL
jjsung
##깜깜
##내격
옮길
산유국
##깨끗
한독
183
김미희
이지현
##대신
VIP
앞당겨진
##미트
미트
한국식
##해물
떠안
확연
가배
신웅
phonalist
365
분권
##농민
##고령화
전성기
발명
프린트
garden
##정세균
점령
터널
버거
담아낸
자서전
##악산
경의
pdw
##1201
##물놀이
입상
요령
##후생
팽배
파고
돌아와서
##州
노스다코타
이튿날
초가집
현판식
##경력
해물
뜻밖
안경달
gunners
거침없
##판권
##hoony
친필
##곡동
지병
대장정
##이노
적응증
##자가
##대변인
고삐
##요구
손꼽히
##ECDC
##문법
##브라질리아
복원력
가계부
##실수
체당금
통해서라도
이현주
##순례
구정모
##만료
인쇄기
pseudojm
##유치에
##지하
캐슬
영통
사생활
수납공간
동호인
미착
연락처
##오랜만
##오랫동안
원재료
##옥스
SMC
광주광역시장
문막
##거주
이영훈
조용병
저술
##구직
사람인
느낀다고
레슨
##2010
매회
yonglae
##북통
##합신
김진상
물거품
뽑혔
##701
##486
##259
김두용
의성군
##소아암
##말레이시아
판다고
정완
올려놓
3737
6700
계약금
떠올려
이원만
이하일
김형로
##상무
김경희
khn
##5029
##구체
##낸다
##철우
##진학
##소개서
요가
매트
주채
무너질
김선엽
##9149
가전제품
##개학
결손
무방비
비상구
##기편
탈주
##950
재무제표
##곤충
유진섭
사막
##학자
##吉林
##黑龍
##江
##建
기호
토닉
##센스
IRB
오노
jai
후폭풍
##단일
##클론
건너뛰
카피
부도덕
이윤화
##로얄
##다연
호가
##원화
##분명
테네시
##국지
##연과
##보조
##듬
ATV
장난감
227
떠들
##상합
##동훈련
환태평양
침략
뚜렷이
##남조선
적대시
숙명
조사단
진위
##확
유보
팽팽
밝혀왔
##구본혁
nbgkoo
1931
기폭제
##산갑
피에르
##에밀
##사우스
카스타
얀
유로파
세르주
유니온
##bsnews
##RDIF
빼어난
깨졌
조시
최지만
출루
##도어
146
테일러
승률
타일러
워크
##333
##예상
##636
장타율
##마일
##진다면
##슨
호르헤
어시스트
무실점
로젠탈
라이벌
##409
1991
##432
##4500
조이
##캐스터
김선우
격돌
##좌승
##프라이즈
jpen
언쟁
베이스
살짝
초동
에볼라
취해온
슬로
ktkim
##매년
##스웨덴
##식스
나와도
그래
##gurazip
##재건축
##HUG
##시내
##우량
##AA
##담보부
급팽창
열역학
PEP
##캐스팅
돈키호테
문영일
방명록
##기행
##통화량
##스페셜
안정준
##마거릿
근거지
춰라
##사춤
##페인터
##통망
끊겨
##단다
교정
매몰
딛
모아야
3200
꼼꼼
별칭
##게임학
우수근
960
양해
권재희
631
최민우
4016
##박준환
끌어내
뜨거웠
##당사자
백지
##지지
소신
##자동화
##RPA
유니콘
##심천
과창
곽정
kwak
##카에
행정절차
이주현
jhjh
변희
##NGO
오애리
##처음
##363
돌발
박찬수
구금
리먼
연도
##전반
아이패드
고프
오즈
KRBC
##포스터
기프
##음악회
##²
대숲
맞춰서
설렌다
##험객
진수
지장
##SOS
이소현
파문
정액
안용수
##구로
세워야
휘트
aayyss
봅슬레이
슬라이딩
##숙소
전병용
yong
##126
##％(
##♥
단추
##블의
##부러우
##치였
한고은
##자씨
익혔
펴내
신일
##두지
전언
##하림
울리
##민욱
##매수세
##2800
##8600
##PER
##아레나
##광의
##bloter
귓속말
≪
SPA
현산
재협의
부근
나왔었
밀양시
신비
##이재명
격고
눈빛
선대
독식
##가비
##학지
##흡연
##1300
##수성
난임
이준기
수교
수납
상자
놓친
##폭도
순식간
##교대
들여다
##밀레
장신구
##2200
찰코
테리
창립자
##표가
##재건
##벌
임수정
##소비재
옴니
##1498
or
뱅킹
##출시
##ny
##4030
##루리
탄다
발끝
Golf
GOLF
견해차
플로리
##정신병
보드카
중간고사
곤혹
반세기
바랐
##트릴
바이트
집약
##롬
자료실
스캔
입실
이혜원
강동
강동구
##주공
곱한
##오가
접전
향방
##방송사
##사우스햄턴
##스모
빽빽이
##토리
##개장
이익금
##김원준
##공급자
##샘
##크래프트
##5797
김원준
성대
##니트
##고지
597
익히
스크램블
##윈드
추월
설훈
민간단체
재신다
임상용
세입
차미례
PA
선결
강변
##침의
부주의
jun
##손상
##소아
토퍼
지그재그
##데스크
오더
##수술
부지런
##김부겸
설전
다방
저절로
damdam
펜타곤
김성규
담기
##혼인
##역시
##비루스
월남
도주자
고준
조차
수십억
##상원
품지
##인종
뾰족
##릿
멍
안전도
룸서비스
##본명
박정원
##장충
언덕
가든
증빙
이종건
지형
가레스
장난치
세리
주급
851
##셨잖아요
앞마당
모자라
꺼낸
심심
전철
빠듯
채울
김무연
엄청나
연애
오키나와
유경상
##궁극
##정거장
##기본소득
##정운
3800
나빠질
2060
광의
##양도
479
##373
세수
##＆
화장
김구
소비재
ADR
돌릴
금보
감수성
나이팅게일
바쁘
대놓
혹시나
##편지
액티브
##논리
특기
##Inside
##Small
##Through
##Alternative
##Closer
##조정기
돔
이지윤
광란
##충전
##권한
##홍연우
YB
##DJ
##고개
식단
갈래
하신
정수기
윤재준
##2500
##AMD
##장병
마실
닫힌
노우
대유
최송현
빈도
##카인즈
재벌
##휴먼
##최대한
김재영
선이
##연춘
##156
머무를
##중앙은행
##커뮤니티
##RNA
경시청
##범의
##챠
##서진우
##경총
##특화
행정소송
늦춰진
##977
##384
##홍보가
간호학
中企
##지자
영진
##승객
##'[
이지스
랜드마크
혼동
의아
원만
민형배
변함
김승남
감투싸움
##005380
구심점
쾌척
실러
##폴리스
##중요
##여력
꾸렸
##전입
김미영
##대중교통
##일행
부산역
##발사
배웠
이삭
이학렬
물음
##자기
로타
##플립
3955
320
자아낸다
무학
##1980
호의
##낙
##청계
##도지사
##서연
minsy
온통
패션쇼
유투
##민노총
##강자
##0203
안산시장
##시정
호수
치악산
소용이
조목조목
정크
##체이스
경질
설상가상
##우리나라
이상아
##장기간
중임
##부성
##bss
농산
똑똑
교육학
##컷
##통계청
##차인
박문희
##밍
##워시
목적지
헌장
보여줘
##비행
원투
##펀치
슛
##표로
##WICOP
##주문자
이부영
한옥
성수
기획사
경력자
최보근
##원빈
어떤지
##다면서요
징검다리
##옌스
##ksyoo
칸막이
##여름휴가
전할
가본
김소형
compact
##산과의
##주립
윈난성
중형
자란
움직일
##건강보험공단
파스퇴르
##김지혜
휩쓸
883
##강도
접견실
##공청회
전자책
아사히
덮
바에
감종
케익
랜덤
여럿
##드래곤
유덕열
통칭
명장
##3592
##황이
##무더위
박정희
코로나도
##BBB
일본제
성실히
icef
##추후
##191
##다이제스트
##재인
##역사관
##비로
IBM
##패턴
터치
장충식
실종
##최우영
##영진
##벤츠
시속
5400
반격
원년
Asia
효용
##yjy
##茂
분과회
먹구름
유죄
비우
재배치
흥분
##대국
##주당
영업시간
##down
##주방
##설이
전문직
##KTX
흑임자
오웰
권했
##연초
탈진
샌드박스
##인플루엔자
올겨울
자구책
##bubble
피닉스
Issue
커리
포르
리바운드
rookiemagazine
해칠
##ECTA
##CAICT
##ECO
김은경
덜미
우린
성악
다가온다
되풀이
##에오스
##유청
우방
기우
암초
CCP
주실
리사이틀
##예고
첼로
##Mb
강호성
임영호
##1700
감이
비서
중공업
##자간
이어질지
##750
끌어올릴
##함평
##당도
내심
따랐
돌아간
르노삼성
양은
##발광
##OLED
jeonch
도마
관리관
허가제
운동부
금년도
로고
조용석
##제어
고석용
790
##붐
##펫
제반
신효
##서민
1589
돈세탁
##과잉
##동량
##렐라
##가리
##위저드
##채식주의자
##구운몽
##역서
창비
##이적
##포가
자판기
##매경
##128940
흥국생명
대개
1982
쓰일
##.."]
부담금
팔짱
시체
SKIET
189
박진회
##춤
##만엔
몰아치
스냅
청계산
뭔데
유상신
살바토레
리셉션
예방법
대한의사협회
재앙
자위
##코가
##앤서니
불어나
마셨
교감
##별의
생선
##격투기
격투
##per
편히
김관태
정경규
##중급
##NIM
다지기
보증서
옮겨져
포스코건설
꾸려진
본데
##종교
프라이버시
활기리
나간다면
고품
직행
모여서
내고
불어났
##나머지
불러온
##편의점
##둥
이승로
평가서
재연
고해상도
퀴어
예수
개신교
모셨
사랑과
난리
선동
가요
판시
무지막지
##설정
단체교섭
하계휴가
굿리치
빨랐
2263
##상장지수
##MICE
##HD
분발
군용기
##Olive
몬테로
아라곤
가정용품
##불경기
불분명
김민정
##휴게
##옥외
##소음
내려지
##송주현
정은혜
##그간
잡아내
##문화엑스포
이순용
##바람
붓
KESLI
협동
##는다며
이모
완도
##함영훈
배고픔
샌안토니오
스몰
고든
##2009
진용
나설지
황혜경
소명
##만대
##라고도
저택
몰수
연고지
미담
##허지웅
고국
박지환
##분과
##라이더
##국민체육진흥공단
121
##건당
460
##偉
세미
포진
##Consumer
Electronics
사피로
412
중앙아시아
피아우이주
중서부
마투
룰라
두지
불식
채현
비단
##파가
##박사
##텐데
의정
##김경택
kissmaycry
hjlee
열의
For
Only
Republic
Redistribution
Prohibited
rodongphoto
연단
신민재
##kim
김정현
##645
##공부
책상
##테리어
내림
##PPP
진앙
유언비어
유압
하이테크
홍수
수해
##소와
한상길
##양파
수려
##전방
앞장설
변함없이
##편당
##금형
##무선
골밑
사양
처럼
##교향악단
아크릴
노동력
##허위
##한계
프랜시스
##생성
##인디애나
##켄터키
##명사
##초청
최대열
##형제
성균관
seaman
성남아트센터
소믈리에
팝업
##2900
광안리
##분산
##산농
##자급률
김민주
문화공간
집착
김상용
##차체
1015
교도
살아난
리우
##북미
##중남미
##2007
위클리
사옥
##이야말로
불길
교무
##조선호텔
spa
방파
소아
코믹
브레이스
##MLCC
##ASP
가나가와현
ppark
천천히
명백히
##BUY
박병모
##수록
스피릿
min
##설계사
약관
호출
내서
##최기영
오토바이
적당
712
뉴트
##9500
##전후좌우
전후좌우
##상식
##193
##안건희
##쿵
루이
떴
진공
ddehg
##島
##크림
##기림
동맹체
##칭이
DPA
##상담소
엄기두
최규식
##감리회
해방
깨달
예금보험공사
##어린이집
##출소
##수형자
##횡
나태주
자부담
##비리
##나우
코칭스태프
##837
##아일랜드
파국
빠뜨릴
뒤쪽
##형진
##김명룡
박형주
대주
Clean
##소개
구스타보
##야간
##IP
##기프트
충성
지에
##낭과
임재희
##외곽
김은지
2267
##위주
부추길
김동규
살펴본다
이동우
SF
##부작
오차
##보사
채굴
분단국가
날리
조은희
베조스
부호
##김해
허성
권기준
이겨냈
미뤄진
시뮬레이터
조선소
유역
##변국
##All
##Digital
장려상
반가운
성악가
##모아
자화상
철광석
580
염색
340
모시
그릇
줘서
여운
협동조합
떨어뜨리
모티브
##탈시
힉스
외동
3102
##게시판
rok
##지킴이
##스테이지
Fair
서약
유성온천역
러시아어
주어졌
연루
실체
흔드
##치도
독과점
뷰어
##조영신
강압
합친
밝힐
김현정
##하트
##ssik
kky
##형용
##노수
김현아
중진국
모델링
식지
히로토
미츠
등록비
##래빗
##오디오
퇴조
딴
재화
##갱생
비견
##엄중
몰라
유병철
현금화
트러스트
##;)
비등
삽입
IR
##김정은
##무형
조중혁
조성호
김대엽
원이삭
박수호
저그
판매고
##Zero
픽셀
인문
이승진
퇴임
림프구
샤오미
##도한
##시그
##IBM
안경
산학연
##인자
4634
##Integrated
Train
Testing
Centre
##ARS
막막
이건기
효자
오포
김국현
##다과
수라간
상궁
##전기수
##쓸
플라시보
함안
##경영비
프린터
뒷문
##내부
이민우
##박훈정
##여고
연극제
아폴로
kej
궁궐
선조
왕의
서늘
옥션
먹방
신선도
장바구니
쓱
173
에버랜드
소나무
##애니멀
##유럽연합
미네소타주
새기
자급률
여인
연재
##재원
##인출
엄격히
fact
##더라면
사설
유래
무주택자
하초
후임
sgkk
함영구
물고기
스킬
고토
래틀
319
에미
서대문
##방역대
프라이스
##안과
##종별
##배드민턴
종별
배드민턴
##주지
##민회
김정훈
컴투스
속성
##6220
HDD
##점해
##주액
교과서
##등록증
##희종
##차기
엘리자베스
##용인시
툴
##감위
보호법
이동은
한의사
##통영
생산직
부다가야
설계도
분황사
마하
##보디
깨달음
로마켓
물음표
보험계약
다임러
강주헌
불어
버튼
덜기
금팔찌
좇
장연
네타냐후
##참가
삭스
##분이
박동민
##에다가
센강
그늘막
연신
##본인
##나노미터
서귀포시
숲길
의귀리
한남리
하효
##체급
##최영남
##cyn
##44550
어우러져
시그널
##본다면
281
##티지
알코올
앞세우
카스
강민구
coddy
##병정
후평동
##페트로
##인우
차관보
검사기
떨어진다는
뉴스쇼
반란
남북한
택했
##끼
동자동
다크호스
뒤집힐
변호인
아담
funE
##독전
악역
##엄태구
뒷모습
##페스타
##풍선
##이름
##와이프
사무기기
강경화
ICE
상연
##현창민
##pressianjeju
ahn
조정래
핀업
##변호사
정반
##출력
제이크
이국
오락가락
##형강
매드니스
##심위
설득력
2050
대장경
부생
맥주
신진호
횡보
##무장
시재
##연상
##매력
불러왔
##혐오
##해했
히어로
이용수
##시범
맞선
##해로운
마리스
##해결
##보쌈
##족발
신선미
티아라
절단
연방수사국
봉화군
반두
콘테스트
에지
김아름
1003
##법률안
김창렬
샌
조상호
kkjoo
##0912
교구
##포메이션
명예훼손
맞고소
##더블유
##복구
박영주
##정례
##CPU
##호실
##계발
##핫
##다움
지음
돋보인다
##Seeds
트레일러
도레이
임정우
5700
천재
솔비
##↑…
##대양주
##직급
##리셔
지대
##니까요
오세중
845
빨간불이
##구족
사우샘프턴
##모카
자막
계룡산
통영시
파종
생겨서
밀려난
디우프
러츠
이브
##9800
시달렸
날개
웨이브
쇠고기
##민속
바닷길
##운림
##산방
창유항
##하조
##썸
거리의
##촌지
##digital
매출채권
목공
리온
##으신
소모임
시지
박성철
##국당
랭걸
##국무총리
SBI
최종윤
퓨전
CT
##이낙연
##담의
##브릭
##%)·
##코르
##샤론
##경산
합당
등단
신념
##여신
플라스마
리빙
들어와서
##치우
##살벌
##훈훈
##코믹
칸타
두각
##지하철
잦아지
세무사
무신
##쿨
하이엔드
##사양
##텐트
##라거나
중량
##모티브
##강수계
요키
김민철
KAMA
##돌리
##메트리
PSG
살균력
##향상
이경호
##초시
##­
노닐
##삽시다
##401
##로썬
폭주
옌칭
##%↓)
광안
조상
청각
##사막
UFC
##장학생
이종일
##명예
##스타즈
정옥주
##학기금
패트리
세이프넷
네안데르탈
##빙그레
보험업
창작품
국영화
##이콜
##서인
##마차
박남춘
##권고문
소각
MAU
시칠리아
830
식목
카터
##변호
낙상
대공
##선행
식육
보철물
##교육사
주야간
##구본
##Feat
담론
전민정
외국산
거문고
힐티
##포말
##NHK
##파나마
JYP
##애더
##크리스마스
도봉구
원어
##양곡
레이싱
윈슬로우
##마침내
물들
##SUMMER
MADNESS
명륜동
발포주
세븐
오비
roof
그레그
파브레가스
오리건주
장재영
##당뇨병
수제
##관리원
국내산
##용어
##특별법
정교사
돌봐야
도맡
이동식
집행유예
사회봉사
깔따구
##공론
언론인
힘줘
##무한도전
##정우성
칵테일
##비해
447
대웅
대행업체
전면전
1651
옥천
##액티브
##파일
관망
이어진다면
##스타크래프트
식감
##갈비
##해와
배나
만만찮
##교총
줄다리기
##김병주
저탄소
##twomc
##티엔티
교두보
##FOOD
다가갈
걸린다고
호러
판타지
##중략
cjyou
##김대현
kun
##5783
##마르카
당혹
##우린
바램
##IPTV
별관
박승대
##김나율
##고향
식혀
고즈넉
바위
##관비
##에이치
달굴
심심찮
번질
금물
되돌린다는
나눈다
vividhan
노팅엄
##kimkija
달라져야
목말라
##자영업
##미운털
박힌
나바로
무능
보인다는
##테즈
증식
HIV
guspower
운집
레너드
leekm
하라
##양은
파마
##수티
제너릭
가한다
토픽
망포
환승
##가상현실
신월
효창
종목별
부대시
권순우
벤치마크
제련
징크
##크린
##엄청난
##enormous
destruction
폭스
##쌀
가디언
방음벽
추운
##독서
김나영
소수자
불러일으킨
되새겨
##석이
투이
대구경
##문도
##진입로
##813
##947
##729
##153
건너간
##진권
빚어진
리프트
##버드
##Zoom
##붓
##육지
##원청
2700
진솔
생동감
일관된
북돋
어떤가
손색
직업인
고난도
4600
4295
밀알
폐막
배리
##3006
##렉
##닉
cynical
김병덕
##非
##㎚
##난의
비상계단
종적
435
관람료
아가
나바호
내리막
평평
자니
아녜스
허수아비
##北京
##파이
애용
새우
##프라이어
유효성
주교동
줄였으나
##멀린다
정맥
어린아이
김준호
1993
엑스포
켄터키
##온리
##병실
mumford
만능
그렸
웨이
대남
##굴종
무모한
부나비
나설수록
배격
##해진다는
힘든데
##전법
##상공인
아워홈
##접대
내사
예정일
애국심
232
##정태관
ctk
##3312
##햄튼
##피터스
스킵
세세뇽
트로이
패럿
##문평
##가단
고위층
realbighead
메릴
헨드릭스
추신수
커브
슬라이더
##연승
##435
로어
##273
##286
버팔로
블라디미르
MVP
터커
##182
난조
김광
히메네스
잠재웠
내보냈
DH
##263
##385
카이
하필
베이커
##싱커
안드레
샌디에이고
대타
샌디
타순
윌리
랜디
김형준
##폰세
치러진
##남시우
##정상진
##북극
##채희
미추홀대로
691
졸음
##절의
두드리
동과
반포동
수색
사채
AAA
141
##호용
면역원성
클로닝
##색성
철책
##대해
##수욕
해수욕
##425
##158
찾아뵙
##와서
##최희서
##줘서
slowlife
##양평
윤택
구자관
안이
##거품
##일렉트릭
932
무료입장
비언
##어극
##버벌
어린이극
공업
하루하루
이상한
섣부른
기약
돌아볼
허술
전시물
몸집
생명체
##한데요
아일랜드
천장
##인류
외교통
##시진핑
김현환
최승우
##장르
홍보가
기색
##크루트
hs
##말레
윤주호
##합창단
퍼레이드
아름다움을
##이승훈
제발
신드롬
롯데시네마
로맨스
던져
공공요금
흥미진진
1115
초라
위급
적재
외침
권덕철
종근당
##퍼시픽
##이력
내국
비정부
##스푸트니크
##미국인
##490
기차
##채팅
빠져야
코놀리
분기점
김예나
##데크
응원단
활기찬
시식
##홈플러스
매개
닥칠
돌봐
##조성신
robgud
총망라
##유세진
우파
타임스
스텔라
보텀스
최고령
이규하
##Travellers
Choice
Awards
##1050
##％),
자치단
구했
주무르
##이원일
벙커
익힌
송산리
##공모전
담백
깨우친
믿기
엮
하한가
박상익
dirn
파르
스왑
##광해
##HACCP
쟁취
대수롭
경보
도피
##요법
##kormedi
##강습
향진
이원섭
회분
김범주
##u
##3111
##619
##바로
면면
브루스
근원
##귓속말
만졌
##진상
응할
##구주
명백
확약
잘라
##359
띕니다
##차입금
배당금
##아세안
뭘까요
##직관
바랄
스쿼드
더그아웃
고독
지녔
습지
최혁준
재작년
급락세
반등세
시사평론가
난간
부린
고종
개항
던킨
이랬
##박채
갈아치우
금제품
##%…
##묻
미디
##shoonyi
종말
##지위
##횡령
##성성
##헤지
김소현
##jay
다가섰
할부
이의한
사려
털리도
양당
리치먼드
스파르탄
카르
##갖
7600
승전
독재자
만연
정답
양심
원로
##사회관
##준수
##율의
스타일러
3244
##배움
톰슨
##충돌
둔촌
##비씨카드
이민영
체육계
바란다는
모던
##휴관
##이송용
##단막
정무경
침산동
##㎡~
찰스
##트래블
괴물
웰스
류형
rhy
빈발
##시중
심해
변곡점
지구의
마사
muse
##縣
강해졌
끌려가
내정자
척수
##뇌손상
##골격계
##갈수록
홍진
##곱창
꽝남
뒤따르
남긴다
##지그재그
지킨다
안트베르펜
이베이
호황
과중
##완성
와야
당권
##MBC
상응
히스패닉
돌려놓
임이자
##재택
##법과
김현준
엘스
##남아공
진취
데드
##5670
폭도
##470
덧붙여
싸워
걸쳐서
##만호
회의장
##강행
백혜련
##전혀
밀어붙이기
책무
##지도부
따름
폭언
거동
견딜
휴게실
가끔
교도소
서둘러야
불안전성
##옆
김진호
##인은
배차
늘어납니다
##ATDPS
##전자동
지네딘
##생제르맹
##860
##할아버지
돼요
##어린
비닐
모셔
능숙
생긴다면
운전대
만류
##조금
345
##hymn
##아랍에미리트
##이스라엘
힘써야
완제품
##남용
주원료
퀴아젠
한민수
hms
##져도
불러일으킬
불어난
##환매
292
이릅니다
##욕의
번식
840
합성어
출몰
브루클린
사재
킴
##중순
##중고
오름
9208
받쳐
ikjo
제쳤
실은
김동윤
에릭
배달원
##로지스
바빴
더스틴
득실
##DISTANCE
##Educational
다뤄야
힘차
재도
페르난데스
잉글리시
hjn
##디펜
파비안
로만
루카
##연습
스케이트
김광석
jjyoon
밝혔으며
오스틴
1951
산화
385
보여서
성동구
가로지르
##저성장
##↑,
유산균
프라이빗
빈약
그런지
##수송
##패자
정규장
OPEC
늘린다
상한선
YCC
한파
체외
##ATM
기지국
테라
유재희
시네
##학설
##타이어
211
소급
앞당기
김주영
온전
전혜숙
엄중히
##케이스
##락다운
##경제학상
산다는
여명
##서울역
부천시
보탤
판가
##제곱미터
##연간
장규석
군용
##시작
##아이즈
무한정
##격인
##242
이동금
##항인
##강진
##307
##730
읽힌다
##6707
7834
8873
오너
걸립니다
##FOMO
out
##시일
경산
##김국현
뜬
##동아닷컴
##고스
후쿠오카
psy
406
##대체
곧장
건가
yisr
##납부
아드
이매동
미스
듬뿍
그림책
##굽
무승부
##니스트
긋
내린다
임지선
##한림원
김병수
움직인다
갈지
뭉쳤
엿
노렸
##해운대
##습의
482
##건위
재능
후반부
##마땅
준결승전
교수법
##교육회
##실시
##155
##박정규
fob
한솔제지
교전
##금과
##인하
1372
외빈
##청비
##체인징
##신과
내재
##제정
##이남
한종수
꺾였
##이정현
리제
사교
normal
오정인
양양군
##MVP
##감각
빅맨
르브론
건재
다쳤
재래
##원금
##유니콘
##고배
Jazz
Week
송영주
서영도
##신현필
##조재범
성수동
##티세
북촌
첼리스트
##HOM
##피닝
##울프
구획
기울인다는
편중
판도
동화약품
필로
##위서
들쭉날쭉
적반하장
소매점
풍속도
당일치기
스트레칭
진급
저마다
이솔
대꾸
대산문화재단
##석강
옳다
hyj
##박쥐
펜실베이니아
##바이올로지
주뉴
##질랜드
문양
데님
웰빙
##시에
수작
##문화부
pjw
박종원
조슈아
웡
##청문
##부액
IDC
아제르바이잔
이지영
##jiyoung
스플릿
주저앉
임시회
##지도자
부시
새만금
##호두
##지점
투석
콘크리트
파편
장례
아베노
가로
후생노동성
ck
내몰린
##귤
기대치
##SKIET
##5122
서울우유
##서울우유
윤석열
경실련
##+'
##+(
##539
사지
##꾸
##연못
jjang
##seantour
장원
##트론
##이온
메르세데스
CATL
##1100
서혜란
Digital
간사이
통신원
##역전
##흠
##’”
천명
전가
소란
다닥다닥
##호이
어려워질
##자국
불가리아
원도
지터
yjra
대진
신환
FICC
휴전
유난히
##데드
크로스
타이거
##베터
1543
##bottom
키친
##개입
눌러
창당
달리기
명작
Rapid
kit
dschoi
최두선
편차
고민거리
##118
세스
레벨
환상
##성행
##경기자
강제노동
김봄
bom
##ADL
##다던
##3300
##나흘
##오오
사이드
##통사
김효정
##범죄인
잠자리
친척
음악가
##십의
불철주야
소염
성희롱
철인
가혹
##6926
##전청
##6883
kysplanet
##국고
예결
yjkim
##우위
최창환
故
##파크텔
##주소
##최창환
maxwindow
##수집
##파동
##하원
181
##자발
문화일보
유서
힘찬
##아래
걸까요
##본격
깎아내리
우크라
##우하
위즈덤
매니지먼트
풀백
아탈란타
##us
와이파이
아메리카노
##이혜미
##나자
##쿼터
##충분
##흡수성
광주광역시
##CAPEX
withsuu
##티스
##바를
무용
견뎌
흔들렸
승부차기
484
선종
##로비스
유이치
산악자전거
페달
흡입
그레타
툰베리
1038
OLED
신음
##비카
##사유리
붙였
붐
간단히
##SUMMEREST
늪
헤어
찾기
文
##사제
##갈등
아냐
##무시
##비도
취해질
##떡
##1970
이동준
임신부
##초급
##웃사랑
갑니다
김윤
##동행
미시시피
CDC
되돌려
캐스터
쇠퇴
##스태프
##육체
미로
##태백
##연구실
춘란
로망
박정선
아리랑
##윅
브레
투발
윤성훈
##CS
namy
##급과
중첩
설교
출교
성직자
자행
기독
##시켜서
가진다
없앨
넘겨진
문예
도미닉
도의
반대편
교육위
미온
##영동군
##플래닛
##수준의
다가서
##이태석
KODEX
1960
USB
청신호
ANVISA
##전역
##시공
토의
취해야
##퇴근길
틈새
##경철
임성재
##북아일랜드
화단
뒷면
드롭
##5589
##수인
252
##2668
218
수출국
족쇄
쉰다는
##jung
묵인
팔려
색감
##tenasia
보령
글귀
##지역인
##KISTI
입자
김재수
빗물
담벼락
대문
보성
양승조
이앙
교배
##미와
##여태
수자원
333
##농약
##벼
하든
야수
임종석
결정력
##도자
학예
1918
1955
슬픈
원형
UNIST
##장지승
jjs
미첼
손목
##중등
맡긴
아바
최진
PT
정지형
kingkong
##대한요트협회
박진감
이와테
##岩
##手
고투
프로그래밍
빨라진
1531
횡성
##베이스
쑥쑥
다질
이나시우
시우바
##618
방인권
pch
##전소
##했어야
##시체
작계
##슬립
##기항
##순찰대
카페리
박희영
양희영
##9133
##인테리어
##결식
##나스닥
유나이티드항공
스파이
##사업체
##각서
이재민
심혈
현시점
다문화가정
홍준석
##RPK
편수
honk
##0216
590
척이
콘서트홀
멘델스존
##에디
##COVE
메신저
##바라
평탄
효험
sisyphe
an
두텁
연주가
우석
관학
도비
EBS
##서철
펭
진출로
샤이
모순
##영암
##신안
곡물
##져야
평시
농어
##남과
변한
##2359
##이혼
장재훈
스카이라운지
골프클럽
작심
##위상
유화
입영
##온난화
사투리
##열의
뚫린
##선인
않아
일체
##이방인
##청소
▲'
둘러봤
skpark
전투력
##태안
외환보유고
##3932
해역
##영주
##1861
##음의
이현정
##대립
컨테이너선
적층
##세라믹
##커패시터
UNWTO
##지심
##장학
병원장
##최원혁
김선갑
choigo
##3800
##환급금
##임형
##상주
##부의장
imne
홍예
##성인
고구마
##협동
빈곤
##다이아몬드
살려야
##전효진
##850
중남부
간병인
착륙
442
인절미
옥석
심할
버클리
##연호
##UAE
##토르
##7100
어깨동무
##밀워키
ideaed
약보합
##려니
가르쳐
할인율
무효
달아오른
애칭
##어린이재단
##양안
kirimi
임택
##매직
얄팍
국토연구원
##z
##원서
평택시
Zone
살아날
돌아서
어겼
상거래
저울
##동지
김연수
코칭
우익
##유재동
jarrett
##교주
##해적단
평했
##켈로그
##해경
회전
변론
컬처
쫓기
시신
방역망
제이알
samuel
##날지
갇혀
햇빛
선글라스
프레임
멋
##Valneva
hub
승패
앙금
험난
##270
##693
크리스토프
##공문
##본사
##탈북자
##근본
##스트라이크
##랴오닝
324
김홍섭
##1995
노브랜드
##권진
302
##거대
빅리그
blooming
사드
##고고
##방어
피코
##피코
##CMO
##경마장
##중심지
##문명
2258
##기축
라파엘
##띠
유례없
서울광장
스릴러
유수
##프리오
1858
재가동
주둔
##방배
##내곡
갖출
##용기
사유지
##오페라
빠짐없이
엘리
##투호
조명래
투르
##나바
##문인
집결
입선작
##카오산
김경훈
독일어
##관념
사이클
김가을
최저가
신상
##기강
도리어
김영수
argos
교육장
##키오스
물감
어김없이
싱싱
유병재
재전송
실존
휩쓴
닦
슈완
외연
##감자
합격자
박제철
##발진
실트
##급유기
허벅지
박민지
##korea
##기일
들어도
이투
노트
파인
열린다고
피난
##단체장
박세복
상부
##장년
기법
돌연변이
맥켄지
##알렉산더
설립자
##與
규명
박모
빌렸
역차별
예배당
개월
##035
전성훈
lucho
##역증
수난
##간다는
구이
영도
##여종
김희준
##060
##274
##열린
WTO
색칠
싶어요
##조회
##겐
##Hiroto
Mitsugi
##Peter
Csoka
##자본주의
##공황
아랍어
길목
부유
STN
##파와
가스공사
악순환
감경
사자
스테이트
##골드선
엘르
Hoody
##敏
##充
네트
인내심
박지현
waste
허용도
##임식
##말린스
##ㆍ롯데
##기협
메리트
달라진다
짜리
##티비
##해커
##DT
피팅
##이중
알람
이홍석
##redstone
내야수
외야수
##유소연
보정
강행군
사상가
km
기다려야
끊겼
통틀
경이
원고
조나단
##브리
##하만
##바쁜
##GAVI
잎
약하
신중섭
##사슬
##4700
##옥천
옥천군
Competition
##우스
##모니터링
##인용
실험실
##규명
최문순
이쪽
거지
물어야
porque
##전파
##탁족
##왕세자
지은
주악
원소병
약밥
##물방
발상
오수희
osh
##9981
##클립
##EB
##노숙자
형의
이윤이
여제
천공병
농사
##봄철
새겼
##얼마나
##How
얇
하얀
##0514
김용훈
##초량
##동일
##양산
市
##가점
##2024
일반직
##무게
윤태호
천동
URL
다비
##이모
##손자
##장성
전통주
멸종
##은어
##종위
##기종
##1004
설명서
WNBA
380
비올라
비올
설명도
##유니온
##001
제공권
장종호
bellho
##정가
문석진
##단식
##연고
시민군
광천
##재테크
패널로
일으킨다
##유지한
jhyoo
전설
덱
최철
##디스크
소모
매립
소설가
콤바인
##톱
숙취
레디
##실무
사감
##착할
##축비
스무
##보위
섬세
신진
최남수
개인전
##회화
생산력
좌완
##신정훈
##례
##음직
경제난
기민
##아무
##352
우월
##약령시
##815
##뉴클레오시드
시골
도나
##Edge
꺼려
3600
##센
대교
줄게
습격
몰래
칼로리
스파클
기댈
값싼
절도
보랏빛
##휴
##역이
디미트로프
심경
##찰옥수수
##놀이터
##프라자
권혁운
##005690
헤이먼
##발효
낙농
##혹시
##윤정원
김정연
##My
##스킨
해남군
##전사
236
혼잡
간다는
아무튼
여사
##중기업
김지연
No
백군기
##731
택한
##닷
4300
신입생
##반수
양대
SaaS
스케일
##스텔라
##007
아동학
##겨울
흘러간
##9634
출생지
##정수장
이원
##韓
너스레
##예능
##가평
이민자
##PB
##퍼펙트
베이식
테크놀로지
##급자
돌려보내
##귀향
##비법
월경
마주치
수건
##생각
##국수전
은밀히
##지파
##보혜사
목자
와해
##종말
윤재덕
총기
담양군
guest
##Night
Paradise
선보
터질
##과중
조인영
##ciy
부산광역시
꾸며질
재가
비웃
말렸
역정
휴머
윤활
##기유
##7821
##읽
쓰시
낸시
펠로시
맞잡
WTI
##뉴스룸
여직
##스터디
##면식
강소
##경제자유구역
##마카오
outbreak
월가
과테말라
1882
에디슨
내야
##강판
##영입
천차만별
##RBD
운반
##궤도
낚시
RDT
##간다면
##백의
분청
버려
지성
익스플로러
데이리
늦춘
##건설사
허물
무안군
##여의도
##남대문
대작
##왓치맨
가치주
모욕
울림
옮김
닭다리
찢
바비큐
##설치
청산리
388
강탁
씨도
건강보험공단
##대별
ks
도당
신호탄
구축함
키즈카
ㄱ
수동
시드니
##식사
차츰
선단
상사
체지방
김희선
##229
무상급식
내성
kimhj
미래사
##저인
시킬
처사
호원
단단히
##KDJ
##ACE
율동
1962
근현
##mom
간혹
HOOXI
예단
##감찰
##언론사
##클리닉
수현
##주차장
AC
갤럽
##삶
퇴사
##디가
##명동
튜닝
화소
##GB
소파
##아웃도어
##소세
##전증
##강세
유승민
##Green
화학사
##계인
임용수
##라이언
##퍼트
활짝
##티키
##타카
##지를
팔불출
부러움
##법정
김태호
##울진
##독
##카르멘
##음악극
##벨기에
큰일
수학여행
팟
영봉
##노인회
김상수
개장식
##냉장실
이상익
확대도
대표단
일회용
##이상현
##choi
최창원
##부스
정적
동일점
##오법
줄기세포
368
애착
UP
관록
##저녁
한송
목가구
도제
##손실액
□
자금난
곰
##스투어
째보
##선창
김영종
##난이
글라스
##항도
비속어
##려다
덴마크
이현
빌릴
##클루
##시브
##세인
헌법재판
수술대
3594
1351
조석
##채워
뜨거워
지지가
대한병원협회
##팀원
국립보건연구원
1948
청도
##전동
그쪽
##연방
구름
저작권법
##성전
##134
##이유
마법
##룩
용적
##으셨
뻔했
색조
해라
바지락
던질
이모티콘
두류역
디스
유니클로
조르다노
sunwoo
##의자
마찬가집니다
##車
##포천시
박윤국
##석탄
밑반찬
폭격
##될까
발이
Xbox
장경
##염증
공놀이
아동복
유가족
##fsale
등등
도장
##김포
일간지
딱딱
지치
강류
샤오밍
듀폰
##니어
##Dupont
Pioneer
몬산토
##Monsanto
Seeds
박준성
##예총
312
청송군
195
조동철
농성
개이
yycub
여쭤
산수국
이효리
고시원
##003
##갔으나
의령
##재부
장기영
고창군
컨셉
숙식
찾아와
치러져야
두드러져
구자
당겨
연합체
##구례
네안데르탈인
청와
펴낸
##경로당
##↓,
##정시
녹색교통
##중개
배민
욕실
매립지
##4203
##자격증
노란색
786
지드래곤
가호
음악회
굴레
lionking
##㎏)
월곳리
타월
경동나비엔
연석회의
알뜰
조니
##포레
##넥스트
일사병
크래커
오영수
##야행
최종천
##목사
김호중
석차
-[
장욱진
##블리
김세진
##양회
후원자
##하나님
메트로
건계
##초가집
##ERP
산문
금메달
양구군
금동
한국신용평가
EXPO
##네이버스
KOICA
모란트
##다방
슬럼프
바닐라
김비오
사면
롯데제과
##쉘
질소
이대목동병원
지망
##구해
홈즈
구리역
##는다네
인버스
산모
댄싱
열대성
##상당산성
##음주
##명맥
##Lacci
##보처
민물
거야
원희룡
정수장
의논
맞닥뜨리
탄천
들어온다
##굉장히
안타까웠
맨날
해수
chego
총수입
저유
##리얄
##290
성립
부가가치세
수개
411
광고주
elikim
##자아
##집의
드넓
뛰어놀
부럽
##영업장
##노후
Tournament
두부
버섯
##자니
줄여서
##박진
##어업
농어민
임충식
##산업용
비약
##chung
##변신
후발
##렐
##특집
##이벤트
##좀
##위로
##종일
원망
##두붓국
##안전성
##처에
장용호
##실트론
이디야
##강희
##준성
얽매이
##측이
여지도
##공격
##이오
바이오테크놀로지
##계정
##녀
사위
디아즈
##개봉
세계관
황범
부시장
테이프
9300
4235
duck
농활
원정대
##인방
수덕사
스님
비상근
##410
##%↑[
##170900
##ikpark
영암군
박혜숙
##전할
조재영
##응진
##담대
##장지
##차주
pej
거침없이
합세
##선임
##결핍
캡슐
베벌리
떨쳐
포탈
김기문
이슬람
하지
넥타이
hunhun
DFC
망한
이뤄진다는
##영통
예치금
##분대
##릅니다
##동선
샤워실
##용태
##소유
##스타쉽
##152
무분규
판매장
##포대
##로렌
##tool
촙
##작과
학살
추상
양쪽
##TUI
##CEHAT
곽상도
부적합
##121
##이민
프레스센터
##통로
##7113
엄습
##GKL
##천사
양연수
##으나마
##최나영
##신예
jurik
##라임
##모가
323
지나온
##IN
아리
##앙의
##아니스
랩터스
깨어나
##인문
권의
부가가치
염수
적폐
떠받치
키워야
##내역
우스갯소리
##학점
##지능
백년가약
김민석
사역
김이
둬야
##픽스
손창욱
##망인
고용현
##니로
##인승
209
EV
따라오
①
묵묵히
sports
이지수
456
재료비
본소
다름없
휴일
번졌
바꿔서
하이트진로
##토닉
연두
오뚜기
일품
##셰
▲‘
##인후통
##근육통
대구광역시장
##회의장
##배후
##동군
꺼지
천억
미칠지
##가액
##226
능가
윤상호
##IFRS
2834
##윤상호
##crow
밑돈
##here
384
kjunho
재개의
kch
부자재
633
바비
마텔
서플라이
미라클
##림팩
공화국
천리
만리
##전광
아양
매달려
##패권
##추구
근해
##산점
치우치
맞춰야
길러야
keon
벌여왔
방파제
##타면
##체자
모리뉴
##7500
오리에
##품격
##상황도
##배심원
세밀히
hkkim
푸시
가입비
##신동윤
일컫
##248
##카운트
날렸
더블헤더
##316
##플로
무안타
##파베
타구
그랜트
##장타
선취점
글러브
##사구
터너
##토가
795
피어슨
슈와
브라이언트
리조
레스터
182
##저의
프레이저
뼈아픈
베일리
벅스턴
##231
임한
미겔
##278
되물
단타
산타
187
브랜든
포머란츠
##688
시애틀
##리빙
푸홀스
##951
애런
밀러
오클랜드
##308
스카
박인
끌어올려
다승
##BC
##출신
볼카운트
견제구
주루
넘어졌
강령
##매뉴얼
##NSC
NSC
베네수엘라
파리기
##TP
김광태
##AZD
1540
한명오
뎅기열
김우주
수억
##안원
##디엠
AA
부실화
##8800
##1945
시물
원편광
##MicroScale
Thermophoresis
배아
나타난다
##670
##휴양소
##578
##518
영덕군
##배급
##물론
소장품
셰익스피어
##작인
##새롭
##Inc
김철균
##성장률
쏠린
직시
1940
잔고
아르바이트
김원배
튀기
김석
틀렸
탄식
늑장
보안법
베풀
들렀
유혹
그리움
보좌
6500
사다리
대왕고래
현존
##졌으나
게이머
외자
중흥
황성익
##선학
중원
##사범
가뭄
임동욱
무난
##체용
공신력
vrdw
강중
경험자
정회성
##3400
##다행히
사계절
##ㅋㅋ
##홍조
##032
##대륙
내한
이어져야
##포식
성급
알아본다
##연예
##%↑)
덩치
연례
apple
##바울
박해식
pistols
##호음
##상도
완결
자원자
##리우
바르가스
##FGV
##Ibre
##..'
에드거
후버
지척
띄우기
기습
##효정
철새
##대나무
생태관광
##삼영
함성
##대첩
격주
로열티
##확장
##탁
적법
##하이테크
##Old
People
Active
Life
##킨
산부인과
악마
##워스
보여야
##스켈레톤
##가속
##트래
##Top
Airlines
##따라
발작
##이때
다녀왔
##반석
##실제
일흔
##약우
##기업공개
##단기간
로수
둥지
기울일
##미스틱
blossom
피곤
##부위
##도피
심호흡
##증이
구토
소화관
##호르몬
시력
문세영
##pomy
336
살펴봅니다
##힙
나올지
본다고
푸저우
업고
두드러진다
전석
##사격
##보여
이병찬
##효원
폭로
들릴
##권위
##객관
##종결
밀양역
삼랑진
##천문대
만어사
트윈
##만어사
폐선
##055
##프레시
##차입
현대캐피탈
나타낸
주선
##마리아노
##진시
nature
절친
##산업계
달렸
전해진
난동
올라타
##살라미나
사디
카르노
꽂
반화
예물
얹
되팔
분통
편의치적선
425
##國
316
마샬
501
발칵
choah
##4586
##프리미엄
김경은
인플레
##COMEX
##판매원
##ginitree
방청
과거사
연기론
외쳤
격렬
기념일
광둥
황국
만든다고
호게
##여석
정혜윤
서북구
절세
이미나
##릭
##파생
##KRX
한국거래소
##기말시험
##적절
김지한
##jihan
누그러졌
##다와
##CBOE
##VIX
박윤진
##RIMPAC
불장난
남의
##보드카
걸려도
열병식
신하영
다닐
알려준
고인
##라야
벡
리브스
닥친
##보육
##공동생활
페트병
이광엽
##kyuplee
##고강도
##쉐
박성수
노원역
꾸며
##리도
##주북
##악성
석연
김미지
am
##8191
누비
귀띔
디펜
칸타타
위업
앞장선
마스터즈
JLPGA
존치
씨네
시네마
대창
명륜
나라장터
1401
이송용
대영
##채비
횡단
##잠실
북적
느껴볼
우성
형국
김성휘
짤막
##약과
서안
불평
광대
뒤따른다
##상당
클로징
마이니치
##사립
##홍민지
영문학
##650
국동
담지
삼겹살
양념
김치찌개
CD
##NC
##석과
흥부
##그림책
##옹달샘
방역소
##독과
##브뤼셀
젠더
심플
과로사
과로
##id
허덕이
방관
팍팍
단비
사라져야
공천
폈
##보궐
사임
포획
##어링
특고
##탱크
챔프
베른하르트
랑거
##피지
##몰입
##라이
YMCA
타기
괜히
한풀
꺾일
##관차
빈부
구실
경찰력
계획안
메모지
고함
與
##아쉽
푸짐
한자
##축사
일리
드실
##위드
울음
렌탈
##스크린
식음
강애란
##925
aeran
출연료
Together
풋살
##간격
흰색
트램
광활
이세현
plee
무사고
상여금
수송대
멈춥니다
결행
간선
##수송대
들어갈지
네이마르
루머
##890
편치
온다고
봉투
##원비
안약
문은
##락의
##셀러
##안녕
소견
그리워
프러포즈
예고편
김기
##kks
사우
##기량
##변인
치우친
##연이
바이킹
설령
1152
##공지
kms
jwji
DLS
##jiye
##종임
##경전철
요구불
177
##272
악명
아수라장
##쥐
나간다
##지관
##멘토링
투기성
##板
##소액
##서프라이즈
삼성그룹
##PHEV
##쇄
##RF
거래선
송옥주
와이프
생겨도
보내왔
기차역
##김현동
##메신저
오다
깔려
린지
그레이엄
##Digitalization
##유원지
망명
마스
##이현승
nalhs
950
나열
##전급
헤아
매과이어
박정수
233
##안의
스크림
##컬투쇼
##어쿠스틱
빨라야
##초발
##로원
GPU
##TSMC
##GPU
##홍천
##후원
홍천군
##나리
##Sinovac
##興
##維
주앙
도리아
상파
##울루
김양혁
##김양혁
mj
##원석
부추겨
사도
윤지혜
##요안
히든
클리프
비피도
카바나
제이드
##위니
추리
##제목
들여다본
인용문
##스레
재탕
##대책위
##굳이
섣부르
몰라도
##얼마
임명수
sol
##전장
##준비금
달라져
##707
##9600
##핵산
##through
##전파사
##모여서
두런두런
##기법
##물리
##비밀
##복습
큐레이션
##062
##6950
박승원
##해양수산부
##lob
경찰학
충무김밥
셰어
##380
쇼트
##475
과기부
##오사
자리다툼
##연장자
##신임
##광산
신정훈
노을
stpress
##박대성
parkds
2027
후지
신민식
##시애틀
예일대
##코어
들어찬
닥치
즐비
##서버
김계환
회귀
kp
박준희
우수지
##금빛
##용산역
##익산역
##포역
##보성역
정선아리랑
##청량리역
##아우라지역
##영주역
##철암역
바다열차
승차권
무궁화호
관광열차
김병조
##위자료
##대북
조준영
##성수
##단도
##122
##살균기
##발매소
##사설
김하늬
우경희
##KAMA
판매망
마비
##사주
구동
명운
##㎖),
팔려야
이혜미
##광기
지우기
##소외
missing
허츠
갖춰진다고
솟
시켰
군의관
방불
예쁜
지나간
조성운
madduxly
석촌
##석촌
넘어오
그램퍼스
##프레
히로시
##앞선
##문은
독소
이동수
##유찬
##2080
##164
블라인드
##더러
영사
##레이시
##낮
기준일
##유색인
살펴봐야
##5259
스티븐슨
##안사
둘레길
무덤
##기력
황교안
참패
여겨졌
##Y
##포트폴리오
끌어내리
세티
##폐지
에너지원
##속초
개인택시
nuog
억지
##신이
BTS
kys
창핑
273
3397
몽고메리
##전략가
정승
살아갈
##마스터
조상식
1527
급반등
##정산
##배경
##」
##AFT
밝혀낸
복용량
좁혀졌
mjkim
권태혁
띈
##법조
##사처
##고속도로
유령
젖
다가와
##그리스
야니스
밀어내
진리
2835
##이재훈
##뮤지션
##혜원
##솔로
혜원
마더
##터너
산적
민영
국양
##오경묵
##parkhj
##0221
##에이지
##노와
입각
196
영업력
##장수경
회복된
##빨리
##이영규
이영규
fortune
박사의
구주
##말발굽
##형질
결론지
PRNewswire
시가현
DAVID
LAYER
셔츠
##photos
##prnasia
##prnh
본고
노병
##에로
##자위
##핵보유국
##스러울
내다본
SCMP
막론
공민
제레미
##之
교섭단체
##나래
진성철
김병주
zjin
ccho
특정인
아시
김지헌
jk
##법률
##먹거리
자조
부안군
완주군
##장수
임실
진안군
##창군
##민정
유인물
실명
##村
홍석천
홍성
회원증
형상
임산부
##Justin
참숯
돼지고기
##딜리버리
서초동
##게시
시급히
여동
##여동
deyuh
##2149
조지아주
##학실
KAIST
688
##헀
##Ontact
##7720
구유
##원론
농장
단맛
주범
##권력
끌어들였
뗄
##이젠
##윤석열
##EBITDA
##반쪽
sport
선정비
고인돌
군비
##오션
##렌즈
붙여진
꾸민
##장충식
##이현택
soolgap
##손놀림
아우디
##kWh
번개
가솔린
벤츠
달릴
##모빌리티
재계
##부세
##세법
요시나가
모토노부
##demeter
##네덜란드
##沖
##繩
오미
코웰
재촉
##추락
##KBO
##리버풀
이별
##지수인
증명서
분권화
도교
##대기소
에이전트
매거진
##UCL
##성위
##7840
아테네
이민
##속보
교포
테드
##top
##장우정
woo
##가맹점
##전세
##래미안
##스테이트
래미안
한중일
##애진
##nate
##서적
범람
상세히
##MyData
##MyPayment
RdRp
RT
간극
##얀
롯데호텔
파웰
위력
##rookie
가져다주
##바르셀로나
##휴일
silverstar
강길
심혜진
변지
##할망
음악제
##시인
bjc
김태민
##항공대
김제시
간청
클라크
##이용성
danlee
뒤엎
##통신망
후리
김인구
예원
##스키
상근
공신
##잃어버린
##류영상
ifyouare
성석제
##진통제
##보원
최석원
쉰다
##아용
홍창
##430
##605
##국비
농수산물
엑스코
##808
##302
##특위
realism
##감지
모의
신용거래
사들여
##등대
기부장
##학금
##With
조병옥
##동호인
##5600
인터페이스
재적
286
나온데
##상사
흐뭇
북쪽
##기온
크롬
대미
공작
헐뜯
신빙
##디스
소박
##미정
아쉬울
곤욕
##붙여
##스탠다드
##영지
핀란드
패한
날카롭
거버넌스
버려야
##아이스
자로
##skypro
##7700
기일
숙여
볼까요
정선미
민병무
##시티즌
##HTML
김형중
telos
띄웠
##파드
위르겐
##이곳
두유
불러일으켰
박정훈
섹션
##그레타
페라
##살바토레
제화공
김준영
papenique
##5586
철강업
동박
알짜
골잡이
제이든
걸려온
다나카
히로아키
체인점
##단락
##누락
jhkim
##우근
백서
헌재
감사원장
대축제
풍물
빈틈없이
눈덩이
심기
과식
망치
인격
조리사
303
과분
권두
천만
##권아솔
##regulatory
##1999
박아름
단시간
임종엽
단조
##등받이
경치
사물놀이
##향유
##승화
주무관
앞바다
다릅니다
노량진
##서귀포
떨어질까
김영선
jhk
##나주시
9900
376
한결
미인
열광
##3507
호반
밀려나
이창환
창간
사법부
이뤄야
올려야
상봉
뿜어내
김지석
시합
화법
무드
명곡
부두
기다린다
##류현진
##항서
##동남아시아
##광범
성북동
이불
##실패
정사영
##제일
하나님
쫓겨나
교파
타락
버린
강권
저버리
파괴자
중영
##수능
강민정
##수시
사교육
##음성군
북반구
##외시
yr
쏟아진
808
1193
##김장욱
##서한
gimju
김장욱
agency
극명
fullwater
531
##바이어
##연두
일신
군축
절취
##약이
arhan
##지부장
마리아
##카탈루냐
독일인
윌
##따
##정상급
178
##차장
##글라스
뿌려
##Local
일률
비기너
내의
hoo
복지부
한영수
694
속하
Effect
##푹
틈틈이
##보호구역
##보행
에탄올
구명조끼
김연주
##1853
##반지
구매력
금정구
정미영
금정
살렸
통기성
동봉
##보령
켠
성승
완성품
##저항
서강대
##입자
단행본
KISTI
##버레이
천막
주머니
쥔
팬클럽
조생종
작목
밥맛
비료
##희진
공격력
타고난
BOE
##룩스
##179
부지사
실행력
분실
프린스
손잡이
1930
연구사
떠올라
소자
##유라
##몰래
아르투르
##바르
##구별
동거
##곤란
미각
차인
윈스턴
역풍
##제국
멈췄
##지방분
##전월
일변도
##970
나우
##현과
##菅
##義
##브리지
##공대
ILP
##컨소시엄
262
백지은
##볼파크
##667
VC
##플럭스
##VC
탄탄히
켜진
정년
월성
##리주
지킨다는
공중보건의사
각축전
코퍼
##속의
##논란
트라이애슬론
##배제
##치료사
성동
##비인
핸들러
본분
김인식
김세영
##휼
미끄럼
##%↓…
파월
##%~
##건호
wingh
못내
##버전
생전
보였으나
##특파원
울주
컨텐츠
Online
공부방
평촌
1533
대전의
##*
##호민
돌아올지
현악기
브람스
협주곡
교향곡
##립
달의
##지원자
어려우
##호프집
발끈
##☎)
윤종성
##㎍
염화나트륨
##식염수
5643
안토니
##원활
##생산량
가반
##절편
##구서
데비
##왜냐하면
Invited
Talk
Legend
##줌
##다승
판교
친화력
신망
##시어터
채운다
##산대
기획처
집적화
전략산업
##광대
##전라북도
홀로그램
##시군
홀가분
김대섭
로저스
##잡스
##중동
들여올
##공조
신대
조혼
물러난다
stella
##2515
##샤워실
치켜세웠
기술직
점쳐진다
소방서
##미경
다녀가
권혜민
대동맥
##판막
##석회
##화증
##동유럽
발리
도하
신지윤
##먼데이
나온다는
추임새
이해찬
##행안
##국회의원
퇴거
##해방
숭실
대자보
##추모
뭔지
김소정
박한기
합참
##1733
##945
적대
##기대감
이남경
석굴암
달빛
척의
쵸
##상회
모면
##염
브레이
##스웨이트
중국인민은행
절하
##1992
##스위스
물동량
##Buy
동사
##트라우마
##으라
프랑코
1105
##fourleaf
##”-
유택
##LCC
apex
2640
배상현
##EUA
뽑혀
미륵사지
평균인
쏟아부
1016
##크루즈
720
##006280
일찍이
##상욱
초딩
아재
영남대
부광
##등락
제지
abbie
khm
##실리
관념
에미레이트
유머
##320
푸틴
출산율
781
##축구단
부부젤라
정예화
##기업주
중국공상은행
##핑안
##교역
##이동과
##롄퉁이
##허치
##룽
##향부
##왕왕
##쉰
##騰
##訊
HD
##동공
619
##돌밥
괴로움
##출퇴근
##살균
첨가
##野
요시무라
히로후미
고이케
유리코
방어주
이명호
판별
##°
쿨링
##얼음
머금
##리포터
천정
임종윤
##키는
프니엘
선한
복병
인명
##day
##미만
홀몸
도현정
##랲에
인어
얌
야마구치
##잘못
불출마
자리싸움
괴될뢰
커피숍
할인권
##로페이
바리케이드
수율
요구사항
교회협
##무효
##기독교
복음
765
서산
산만
##프로듀서
이승미
뒤흔든
##마치
방콕
적출
영서
오정민
##이형진
##서비스업
세원
##남동
##조기
타악
##예술단
크로스오버
익스포저
파이낸스
##뉴스데스크
안의
러너
##이즈
##템
프린팅
혈중
알로에
금마
##렌트카
##투기
입회
##탈호
바깥쪽
AFPBBNEWS
1760
징조
514
##091
김영권
마린
NPR
oh
##wonseok
김태훈
##억압
정조준
신정
건전지
##니즘
깼
깬
망설
들렸
에어포트
##송지
##도도
금석
대야
연장전
개회식
자생력
강진
변해야
##전문지
##랜싯
공보험
920
##관람
헬멧
버텨야
tellme
##윤신영
ashilla
진다
2181
보훔
루르
##3853
갈아치
발등
##FORUM
프론티어
최영준
유종일
임동균
손정화
서현선
진저
조소
##정회
##상상
##다크
리어
호화
냉장
초당
##국인
조연경
##양우석
긴급히
곽도원
##우와
세탁
##우가
##덩케르크
볶
다이아몬드
##371
벌어들인
##조민규
##cman
##실과
##피니언
외과
기말고사
##대륜
##청신호
파울루
##범호
김학
삼우
조선사
##9861
소양강댐
##북방
구내식당
박혔
##예선
모여드
아이유
이현우
그리울
hyo
##축전
음대
##나이
구사
냄새
스틸러스
##완전체
고요
렘브란트
그려진
낙찰
김조원
##정서
kyoon
##kys
줄기차
김정화
##징시
##승차
##디트로이트
척과
두뇌
코딩
듀오
##머신
어느새
국물
진한
우뚝
##아이디어
##백종민
암시
이태수
스킨케어
##159
##진남
hosu
퍼뜨렸
딱지
제이미
오리온
##과자
점치
##윤호
yjm
##3070
기념사진
##김광현
##박주성
##남전
바싹
쿠웨이트
##인도네시아
##전면
퍼트
제안자
##iFlytek
자의
아님
Business
이상철
##1954
조재기
현판
흘려보내
##양무웅
##양수
유원대
##손현수
##)"]
##최영준
##英
1985
지구촌
뽑아내
김재현
권형진
미준
돼도
때리
대산
흡연자
##매물
부른
자초
이진영
##포커스
##동재
##sdj
구무
혼재
##정립
ming
##112
##692
조시영
양식기
##실직자
어우러진
맴돌
##실비
##이르
호지
##릴리
silver
김기열
단체상
라슬로
벡시
##쉭
로베트
리프팅
##EP
##모드
어릴
막아내
##불공정
##LEO
시어터
사인펜
##개통
단말
세그먼트
##유엔아동기금
##UNICEF
##안보리
##1718
참작
호이스
안보리
라이징
##After
전염성
드러난다
##부자
트리핀
##조각
비관론
##리틀
모방
캠퍼
리커버리
##지연
혐한
김남권
SBO
##미션
언더
타수
세웠으며
소비량
밀어붙였
##9974
##군필
매기
##리복
##후디
선곡
##釣魚
##연구개발
스톡홀름
##송구
246
##텅
이병렬
이신형
좌절
동족
방패
##모차르트
jhpark
no
202
이하나
숨겨진
강병중
##사회학
한석정
배광
박용수
##이뮨
##IL
NT
##구감
IL
과언
##비록
##남편
서울특별시장
Transformation
##리크
##RecruiTV
목걸이
기물
##유리
비상벨
셔틀
오토메이션
##미투
펼쳐졌
홍재희
제법
내리막길
3110
##namhaeancup
여느
골절상
바통
의상
##얼즈
##융자금
##폐광
세세
양립
꾀한다
##수학
##보인다
통치
##사물
누아르
에서
가감
들어갑니다
##DNA
##레고랜드
굴욕
유승목
gooeunmo
매일신문
격려금
미확인
오싹
##건춘문
대령숙수
숙설소
이제야
김성수
한다든가
##뽀얀
##거탑
##apple
##포레스트
##락지
소비세
256
##1530
병설
##bang
국제공항
윤경진
youn
퍼스트
미니애폴리스
##Black
Lives
Matter
Can
SPOTV
농약
새싹
##서정원
앞당길
본원
스캐너
##그만큼
희소
해상도
김호준
##부산일보
##커뮤니케이션
##해인
##거제
필진
얼리
##상표
인천공항공사
졸속
요한
토머스
내려질
학내
경내
carrot
‘#
선풍
##모한
온에어
##BBC
##aT
##배주
신현곤
충주시
출입문
##영단
##분량
deux
이공
##닌텐도
##능이
##신문사
##바이올린
깐깐
##밀란
피에레
캘럼
##926
공사비
##김춘성
kwang
PLUS
양동호
동해시
함상
##레이스
갯벌
##멸
하명
##폐기
최인영
##리그전
봄철
##최인
##chin
재경
##선양
진양호
전량
##과일
신간
휘발
샘플
jkjin
아껴
##리라고
파밍
##7024
홍창기
beruf
이진혁
年
박정일
소모량
##발자국
##앴
##아울러
##철학
##제안
##신경
##칼의
##운영비
최성우
조리실
##영덕
byd
햇볕
##코엑스몰
##렸으나
##소당
##2827
##1495
보드게임
토드
##엘리트
바스
혼혈
김민범
mbkim
##모아이
API
스토리지
##번호판
##조국
##덜
산책로
심해져
불량
은보
##唄
##바오
편법
##될까요
##치명률
인계
첫해
##남양주시
##어디
감별
##기념품
공휴일
##129
해난
밸브
유조선
4800
국세청
내려갈
##퍼시
##마오
김민영
멋지
대웅전
##대탑
그늘
##Kwh
##제작사
랭글리
에런
둑
안길
##리전
Device
##Network
Video
Recorder
##남녀
IMM
##jobless
recovery
jiany
연지
##계열사
조규상
이병휘
커머셜
한동준
팝스
여영기
세보
해준
중징계
##omn
민언련
엄벌
모씨
##수색
김철호
##임팩트
##거트
탄산
저당
##UP
팻
과즙
톡톡
##멜론
설탕
프레시
##사과
지부
결의
퍼스
##가옥
오토캠핑
##자락
##오성택
예루살렘
##▶
##회피
함꼐
연탄
문병주
##byungjoo
##삭감
##경남은행
##번가
##윳
##조원진
이재웅
leejw
클라이밍
볶음
##기업어음
##거시경제
정성껏
짠
이룬다
##스에
##왓
##숲길
##여지
뺐
군립
진영화
힐러리
균열
##PD
##가율
##enews
연예뉴스
enews
3069
김달호
##날인
청구취지
##↓
희박
목요
각계각층
토픽스
##2957
##구슬
##세정
세정
대장균
##제섬
노총
이견
##핸즈
##객사
내색
열렬
747
랜스
캐런
미셸
용납
##훈련소
915
일삼
양육자
##추정
기다려왔
금세
팰리스
부딪치
질도
올라간다
윤석
##커드
##문턱
본보
평정
##아마
레드불
김재광
계십니다
웨버
베넷
강주희
##간제
##일터
국제노동기구
##ILO
##화가
##스케어
고수진
車
알선
다져
GAVI
서정진
##박승환
BCG
##반드시
##한계선
바퀴벌레
어쩌다
##김춘학
냉장고
통째
어떨
이재선
EM
##전일
이영신
교세
삼위일체
재림
영이
##공소사실
두루뭉술
수신료
박호
Lab
연거푸
등원
##제네시스
이재홍
##팍
##쌈
점주
직거래
##공방
모욕죄
바꿈
##시네
##당황
##아닌데요
##아닌가
낄낄거리
모욕감
##모욕죄
마누라
웃기
돌아와야
##개명
##친절
##폴리
베이직
광경
##윈터
정지윤
-----
윈터
뭉친
##581
기저귀
##망신
무죄
취한다면
1574
공공복리
안광호
##7874
약해
##여전히
고쳐
1972
만져
##빔
집의
레이저
뿔
##7307
##3730
##9326
꺼릴
질린
##6937
##2292
전출
jin
##가동
안락
상어
자선가
굴근
직업훈련
##플레이트
##프레드
비수기
관제
홍석
이윤희
##국경
##레딧
##퍼블
김용희
##엑세스
##약문
##환율
성주군
##향교
지리산
분절
##연료전지
117
박상경
##혐의
##상한
붙인
권순태
##혼합
HTML
##브라우저
든다고
전매
##인기
심해질
들어와야
pkb
##릭스
지탱
정해야
강대국
느껴질
앵거스
맥페이든
작품상
##오자크
오스카상
방청객
유모차
##할까요
##사이클
거칠
##성장주
ERGM
1920
황기
티백
냄비
후추
썰
핫소스
##걱정
##진리
실드
hyojin
극성
선양
##중이
##강수
##반중
야욕
지능화
공구
리메이크
지날
다져야
개선책
##아나운서
스톤
##게이트
##강훈
김춘수
씻겨나갔
이목구비
##마이키
##DID
##출입국
안내판
##집안
스트립
태구
수감자
외벽
##구급대
##sjboo
북면
제트
좌초
취약점
회상
래시
김효중
##유명
##미담
##167
효고현
##로브스
호건
##인천시
비집
##unboxing
##울
안고
##혜
알아주
맞먹
해상풍력발전
##난방
막차
##488
멈춰
달갑
일간스포츠
##시비
명주
대피
##뜨거운
우후죽순
들어내
배석
갈무리
이케아
##빌라
영화배우
해인
##대중
태안
##춘의
와이
이상호
##일기
착취
Summit
환호
백승철
bsc
안드로이드
##릴레이
호기심
고마운
드로잉
평창강
##명품
##마력
##AFPBBNews
##이베이
##닥
##개별
##카멀
쇄신
##지훈련
출루율
##강한
##신익
##위너
MFS
박정인
유연근
##무제
##tvreport
몸무게
꼬박꼬박
playing
들썩이
이영선
하승범
##보스톡
인사이동
부임지
조은호
김용찬
존속
꼬리표
##단절
코네티컷주
1120
##juju
##6119
줄자
##마이너스
코퍼레이션
EPR
##프로퍼
완구
##외직
예탁
##잉글랜드
충칭
외인
##강달
NGT
##지현
##Air
##MOKA
MOKA
서북
줍니다
탐방객
북한산
김예랑
yesrang
##반성면
##通
##간부
##자활
##골라
##커튼콜
됐었
##home
##연설회
㈔
코스모스
##저하
##회인
동반자
##현대건설
박석호
상비
엔트리
##영전
연패
고후
개관식
##임차인
##장주
##223
##org
김영상
CAPEX
##478
##최일권
##3651
피우
7053
오인
영천시
향교
coronavirus
홍지민
우회
##조도
##진돗개
##Bea
##오슬로
##유래
##스템
nicksy
##우고
woon
##걸이형
CBRE
Experience
후임자
##핵융합
핵융합
행렬
##브로드밴드
미학
##통가
스승
인버네스
대니엘
##민학수
##폭스
##각일
##완료
##공설
##소프트웨어
가공품
상판
스크래치
##송호수
마이너
좌전
초소
##될수록
##종소리
곳간
빼돌린
골프닷컴
오진영
피해액
독단
##소위원회
##정의당
##MTV
노무
경미
용사
##풍
은수미
개원식
이민선
느껴진다
생긴다
생겨나
드렸
김호진
원상
##대학생
한윤식
셈법
내포
총파업
모름
모셔서
플레이스
영천
##참석자
생력화
비고
철원군
만조
소극장
송은일
반열
##알파벳
창작자
291
조성민
##상단
##590
My
##SEC
##뱅
하남시
ZOOM
##일선
글쎄요
##장님
산물
경험담
옥죄
##글의
임형섭
sophie
##ASEAN
글로불린
##작정
뚫리
우럭
179
##무중
박람
##골든
청바지
##용안
##길음동
BBS
RFPCB
##냉
박홍구
홍헌표
"‘
되새기
##저출산
##조가
괴산군
환경영향평가
##2030
상주시
##문장대
재추진
##진보
니콜라
노련
##%(-
##4300
777
활보
레서
새끼
별장
##관건
##분수령
강창일
##입감
도어
순증가
소니
스팀
MS
##8300
##대증
##후군
흔하
##자극
##이스타항공
##하이포
김미화
한국갤럽
##성어
합니까
SPAC
황윤주
김현동
레코드
##독도
울릉도
##탐
##켐
##권익
하키
##서부터
##NZZ
김유성
돌이켰
이경아
생겨났
##정부세종청사
##면담
껍질
clap
모션
산행
지앤
CFO
##%↓,
##이기대
##코스트
정류장
서병기
파천면
##기리
##대총
##클레어
NOW
##트렌드
카페인
끌어올리기
측도
이동권
##약세
타이틀전
EMS
크라
Content
Hub
Co
Ltd
##볼까
중초
당간지주
##정보국
##우버
수료식
전나무
독채
방아다리
체납
잡화
보따리
마츠이
달걀
성서
자본금
주영
GMP
트랜스
몰린다는
PHE
강우형
자폐
김철
UMC
운동장
담세력
##진솔
##271980
고창읍
솔바람
댓잎
FTSE
임소연
화보
섹터
3458
백인철
chaos
현대사
흠집
현대인
##백범
메콩강
역병
##샴푸
##먼지
TSG
정해성
장제원
다독이
##효중
최서영
##숙의
##츠와
실기
##영봉
##석무
감독관
강훈상
김지수
##》(
클린턴
##선선
##70795050
##삼중
##협주곡
##베토벤
라벨
1919
자동차극장
##가방
골절
베를린시
##미친
볼프강
##티어
마금산
##선량
##차트
드럼
##인조
##향자
김대호
##파라다이스
선지급
##지방청
##포서
##도주
레오나르도
심의회
##예외
##Ending
##Anywhere
##삼지창
김원효
##대형선
##심의회
##취도
출제
1880
##연세대
영원
사선
포켓
##878
##정환기
김성중
중력
##문학상
도스토옙스키
퍼팅
##응시
##허재구
교통카드
눈여겨보
##도수
디아지오
롯데칠성음료
스카치
##스펙
##본회의
데얀
양희동
번번이
빵이
##어서요
코보
##고을
별미
##관원
##집합
##유상대
기지개
##련관
##146
##버티
##보영
##복원
포클레인
공법
##코너
눈부신
##행단
##외사
한종진
##죽음
칠드런
##김종성
##134114
##연재
틀린
부킹
##酒
레트로
배지은
##외교단
##헬렌
##아카드
VSG
전혜영
##텐츠
슬라이드
역전승
제왕
##절개
조지영
◇“
이건희
##중진
529
신우
부가티
크래프트
콰라
방서
한국지역난방공사
한난
됩니까
오라클
부여군
##남불
자활
NIST
홉스
전원주택
##–
##사진관
##박정한
##binu
##da
덱사메타손
던롭
서지윤
도넛
그리운
박장식
‘(
##으
커피콩
시킨
쌀국수
##간식
둔갑
조개
##트로트
##거야
끌어당긴다
##...
신동원
asadal
유명무실
##차나
이겼
##상호
연예계
잘생긴
질리
열일
##니트로소
##디메틸아민
##NDMA
하버
온난
박채
크론
##스타스
##키호
미들
취해왔
쉽사리
악조건
##5474
1210
권혜진
바뀝니다
이대
##출원
이승주
##견도
찼
슬롯머신
##납입
##금만
최지영
보금자리
##김진솔
jinsol
##0825
인더스
야채
한인
##솔직히
외려
##전교조
정해진다
##보고대회
미생물
##비료
##USIDFC
포크
김수빈
남동부
##남서부
선벨트
걸린다면
안타까워
유원정
ywj
알록
샤르마
##신도
새해
##리안
오라
김득신
주북
신윤철
##godgija
1293
김상곤
진에어
##김서현
##이채
##허수정
UCC
##수산업
##시창
##손미정
##신스
balme
이영섭
가업
승계
찜
개업
구인모
애매
살려냈
##립스
절찬
정순균
##즐거운
##골든아워
이국종
벗어던진
분수
메들리
##정은경
피했
윤우열
cloudancer
##jojae
석상
조인트
##JV
##간염
##주사제
일차
기전
분비
사이토카인
인터페론
##러시
방사선
옴
리버스
##럴이
##392
카와이
마커스
##basketkorea
미확보
떠넘기
##공직
##Biz
세브
중년
han
장지훈
##Kodak
Pharmaceuticals
664
##감은
##해집니다
미기
##재자
##stadium
##신곡
##'·
##640
##랲이
리베이트
##댄싱
진입로
##목요
##장터
백은
486
모친
##융지
호치민
mton
##낯선
##NK
##허의
공권력
들여다본다
여겨진다
유랑
##송미영
이재연
##신공
실마리
##의성
##최일영
mc
##747
##학업
##079160
##508
##601
##521
##duyong
간간이
TK
##이만희
9818
##3446
1316
877
##윤민
##우철
강주리
##식료품
시초가
건실
##Virtual
##증거금
##가진
리옹
wman
셀틱스
에세이
##감수
##저자
숱하
##양극
##화합물
##아르헨티나
강수량
##제하
연구비
헤매
##대범
##클릭
##제관
##관도
서핑
##연예인
735
혼선
여러모로
타이트
밀어
##넣
엄연히
##만남
##트라이
##솔리
sykim
오른다는
##923
##매니지먼트
가우드
최단
쏘렌토
##8941
##FCA
6181
##2968
##5824
6089
7750
쏘울
2437
4490
##7019
##퍼스
감도
김시균
선전전
##팻말
피로도
760
mhm
빼닮
##아기
##314
##조례
4715
척박
나바호족
애리조나주
당뇨
머물러야
들불
##bee
##모디
1976
청양
누룽지
착안
얼큰
##메이드
치즈
##지선정
510
사라져서
가를
##355
##리제
릴리
따른다는
##채택
##국제회계기준
newsnews
유니
특별상
##스위트
##akfdl
1199
##1196
강보합
차액
스와프
##UCLG
253
##pandemic
따른다면
##2438
MB
##조경
주류업
##뭉치
휘둘러
##명백히
##분담금
별의별
대포
수탈
가련
똑똑히
서애
##류성룡
##7600
##4400
##한숨
521
##8700
##롭스
불러야
망가지
취득자
##진성
편당
요지
##BD
##약간
랠
브레그
분원
##본머스
##EXPO
##약정
##대입
##8323
##명이
오태인
##otaein
경련
##다저스
밀린
##화이트
애리조나
깁슨
브래들리
##카이
##팔레파
담장
##CH
탬
폭투
##타석
##타선
맷
##칙
##217
##190
보스
게레로
##267
##235
패전
빠뜨렸
샬
##통산
슈어저
곤살레스
밀스
리드오프
##부상
피안
##타율
장타
##526
##131
홀랜드
##ops
##412
완전체
##462
카브레라
미시
포수
어떡
뜬공
서발
##222
##444
산타나
앤더슨
##포로
비버
발데스
벨린
##706
217
##개막
러프
##368
끌어내렸
플레처
##956
660
로이
##438
##421
야드
서브
의리
기복
일구
노려보
내미
##당대
##이재철
뒷전
밀릴
##한도
##래미
##타스
##급증
##9700
##7712
##6855
##MALDI
##TOF
##Exactive
##TRAP
##Circular
Dichroism
##서유근
korea
풍토
##372
영일
월포
관성
##872
##262
데로
##부담감
흙
##물관
문호
또래
당당히
맞설
아르
##헨
##티아
##효력
##건축물
##유지관리
##방론
동떨어져
맙
펼쳐집니다
##stone
자화자찬
##엄의
타국
떠올렸
만지작거리
노점상
아낌없
협소
##은가
지근거리
##오브라이언
노림수
모리스빌
자연사
박물
공들여
정유나
jyn
##실까요
9368
2064
1570
화동
##초빙
소용
##삼성전기
##8122
##결사
입북
jayful
cmwoo
##010060
##이재은
jaeeunlee
능사
하모니
임시방편
셀카
권진영
##칭해
6300
##공학부
얽혀
##몽
원자력
수명
귀감
황폐
최은영
##곽승
노고
허울
##증권사
##㈜(
한뜻
모멘트
##지은
읽힙니다
##낙동강
##실무자
마닐라
선회
##명목
관해선
##letsrunfilm
##천도
##cheon
##생태관광
태화
느껴졌
##워낙
박수만
올드
##캐시
역발상
##한식
장보기
##지질
##분원
겹칠
아리아
란달
##유디
opal
항시
괴롭힌다고
들인다
전종헌
주목도
##atoz
면허
수긍
파충류
델라웨어
배스
##셤
##신방
##IOC
##단공
대경
##TSR
##전진단
787
곤두박질쳤
클수록
김익환
lovepen
감췄
검역법
doremi
한다면서
김선
##..(
부대끼
##살아온
pjk
214
##신풍
##경고
##딱지
대어
아스트
##계열
231
##비스트
639
아르테타
미스틱
짜증
심박수
경보음
##불량
##섬유
설사
혈류
중요도
심리학자
##증과
##RNC
RNC
쿠퍼
##방송인
##고전
##질지
되돌아간
2256
김유림
cocory
##0989
먼로
##오름
##오두막
상명
네바다
김명상
##terry
3228
##됐으니
등기
##634
안지
##양지
##커머셜
##소요
##시책
김동환
문성대
맞섰
무력감
김정일
뉘앙스
##지푸라기
짐승
##템플스테이
설악산
신흥사
월정사
박창호
navicbs
##계측
김구철
자임
##세우
힘주
##보건복지부
##jeke
놀이공원
터트리
매표소
몰려가
청자
장식품
과도기
불릴
판다
583
##사후
걸러
유자
헷지
BEI
##LBMA
516
내려온
가파
##바예
바예
##묘지
묘지
##서귀포시
불러오
관련자
압승
베니
##林
##鄭
##月
##娥
해산
##독립
##大
##체지
민수
경제력
##중처
##피연
##리서
총비용
지르기
##김유미
##ym
이인준
금광업
##KODEX
골드선
골드뱅킹
##순익
1725
##캐피
##출석
##LMS
##교학
##임호범
lhb
##과도
##미루
##박윤진
yjpark
김지현
나았
타스
어쩌
교무실
광운대
제물포
hwang
##권욱
##연쇄
갈아타
조쉬
그리핀
##틱톡
월트
##디즈니
정순식
앞면
##기견
실생활
텀블러
##2494
##조은
goodnim
최영규
정회근
andrew
비스
학교장
정재민
##루이
톨
엄단
rollings
##비트코인
##훈장
늦춰서
##후광
##395
당대
남다르
##승자
지켜온
슬램
드높이
##내셔널
##디즈
backlight
겸한
##장편
##CGV
##다오
닭도리탕
양해각서
9428
1032
포구
##정해진
##DW
달라붙
DW
브라이슨
##섐보
##헐크
숏
근교
##7277
주드
원심분리기
이상범
boomsang
라말라
댓
공공연
이종수
##jslee
대파
김준
프레시안
육포
기니
눈살
1004
엄밀히
무의미
##833
뉴트럴
봇물
구찌
와이어
1020
그림자
##대리점
☞
끓여
심근
잠자
얘깁니다
명문화
동떨어진
김대진
##박주민
번복
##고통
갈렸
##월가
##혈세
노동부
##특고
이호연
hostory
##블랑
워윅
호그
##약사
##9359
blaams
##월북자
강화읍
옷가지
##김경훈
styxx
폭스바겐
##테슬라
##kotaeng
척결
##은데도
의석수
가져갔
향해서
역세권
모기지
ELTV
정우용
newsok
sue
##도시락
결핍
##도우미
원했
참지
사명감
꾸며진
##조명
스무디
##협조
쯔양
김대성
##kimds
결합력
##2966
##2814
##2331
면허증
##수목
##로드리게스
터닝
##651
##어야죠
##바닥
번은
이리
꼬박
닥쳤
김세훈
어려운데
##nosmoke
APF
뱃속
앞이
기억나
추궁
yooks
늘어놓
허택
thheo
##누
영항
영세성
나로호
##두원
항우
##산업체
##ISS
록히드
##마틴
보이저
빼앗겼
로슈
예시
##금요일
##금식
MMF
##CD
##RP
뉴요커
NBC
먹이
흘려
들어차
치우
##꿈틀꿈틀
##어학
손녀
이봉창
##문화상
베어링
↓
우량주
##World
SMIC
##정완
이경수
##준다면
김운호
김재형
##jhkim
##경신
serendipity
트일
##끌어갈
##937
그제야
##이틀
남겨야
##뉴잉글랜드
폐액
ohdain
브레이크
번져
##은커녕
치부
묘하
##관료
##Socializing
Change
발디스
살펴봄
박주영
jyoung
leejiyoon
##맨체스터
무패
아론
메이슨
##214870
##청산
##만기
메타
##은재
목격담
일회용품
eunjae
##및
디스크
RF
##8500
전유물
손희연
##정실
##대장
##전해
##3191
펼쳐져
골드러시
뭔가요
##구리
##해피니스
이용권
콜라보레이션
##마스터스
관습
난립
실릴
강영연
yykang
알맹이
김병권
라이선스
도둑
빈축
준거
참여연대
영리
대에
##동명
##BOE
##행도
##ECB
어르
##586
병원균
##이경민
sea
고득점
##라던
더워져
차차
입금
windsea
##666
##탄탄
##박지영
##물간
##전작
이창우
기록물
##654
가처분
안준철
jcan
##1231
박문영
조규
##대리인
최재덕
지게차
할수록
ryuj
허민
위시
위용
##선배
##충무김밥
신세계백화점
강세훈
##스코리아
입찰가
딴판
##990
##월경
##린다
눈총
##판짜기
벌인다는
엘지
##000270
##채취
텔레비전
소양
의사소통
정성스레
김광모
김도영
##peace
민혜정
실리콘
말보로
229
991
서해
남도
##bomnal
##형평
배너
벼르
이명선
mslee
멈춘
##트시
키운다
##ITC
##쏙
정찰
##올려
강수
##산은
수은
출자전환
tootsie
##@,
syj
서영준
##베를린
이광빈
lkbin
##모형
iClass
##목과
##강의실
분반
Off
##KI
##pass
관리인
##종도
##단란
##고흥
자구
##326
경문
##안지혜
hokma
뜯어보
배기가스
안지혜
복권
부회
확고히
윤진우
jiinwoo
신장세
곁들이
##mania
대등
무지개
##='
##턴
##욕구
기타리스트
남장현
yoshike
이뤄졌으나
박용만
대한상의
손경식
경총
쿠알라룸푸르
조정안
정상일
장밋빛
박준철
##이재호
jaeho
여주
복선
##폭포
잔도
일방통행
##롱
##디오
홈인
##지우
적잖이
##=ⓒ
##gettyImages
내비친
홍문표
울분
##든가
수모
정진석
장내
홍준표
##출산
아르투로
배시
신중히
나빠진
배임
##신차
켜져
최석환
##IBS
##통신사
시찰
내렸으며
##366
결말
##신파
후속작
##비에
능한
특질
무기력
##주원
고윤상
2494
##8944
매겨
갸우뚱
##똑
푸르메
##든다
가정폭력
##파나
##4343
##수취인
수취인
견인차
박종렬
##인쇄용지
박수찬
##예식
##896
##344
##388
##세액
프로텍트
PROTECT
걸어온
발자취
##나침반
「
##人
출렁이
국공
##560
##성폭력
수료증
##jh
##7253
##socializing
change
##jioh
##촉직
##파격
노선도
한국공항공사
momo
김의
가나
다툴
후끈
괴인
##공수
plaimstone
jjhjip
##Moon
송영
##Cociety
##잠자리
지박
##樂
비브
##라포
##바이브
트럼펫
남정현
##배아
##진단서
휴대전화
부딪혀
##해외여행
##충분히
##삼산
유도훈
순발력
워밍업
소지섭
이지만
교보생명
CPR
허희
##별과
실린다
양소영
암살
skyb
##1842
--
Banno
정장
##20200721
##2859607
##억제력
##전승
##탄도
##체협
단계동
AK
아데노바이러스
벡터
시베리아
##코지
베어
##APT
##환법
조정호
동의대
##6300
이른다고
##터스
##품청
황수연
다가온
구절초
지평선
금고
대강당
##치부
##바리
나카무라
에히메현
##노현
고모
파손
환하
장항
##아베노
##三
업자
이토
5800
##BTS
피처
어울릴
성명서
축이
들어야
##반도
##~~
##드려
이동도
##양접시
##응인
3386
찾아냈
##재양
발맞추
박주평
jupy
##해냈
김두관
특혜
물려받
오른다고
##려야
##부실
싹쓸이
비꼬
조수진
##737
##보람
에비타
##Net
##로미
##의심
박세환
foryou
##미희
나태
귀하
##golfdigest
공덕
##상선
본업
기술인
##슈트
yoo
##민물고기
김성곤
화순군
##k
##인저
언저리
SNE
도요타
##잭
국민대
출력
이재용
흘러나왔
##억울
귀결
쪼그라들
종부
유사점
차현정
363
시게루
황현택
##코웰
1157
슈즈
##당할
쓸지
눈여겨볼
협성
휴지
도외
춤추
##원전
띄운
띄우
환호성
패스
강호
여지없이
인천광역시
##심학
살리하미지치
UCL
거로
##앞서
##496
장래
크나큰
##해공
파라
##목소리
통했
##공정성
서기관
전셋집
갑론을박
thd
##tprl
안철수
조정진
동물농장
##근래
정독
타파
끌어올
새크라멘토
컬리
##스테인
##변이
화끈
양궁
트리플
머리스
##우호국
안다고
##각적
아서
허인회
돈독
##난다
##유나이티
보합세
전효진
##무용단
어쿠스틱
##연희
##그라
뺄
카트
타이완
영해
##로와
줄타기
해군기지
밀어준다는
tkadidch
##Mnet
속인
##석상
##hjkim
##권위주의
김난영
불화
##친척
훌라후프
뒷마당
##산부인과
냉소
##****),
##음악원
바이올리니스트
##순수
##―
일등
서동일
dong
고지혈증
##리피
임원진
김규봉
찬란
업적
캠벨
주산지
이어져서
##동결
##등본
특별회계
##그쪽
남과
개인용
폴리머
686
##2700
3053
##역자
김태오
##↑·
올림피아
##chojuri
##5123
##마이제
gohsyng
박호산
##배의
##일반인
##참신
##열정
밤사이
빗나간
##최적화
익스텐션
김승현
##디비
김창민
이용교
김선호
wink
1410
##GRU
##Inforos
##ru
김경준
ultrakj
##네타
##투라
파랄
##룬체
애시
알탄
##사파
##북스
임프
##리마
##KL
포시
##오즈
레드카
오를지
밀라노
##현록
착시
전관
과당
편안히
승승장구
ham
##KOVO
울프
장신
1961
조준혁
presscho
토양
김진화
##우원식
##861
묻힐
##경상남도
##창인
결식아동
김대훈
daepun
더스티
지핀
무트
##그리고
꾸민다
이경주
kdlrudwn
##라선
파죽지세
##기술자
낸다면
Edge
Chrome
Safari
공정위
넘어왔
우에노
아사미
고타로
야하타
나오키
##쥔
히로세
에반
신진서
##mbn
티모
프랭크
반겼
바보
##Greta
##1133
고로
##투스
황민
stylelomo
동성
비호
##카를
사유리
후지이
히데오
##로바
2680
베이스캠프
##김정한
##Begin
Again
오리엔테이션
##Hana
Power
##태계
##Korea
아웃렛
지휘권
길들이
급히
조국
독립성
운운
개보
##고성
##제향
##판굿
보리타작
물레
흠뻑
##소자
무형
농요
보성군
소재지
##9101
꿈꿀
##킬
군중
##원지
뇌관
##변수
긴요
##김보라
##제거
마세요
##마마
##폭언
##모독
##동료
재량권
##공짜
자카르타
위드
강동완
enterfn
cours
##9975
dose
double
##digit
dollars
submissions
SVC
##confidential
##동력인
흐려
밀려드
티슈
운전석
젖히
박현숙
mioki
##함양
민화
서예
##그리
##두리
진현
##102010
세후
매서운
김영신
첨가제
shiny
원어민
문석
##충과
대림산업
득표
이정윤
종속
유행병
결의안
yul
곽현수
abroad
##쾌적
피톤치드
##산림조합
##타깃
대길
첨병
이태환
최교진
김준식
##권세종
##선대
변상
강동윤
##composerjs
##포린
코레스
만하다
##박소영
정대현
jhyun
##yyy
##부녀회
미숫가루
##공략
##동남아
##물결
##Over
Top
구독료
그대
안장
##전복
##폭발
폐회
##경량
조종자
##십니다
거쳐서
구절
감리회
노예
그렇게
##분도
부디
##일로
무너뜨린
이데올로기
##방주
강대
##좌충우돌
휩쓸리
막다른
##수생
##인정
##소회
##접견실
##단양
##문단
리치
국책은행
박영래
장대비
흙탕물
빼내
산사태
##北
이원준
wonjun
비츠
미술인
모기
##치열
##SPDR
##2639
류연
mostv
우두
레터
경감
##인권법
##zzang
##실기자
연수원
gag
##CM
OTAK
##감한
상급자
연성
##그럼
소피
##주드
##황제
안병훈
강성훈
정찰위성
전환점
김현종
2090
번쩍
##린이
검색창
이어진다는
출생률
bum
6687
##중립
NLL
내두르
##Lagging
2031
##남영
kwonny
##파괴
격폐
##20302
최대호
건축법
##테라스
##노대
김평석
몸살
ad
##eunhye
창설
서정훈
##에탄올
대용량
##약전
보습
과신
순금
##공비
##둘째
##1150
금관
뮤지엄
보물
걷어찼
864
##sylee
그친다
##알바
bank
##연사
막걸리
##지명
극조
##생종
생장
진부
##올벼
벼농사
##미나
염류
##이형빈
##폴로
##라인업
룩
##이터
도가
포워드
##착해
숨결
광폭
##임종석
##보라인
##780
##양태훈
CSOT
액정
##LCD
양태훈
##insight
장정환
##세브르
세이부
소름
아팠
##자공
보얀
다닌
가까워진
누수
햄
##스트링
1128
##유은혜
##이재정
들려줄
빚어진다고
kws
정릉
##후각
동북아
##ㆍ중
연기금
pjhyj
##달비
##박용선
brave
##이대로
쿠리
##215
278
서일
일동
멤버십
##잡힌
국의
394
친목
##137
##범식
##SW
##주력
##동의서
청구서
##가림막
갭
수령자
구와
##광진구
회복력
##조건부
##4877
8908
##지소
##931
뒤집혔
##현우
inhyw
술잔
수치심
고위직
수성구
대흥동
##개정안
다뤄진
##이혜진
스타킹
##논
##연천
##승선
코르다
톰프슨
신지은
건너가
스코티시
넘어와
김현지
##hyeonji
Kris
daidaloz
##스티지
활성탄
##정화
정복철
##약서
pmkeul
##↓[
스탠더
##글자
##HEALS
##8200
##成都
평균치
##에어컨
##000150
XCMG
원매자
광복절
제창
실천력
백배
흡사
범민
##인민
##전인대
##최저
이선호
온산
##1939
삼기
##↔
##후방
##럴
야후
##럴은
서호
syb
##2233
##축협
##영세
##건가요
교향악축제
김정원
앙코르
##지휘자
근심
가림
변명
이성훈
##적성
CG
##원훈
경직
고착
이성희
##매운
껄끄러운
안일한
##불가리아
세자
##리수
##건대
파드
공과
막힘
언변
이해식
ODF
##판매가
##확정
##건조기
dychoi
##앞줄
구가
게이트볼
##세비야
이발사
반달
크리에이티브
##네드
원광
항말라리아제
##대법
##취임
씌우
##수변
##자이언트
스미스
녹록
##편이
콩작
농정
##수매
융자금
##반입
##촌공
정해져야
시험대
camila
강규
##총인구
통경
새로워진
정진수
brjeans
치켜
##세워
##요양원
##용소
##방대
방범대
천사
##가꾸
##2956
내림세
##시청자
알아봅니다
보안경
##seon
##salt
김병욱
NASH
사주
임은지
먼데
박소은
티브이
뛰어올랐
거들
곁들였
##소득세법
##법인세법
##드려야
##끌기
##원내
분출
세워진
##박래
기념사
첨예
##명백
물려줄
즉흥
##라면서요
정자
헤이
공급원
##문화유산
##봉황대
##부사
서원
##3650
##thesportstimes
세심히
##5400
##쵸
대학로
##033
데포르티보
수아레스
프랑
##복량
정회원
##009150
##mmWave
##변조
지바현
##이호길
김상훈
award
##카스
출근길
##한의사
##INTIpharm
##3500
은의
##압력
이현수
김형동
김현호
박진경
##고착
##연화
상승기
##해약
##오토리
손절매
##지급금
윤빛가람
오세훈
교통정리
lastuncle
정촌면
##실험실
익혀
##윤주
석탑
구룡
##김도우
##익산
964425
김도우
응한
##저소득
단열
냉난방
뜨거워진
검침
##막히
현기증
1259
##975
travel
##함소원
##중년
연료전지
sook
##6200
홍시
복고
_______
##분배
제수
박채영
##국무회의
최고액
##신면
##역연
##욕심
허니
행운
빈다
김문기
##리코
##4420
박준호
junho
##％,
이순신
##성권
##184
##로워졌
세끼
##근거리
##EPA
##미생물
##관용
지바
##河
##太
방위성
##吉
##洋
##川
배수
안목
##훈련원
##패럴림픽
거친다
##혜림
살펴본
##열악
닳
김수진
선거관리위원회
피터스
공교육
세르비아
티격태격
##관내
부정맥
가토
박종필
전심전력
티몬
해양경찰
현행범
##기동
잠복
##착
자재
견학
계류
세종대로
치루
장정
##쪽마늘
외로운
##•
nkphoto
단아
라이머
##매시
##무거운
사무관리
김근
##부원장
최성일
##도인
김동회
부원
##장보
##시신
모텔
강원중
차리
##전과
##last
resort
##부적격
##cho
제이
깊어진다
##노출
브뤼셀
##파이낸스
리츠
##관심
나이스
##렸
##외일
이두원
##해간다
내구
착화
패커
메디컬
따가운
노화
##황토
대당
므누신
##환영
##제임스
프라이머리
##광양
차민
기울
Port
##달성
##카이로
##데버
신지원
스틸
일촉즉발
갈리
돌이켜
캐피털
계약직
546
레이몬도
##성비
오원석
불운
발자국
마땅히
돌려보낸
횡포
뱉
내원
레지스터
##108
##大連
dragong
기뻐
허리띠
타개
##양주
열전
kjs
jhkuk
운정
이홍우
뿔뿔이
대승
바삐
##배문숙
oskymoon
##민영
인력거
##반면
##풀이
##선택
##펙
뒷짐
##정면
731
베른
보합
##297
##벤터스
dkim
불복
##실증
문신
##천재
앨런
머피
임실군
무인경
자비스
부가
##8162
박윤호
yuno
꺾인
엄철
분했
야무지
울려
떠다니
클레이튼
뷸러
이우성
gaonnuri
##기실
김정수
루이비통
박완주
##특례시
비음산
##보험자
진선미
무계
##삼계
보상비
초정
##화명
701
민홍철
김정호
내신
##김동현
한다든지
등촌동
##758
##계획안
평가전
투르크메니스탄
스리랑카
친선
김기훈
kihun
김대희
액화천연가스
hyun
##편익
BC
피지
jepoo
##999
##BOT
정성원
Build
bsk
권병석
박서준
데뷔작
홍완표
##이슬러
이응광
빠진다
비누
##)’
산간
##오지
국제축구연맹
##FIFA
상암
epi
224
##더비
거취
투기지역
Learning
자만
방책
모터스
김정환
hwani
##모금함
##생계비
제수스
##대국인
##교통망
깡통
##깡통
모녀
가자미
오시
약재
##침
자부
늘어선
구워
끓
멈춰선
너희
효도
분란
최재형
열립니다
스낵
적중
##리라는
사재기
##성화
##민기
##여상
##데뷔
breeze
##서경원
gil
울진군
어우러지
응시자
시험장
검정
대전환기
##복종
뗀다
##릴리프
##직구
##330
서혜
##정의연
정의연
##겨레
수요시위
##회견장
위너
중계방송
총판
주도면밀
##Yitu
인텔리전트
##1944
고속화
재월
##권기범
##서약서
##업주
polestar
유적지
녹두
김명곤
차유경
##SAC
Screen
실황
##민형배
Team
342
분할
위자료
8600
지갑
별거
창안
임병선
bsnim
##空室
지나갔
빛난
##웹캠
##외대
교안
깃든
바라볼
##김우영
멀린다
##클로징
김동근
정성진
오정현
##자립
흑사병
거룩
##수호
붙들
망하
##수훈
당론
##혼의
주일
된다며
##냉전
언행
##ㆍ태평양
Eyes
ascho
##방송국
##뭔가
jang
##학도
화순
##인명
cla
류상현
박석희
##비트
##후기
##자제
반출
들여와
##뷔
##나고야
고원
##이슬
접속자
전용관
이찬일
##사절단
체코
유가상승
##급하
10000
##크로키
지혈제
야스베레니
슬로바키아
##한두
jumin
알버트
송윤경
kyung
##▲
한상혁
유심
반론
##chaos
##상실
미쳐
##IVI
##유명희
jesus
##7864
##선민
들여다볼
조감도
한상춘
##논설위원
##Before
##트리핀
##CORONA
##대박
디스토피아
NK
##놨기
정동훈
##방콕
MOM
##아시아인
672
줄기
##나사
##박서연
김용식
최명국
##140722
##이명박
사변
이원창
lewoc
김다혜
소실
##020560
회유
1197
GLD
금광
hankyung
윈도우
##만부
##맵
스마일게이트
경청
만찬
피한
##full
222
kdg
장민영
제트기
우주선
##744
장휘국
##합창
유동균
서강
promotion
##지나친
##전영도
##한철수
삼미
동원개발
태웅
경동
##지덕체
##전기금
건전화
띄울
University
##소증
증강
올지
##밀크
여기저기
##체리
왕성
액면가
##행량
티엔티
청계광장
##헌법
##봬
특전
반지
##말의
##단말기
도난
##위치
진천군
진천
##저번
출전자
##브랜즈
##렛
부추긴다는
##유진우
ojo
구길
열창
##코자
##한국인
##챔피언
##남아프리카
김도헌
dohoney
##무증
소호
##지노
##다습
##젓
질마
성결
꽁꽁
##업진
SPP
지오반니
3660
플로라
##사회장
##2050
호감
이필
와인
##마라
##라이드
##티어리
경작
관리법
강우
웰링턴
개도국
증명사진
##SM
ehcho
##김인철
재수
##세인트루이스
미콜라
##중진국
류허
중어
인천대
letzwin
##배급사
우진
##문화공간
연극인
##이용섭
재청
힘듭니다
현주소
자회
돌린
##해할
##동궁
##소주방
담그
선비
##所
몸소
정덕
##당일
초단
299
4050
##마진도
2406
2711
철쭉
노란
그루
가져볼
##↓)
##1529
정유정
도체
7100
두자
내립니다
하네다
##田
타액
울상
냉해
장영
##어려움
보너스
ksy
##70111
이어집니다
##Equality
Breathe
Many
More
##홍성
유효상
이모작
##가뭄
수확량
##생육
##1975
통일벼
##''
이성열
꽃잎
##기술력
웨이퍼
ArF
##국무
퇴색
##무화
박병대
##아쉬운
##통일
가져와
##604
##평과
##이민자
메달
##부착
9785
문화제
방문일
##사자
##147
##검정
정은
상파울루
북동쪽
미사
##주교
##CNBB
대성
1717
##㎝·
1745
세워졌
증축
서거
바오로
베네딕토
프란치스코
초특급
##김성훈
paq
사체
##장현일
hichang
##박시
##하가
##1750
윤효용
##나스
수탁
##관행
탁주
약청
증류주
과실주
거북
##흰
은빛
군무
회색
흰
일으켜서
하얗
종의
수달
##최승원
어학
영단
LC
RC
##검사소
대졸
##시즌스
##의도
토이
몰라라
끼워
쐐기
악단
투병
이름값
몰려왔
##젝시
이만흥
##애초
##그림
분수대
##2579
1606
빨랫비누
비품
##밝혔
동종
1027
게이밍
##939
##승일
##일취월장
홍제천
고산
일러
강원형
시티즌
프로토콜
##Big
천연기념물
들러리
##ANNE
기념관
KGC
##인삼
성지현
서승
강민혁
김홍국
##포함
서재형
황호준
##960
김삼호
달성군
임종률
airjr
그름
퇴근길
##흥
kjhnpce
##예스
늘이
cheon
이른다는
주택가
##포크
버프
할애
이원희
##익스프레스
##4354
##3054
학령
##TWh
##저탄소
전력량
박지영
베르베르
생의
환생
날조
포퓰리즘
근래
퇴행
육체
빅뱅
던진다
##발주
문책
##호동
물놀이장
##출장소
SCM
##LS
관계사
아토피
##막대
연수구
한숭희
반반
이슬기
쉰
##hACE
충무로
##普
김재준
1979
vj
##3770
클루버
##사스
女
그레천
##국기연
kuk
917
MMDA
가시성
반짝이
금산
인상파
브론즈
양민
가려내
뎁
컨트롤러
확대회의
브레인스토밍
보유국
끈질기
876
시끄러웠
아랑곳없이
고유법
2363
피운
풀리지
바라지
한방약
##지압
##침대
두피
약용식물
백동현
362
메꾸
##찬가
##JAL
AZD
하이닉스
키운
김유민
planet
##한테서
학자금
납세
걷힌다
##넓
거스르
##무학과
##279
##예제
##050
거침
##해안
##단투
환경미화원
발생량
심진화
##조계종
사찰
RESU
Gen
##197
jamin
추론
모비
VPU
##자주
##액티비티
##조립
jung
##기울어진
jdm
박미희
가을철
zoo
##690
구용
정석
정밀도
들였
오렌지색
##구치소
권우성
##기자단
##규범
##도둑
지름길
##박현영
無
##빼
산뜻
◇"
##㎖
제격
청포도
원물
썬키스트
##첨가물
##썬키스트
교육자
학군
##Packaging
##절도
공범
경부
금오산
올레길
금오
맥문동
샤워
만개
##슬램
홍보전
fivestar
손현규
##%↑"
740
SE
##이슬기
wisdom
##박근혜
##293
##897
##천석
##최고가
밀어부치
##탈죄
##줄어든
시발점
꺼낼
폭거
박영국
##pyk
자갈
이상돈
최지윤
947
유업
유제품
VOV
##vn
늘린다는
중장
##월남
##배정식
##이영원
럭비
##클라이밍
부드럽
메이트
에이엠
벌어져
남길
오메기
##향초
동백기름
##Locance
##Vacance
부녀회
##하효
고장
마차
##영업소
씨름
##해남
##첩
844
297
장례식장
드나드
##시간대
김채은
왠지
인종주의
##나갔
##다니
##느냐고
닉슨
공동대책위원회
646
용인시
LCC
올라설
피시방
##손질
침체기
##억제
환수
연작
황남희
##hwang
##namhee
##press
##고로
유연석
분단
운영비
러블리
승산
사무관
##장연주
yeonjoo
예식장
##투약
가을꽃
뒷걸음질
##싸인
이정혁
jjangga
손꼽혔
예찬
시공간
조현주
##jhjdhe
##워너
##백인
자메이카
##마냉
소방관
소유물
강력범
키홀더
##science
##공주
크리스털
##캐런
유공자
##인에
표창장
후쿠오카현
부하
휴폐
##ｔ
##정수
정종
##술대
##니엘
##fifty
fifty
##입니다만
##설과
##HK
꾸린
josh
들여놓
여겨질
들여온
참전국
##만인
kjh
##정규직
##존중
널찍
##高
##헬
Gmate
##검체
##첨
##이자
캐주얼웨어
저개발국
##이윤
##가급적
혜화동
Christiansen
##로보
왔다갔다
지저분
어지럽
##최진만
건너편
##쪽방
##야지
출회
##EM
오유진
김채영
##특산품
##호찌민
##그래프
##Ofcom
편성표
##플레이어
##iPlayer
##피난처
리키
##레토
마취
대원의
##1946
##2617
##이연희
김진경
##여질
kakim
김경아
##용준
가치관
##교구
scrapper
##노무현
##섭취
##인보
##way
김성완
읽히
부여잡
1840
BET
NIAID
프론트
만프레드
악몽
##깅효과란
전년도
떨어트리
변주
갇힌
##필리
##입문
언사
軍
맞대응
면책특권
축인
##해왔으며
##손잡
##장학진
불미
##강경화
##면은
##명은
지칭
고화질
에브리
꾸미
밝기
매듭짓
##순환도로
양일
오스카
##화장실
일어났으며
##작심
##추인
##공중보건의사
이영현
not
##시아
##쿼크
차나
##된다면서
bscity
전북은행
##땅
비로
박병호
김혜성
방수포
홋스퍼
따내
##수비수
##환경운동연합
hsk
##곧
TOP
늦춰졌
##City
달랜다
emailid
##행시
임재윤
##jyfly
-’
훨훨
가동이
##ESG
속앓이
##drive
다수당
##허
화석
지닌다
호미
벅찬
지류
메타세쿼이아
쭉쭉
##댁
합천군
##다리
건널
정빛나
정신과
품위
##불쾌
입혔
##151
생활관
재고량
폰스
##대표자
경종
해낼
1977
개포동
##결재
결재
##株
코앞
1039
ASP
박기범
##구독
웬
굿모닝
##’[
##연상호
웰메이드
##기묘
제이슨
잡아먹
명제
##히스토리
복날
닭죽
건져
끓이
고추
##가루
##마늘
무방
손색없
김영동
김지은
##교보문고
양육
수의과
국립대
purin
화학제품
특산
dorothy
##수기
침방울
##오찬
##대오
정창
418
KERI
원앤원
##taktak
GD
덕포
zzang
데스크톱
고흥
전파력
어준선
박찬주
##군대장
832
##배상액
##페나
##소도
##546
Diagnostics
##gov
##covid
##emergency
##and
##html
유회
금식
##지배
늘어날수록
홍현기
폭동
##아메리칸
개진
258
어려워서
##반기
##중공
세이지
##미쓰
침몰
김종국
씨엔블루
레그
태극기
3065
##%"
성비
##라우버
##207
즐겨라
##손잡이
뽑히
##방류
입상자
사생
장롱
잡이
봉화읍
내성천
방류
엄태항
##내성천
##시행착오
끝단
##청람
##영광
영광군
다자간
##Startup
2648
로보
교토부
366
호혜
류선우
##개발비
김한정
적다
자물쇠
성질
트리엔날레
##포상
김인호
as
##령상
##에디터
TMI
편집자
풍속
698
##소년
##순천시
1910
총무과
##꼼수
##Intel
##축적
##퍼블릭
##반복
통신망
##라고요
##냐고요
이태훈
원본
도덕
1549
엔고
더블유
네모
##장경일
##인턴
고한
댁
##그라운드
##섣불리
유실
토사
##응급
귀중
붕어빵
##상보
##마른
##프린팅
마신
남악
##의무
비상시국
이현석
몸담
##해리포터
아스톤
##북점
##성정
Lounge
##헤
##밸브
##스무
우아
박일준
##mjjoo
차아염소산
golf
웃긴
김채현
chkim
트인
##지기
##억눌린
걸까
금일
맛의
예술제
##KAIT
enter
펴냄
유생
숱한
사회상
##넘
##Better
##폴드
퀄컴
스냅드래곤
칩셋
오일
웅장
##㎞,
남산
739
트렌디
차체
트렁크
나오미
##WTA
##ATP
라쿠텐
타슈켄트
OEC
##happy
기현상
##폴리에스터
포르쉐
##액션물
##용사
대한탁구협회
##탁구
야유
타이거즈
##백도
##볼까요
로튼
일병
실화
ILO
앙리
엿보
판매원
이해정
gpai
##하남시
회룡
##김병진
kbj
##7653
인수인계
블라디
새로이
이승우
##고충
이성기
이영희
##체력
왕길
한식당
##SummerliciousKorea
애호박
불고기
비빔국수
보리밥
비빔
메밀국수
쇠비름
물김치
밀면
베이컨
김치볶음밥
오색
##필통
ghwang
동률
계측
danoh
과대
##제원
세이
전곡
사뭇
##덴마크
##웨일스
체구
모았으나
포이
리판
##코스피
조현아
레이나
ju
TBN
##정경두
##스크랩
경영비
유경
##water
Yks
준공식
의령군
집요
메조
포르테
##건축사
박찬형
kt
mksports
##꽃밭
유채
장판
창호
김상우
박연선
비의
하상
##아껴
김진주
pearlkim
##Meet
##국제교류재단
##DAV
발렌티나
##KGC
##삼공사
##레타
헬렌
배구단
장교
병무청
최윤
yyynnn
Oprah
Conversation
##인종주의
원작자
##추석
##페테르
유람선
##9923
##4534
윤정환
송귀근
가족탕
앞선다
##고체
2276
2277
비차익
달궜
강신봉
호봉
##급분
고용보
수련
##주파수
이태영
휘두른다는
잠겼
하룻밤
충절
##황극
밥상머리
매료
London
Beefeaters
경비병
Tower
have
Palace
its
윌리엄
맥도널드
JVM
박종욱
##parkgija
달인
레이디
##스위니
##토드
하부
9133
##캐주얼
##임업
2032
##341
##303
##234
##224
##촌사
KQ
등산객
##장윤서
panda
##보호자
단소
문손잡이
접착
김희정
텅텅
홍대연
올드팬
##송기영
rckye
SPC
445
신용판매
##팔꿈치
##수출입
##촉각
눈시울
##분단
##주전
앞질렀
##도리탕
##덮밥
통신업
##목가구
최주홍
이어짐
아름다움
솜씨
그리스머
##CFO
벌어들일
##참가자
묘수
##댓
원청
padet
박신영
##MRI
##디스패치
##그저
ERA
가예
##탐방
##680
예우
동갑
##물티슈
적산
꾸며져
##무주
2129
덮치
한탄
가져다가
정용운
sadzoo
화구
세탁기
##힘
president
의왕
바라산
##펄스
불허
뭘까
통용
조선인
빌리지
##정선아리랑
범일
##로이터
다세
상업시설
##진술
##송심
성매매
##찬란
민경원
storymin
##직장인
간호협회
##자소
잿더미
상대국
푸에르토리코
무공
##전참
RTHK
##중회
##개헌
will
박슬기
338
##쿠지
볼링장
비발디
##펠리체
##캄
물놀
라운
온다면
지역상
보였으며
지퍼
##임계
##합치
##문재
한성대
EI
##인사이드
동호회
창작가
##리어
권문
즐거웠
##그게
자살
##예정자
임마누엘
##응법
##언문
##무림
한도액
독촉장
김여정
막후
비밀리에
의미심장
얽힌
표집
##걸기
##보정
##몰의
##데온
sharon
양정우
eddie
icarus
##권식
전미경
꾸러기
보살피
힘드
##만도
이달초
8700
점찍
金
##2006
##가위
영월군
총회의
miru
##0424
##철원
서훈
##유관
##구미이
문법
숨져
막혔
불우
신춘문예
1612
들인
어드벤처
나타냈으나
##입출금
병무
##간작
##구름
##NPL
문수
꾸몄
망막
혈관
##승과
##LP
수용성
이효정
동지
##세단
신병
조한범
통일연구원
##BoA
##모간
피해갈
순감
##하남
하남
##노년층
이영경
모아서
##소독기
불개미
층고
불로
은이
##어진
우대금리
움직여야
아니야
우습
##이필모
계획서
이담호
울지
물러설
산악
김영은
##eun
권구
두류동
달구벌
##흥초
경운
학세
조망권
통창
##방창
##ripbird
##불능
##익위
동편
##상양
심민철
##시회
싱크대
줄임
1581
##무티
상무위원
전인대
##수스
날치기
##진원
9230
##1977
""
##장군
general
##교방
주파수
##MHz
##독거
이동제
##교환
노근
##RFPCB
##측면
SiP
##룸바
##패스트
움켜쥐
##부동
쏠릴
막아주
앞쪽
##조영훈
목록
아크
##추위
순회공연
##031
금번
##온실가스
##과학자
세기
##파산
밀샙
포터
직간접
1965
편승
로스쿨
나타날지
김세형
fax
##사무국
##상용차
6106
다가설
##친숙
##무더운
행크스
안티
##명칭
연제구
##회원증
소닉
##일몰
##석광
됐으니
타협점
김종성
PS
##장경
관절
##증도
##스틱
##페
적성
박대준
djpark
letmein
잠재우
친권자
##입양
견지
긍부
##정은
##오차
##었잖
카디널
사들인다
##마스
애슬레틱스
##해수부
ACN
신동윤
살벌
봉급생활자
해안선
심훈
이동규
명희진
##김희
최지훈
레메
##세타
취리히
최수정
##귀환
##팬레터
##기발
##Hope
김혜지
##김일창
뜯
##억장
##미관
매닝
카지
##fear
중개인
이수로
사본
##동사무소
##차재
차재
##sia
##0413
불러일으킨다
운수
서민지
LEOUL
Automotive
리터
##nexteer
조향
##이황은
CBM
##전달식
##현훈
김연정
중미
해치
로버트슨
살베
갈라져
RaTG
유순
용전천
화원
꽃씨
산소마스크
클레어
##꼴
골랐
백선엽
이정헌
##셈
지포스
방통
##7300
##피치
##장량
##잇
식이
##moving
##仁
##OTA
히로시마
##윤용
now
디플레이션
##시경
##기생충
서철모
##화성시
##마고메도프
토니
퍼거슨
##타의
##비만
##피트
인디고
하여튼
펼쳐나갈
##써야
겹쳐서
##선가
김경일
갑작스레
미지급
습기
절묘
##래곤
생명력
##듀스
금지법
##해임
쥬리나
대한요트협회
라멜라
##니브
제작물
hais
구르
Berlin
