[PAD]
[UNK]
[CLS]
[SEP]
[MASK]
이
다
.
로
는
에
을
지
기
가
고
의
1
한
하
자
서
대
은
시
,
사
2
해
를
인
0
나
도
전
스
수
원
으
정
9
국
했
상
일
부
리
제
있
장
)
(
어
과
보
라
코
주
업
아
"
만
진
들
재
3
경
위
공
적
신
회
비
소
면
성
중
명
'
관
등
화
계
선
니
구
동
o
개
5
영
4
산
조
금
무
단
트
8
것
감
게
연
방
유
여
문
내
역
용
행
그
미
7
할
러
확
월
안
마
와
생
오
세
분
우
발
통
모
6
터
며
간
치
체
입
포
실
년
요
n
데
e
드
%
난
c
a
현
최
증
당
r
된
바
종
s
출
·
차
반
교
거
예
민
’
‘
매
되
m
운
달
습
배
학
후
강
k
까
약
외
려
식
말
t
임
설
뉴
격
“
i
”
프
양
급
및
료
C
건
야
었
청
준
올
속
[
]
@
작
염
합
A
S
두
울
억
직
더
파
르
노
크
음
력
p
추
결
받
타
점
권
활
본
록
판
호
-
=
련
남
항
근
각
됐
저
히
표
따
천
h
심
투
품
박
김
환
않
물
번
온
밝
없
태
규
책
l
집
망
T
혔
검
승
던
백
w
복
y
처
협
함
황
질
g
았
래
석
육
레
총
광
디
날
때
특
법
형
능
향
불
험
I
른
열
B
피
같
북
평
참
초
겠
또
많
담
린
별
늘
K
u
병
편
목
군
독
E
응
축
언
N
토
P
티
획
접
카
브
께
택
G
앞
페
d
극
량
필
루
O
될
베
술
 
송
취
객
든
람
익
채
변
;
손
&
훈
높
창
ⓒ
령
줄
M
론
버
런
순
키
립
b
였
:
D
융
알
션
졌
럼
새
휴
액
워
철
류
존
/
못
돌
메
악
플
절
움
막
홍
침
벌
효
희
츠
센
누
j
즈
테
너
율
넘
맞
커
돼
~
글
L
름
란
R
락
완
왔
네
견
례
머
F
농
폭
애
삼
측
씨
범
V
랜
롯
충
좋
길
족
봉
팀
긴
쟁
?
곳
앙
탈
퍼
친
률
윤
클
착
갈
힘
균
…
엔
층
살
답
났
잘
럽
큰
져
걸
밀
논
널
케
허
뒤
▲
▶
골
H
느
핑
램
림
찰
블
U
털
째
패
탄
콘
홈
찾
렸
캠
랑
혈
득
첫
흥
먼
팬
볼
즌
쳐
벤
빠
략
촉
혁
욱
폐
큼
텔
낸
잡
귀
곡
혼
겨
템
f
W
릴
혜
갖
룹
팅
헌
v
싶
놓
붙
색
찬
렇
딜
낮
숙
Q
△
얼
겪
링
떨
넷
쓰
컨
냈
즐
칙
턴
욕
촌
눈
싱
텐
셜
값
핵
몰
웃
쳤
뿐
뤄
끝
징
캐
슈
쇼
콩
냐
닝
펀
퇴
밖
셀
컴
엄
Y
헤
웨
꾸
써
풀
콜
좌
끌
z
굴
님
십
맹
켜
섰
솔
잠
델
럴
틀
탁
쇄
렌
폼
돈
빈
뜻
닌
덧
덕
녀
픈
쉽
놀
롭
념
갔
랐
풍
뷰
씩
압
둔
튜
끼
J
펼
랫
쪽
척
얻
떠
컬
먹
춘
닥
섭
팔
앤
폰
푸
떤
킹
릭
낙
춤
혐
궁
뛰
힌
죠
흡
뮤
켓
춰
잔
떻
맡
슬
봤
맛
갑
겼
빨
됩
빌
슨
혀
앨
쿠
렵
∼
흐
!
앵
믹
꼽
죄
탕
킬
엘
셔
홀
녹
밥
◇
밤
납
㎡
빅
픽
젝
혹
듯
암
엇
웠
탑
싸
킨
셨
봐
몸
휘
닷
흘
칠
둘
왕
첨
쉬
읍
옥
※
엑
콤
핀
앱
듣
짜
칭
젠
챔
잇
낼
얘
컷
겁
뢰
X
꿈
ㆍ
+
릿
촬
맥
퀸
톡
짐
뜨
팩
좀
몇
겸
룸
#
딩
돕
폴
엠
즘
긍
늦
덤
즉
쓴
힐
Z
흑
벽
＜
＞
멀
꺼
삭
삶
벗
펴
낭
©
큐
쿄
컵
넣
넓
벨
텍
윗
숨
렴
맺
롱
웹
앉
맨
씀
곤
x
퓨
쏟
럭
괴
깊
윈
셰
셉
빛
봄
줬
젊
걱
Δ
켰
찍
멤
빙
깨
굉
곧
쯤
셈
덜
탐
짓
괄
싼
헬
◆
왜
멘
셋
웅
렉
랩
렀
뷔
탓
▷
팜
꼭
믿
톤
렬
흔
듀
눔
틱
잉
슷
냉
듭
탠
숲
옵
끈
끊
닉
칼
졸
뒀
쥐
랙
몬
됨
냥
닐
쿨
띄
씬
턱
벅
컸
칸
롤
랭
짝
낌
빚
눠
켈
옮
훨
→
㈜
쏠
죽
뭐
펜
썼
잃
쾌
쌓
밑
룬
쓸
봇
잖
놨
굿
엣
끄
댄
멜
■
틴
둥
릉
‧
섬
낄
숫
갱
룰
쁘
곽
젤
랴
렘
틈
뚜
닫
갤
뒷
룡
헝
묻
겹
멸
걷
`
줘
읽
美
팡
덴
샤
짧
챌
웰
뿌
땅
꽃
삽
핸
왼
꼬
깔
쉼
숭
븐
깝
쌍
캄
굳
톱
췄
닭
뀌
뱅
꾼
랍
캘
똑
돋
꼈
갯
밍
빵
껏
*
|
훔
━
캡
넥
밴
롄
옷
숍
녁
옹
팝
튼
찌
벼
밸
뽑
깜
횡
↑
빼
훌
딸
캔
겐
듈
中
엽
_
낀
묵
몽
잊
챙
닛
눴
##./SF
##을/JKO
##다/EF
##에/JKB
##,/SC
##이/JKS
##를/JKO
##는/JX
##하/XSV
##고/EC
##은/JX
##는/ETM
##가/JKS
##으로/JKB
있/VA
##)/SSC
##했/XSV+EP
##(/SSO
##에서/JKB
##이/VCP
##./SY
##로/JKB
##도/JX
##들/XSN
##일/NNBC
코로나/NNP
##의/NNG
##19/SN
##한/XSA+ETM
것/NNB
##과/JC
등/NNG
##적/XSN
##명/NNBC
##"/SY
"/SY
##해/XSV+EC
수/NNG
##다/EC
##월/NNBC
##·/SC
##할/XSV+ETM
##은/ETM
##기/ETN
1/SN
##한/XSV+ETM
'/SY
##와/JC
‘/SY
##'/SY
##게/EC
##’/SY
##며/EC
##인/VCP+ETM
##%/SY
기자/NNG
2/SN
##면/EC
##의/JKB
##”/SSC
“/SSO
##년/NNBC
##습니다/EF
및/MAJ
##어/EC
##@/SY
##었/EP
##]/SSC
##되/XSV
##원/NNBC
##지/EC
##만/NR
##까지/JX
[/SSO
3/SN
하/VV
##억/NR
이/MM
말/NNG
##다고/EC
29/SN
지난/VV+ETM
##된/XSV+ETM
확진/NNG
이/NP
##면서/EC
##코로나/NNP
위해/VV+EC
##하/XSA
##kr/SL
##부터/JX
한/MM
##지만/EC
받/VV
재/XPN
##됐/XSV+EP
밝혔/VV+EP
않/VV
##고/JKQ
##자/XSN
금지/NNG
무단/NNG
##았/EP
##던/ETM
##1/SN
##배포/NNG
통해/VV+EC
##성/XSN
중/NNG
##화/XSN
지역/NNG
##겠/EP
##co/SL
없/VA
##라고/EC
5/SN
했/VV+EP
##=/SY
미국/NNP
##한다/XSV+EF
##다는/ETM
4/SN
진행/NNG
##com/SL
지원/NNG
(/SSO
##에게/JKB
##보다/JKB
##개/NNBC
##아/EC
대한/VV+ETM
##-/SY
8/SN
같/VA
6/SN
올해/NNG
##바이러스/NNG
이번/NNG
정부/NNG
10/SN
관련/NNG
신종/NNG
전/NNG
확산/NNG
상황/NNG
위한/VV+ETM
한국/NNP
-/SY
기업/NNG
더/MAG
##만/JX
감염증/NNG
##다/VCP+EF
7/SN
##;/SY
이후/NNG
##도록/EC
많/VA
예정/NNG
##을/ETM
보/VV
함께/MAG
방역/NNG
증가/NNG
##된다/XSV+EF
국내/NNG
사업/NNG
경기/NNG
백신/NNG
서울/NNP
##2/SN
또/MAG
가능/NNG
=/SY
##경제/NNG
시장/NNG
대비/NNG
##과/JKB
중국/NNP
##3/SN
전재/NNG
9/SN
##뉴스/NNG
경우/NNG
이날/NNG
최근/NNG
때문/NNB
되/VV
##는데/EC
##분기/NNG
따르/VV
개발/NNG
우리/NP
세계/NNG
경제/NNG
기록/NNG
높/VA
내/NP
28/SN
온라인/NNG
##7/SN
발생/NNG
계획/NNG
감소/NNG
##~/SY
못/MAG
대상/NNG
##전재/NNG
국가/NNG
ⓒ/SY
##amp/SL
추가/NNG
때/NNG
##//SC
##와/JKB
##입니다/VCP+EF
이/VCP
##하/VV
현재/NNG
모두/NNG
운영/NNG
사회/NNG
따라/VV+EC
감염/NNG
전망/NNG
##시/NNBC
이상/NNG
##될/XSV+ETM
##천/NR
관계자/NNG
아니/VCN
할/VV+ETM
##여/XSN
&/SY
필요/NNG
제공/NNG
기준/NNG
좋/VA
참여/NNG
##시간/NNG
설명/NNG
사람/NNG
그/MM
선수/NNG
해외/NNG
시작/NNG
##4/SN
##서울/NNP
대해/VV+EC
##대/NNBC
안/MAG
결과/NNG
영업/NNG
가운데/NNG
##차/NNBC
30/SN
##5/SN
특히/MAG
##:/SC
지난해/NNG
가장/MAG
두/MM
12/SN
##권/XSN
##주/VX
##지/VX
20/SN
발표/NNG
대표/NNG
신규/NNG
##?/SF
러시아/NNP
영화/NNG
교육/NNG
기간/NNG
다른/MM
가격/NNG
입국/NNG
사태/NNG
##돼/XSV+EC
오/VV
후/NNG
##기업/NNG
시/NNG
11/SN
매출/NNG
마스크/NNG
##라/EC
##6/SN
달/NNG
영향/NNG
그/NP
판정/NNG
확대/NNG
추진/NNG
##달러/NNBC
2020/SN
##…/SE
##사업/NNG
다/MAG
금융/NNG
검사/NNG
선원/NNG
##해야/XSV+EC
투자/NNG
확인/NNG
##조/NR
마련/NNG
대통령/NNG
##센터/NNG
총/NNG
큰/VA+ETM
문제/NNG
다양/XR
##본부/NNG
외국인/NNG
생각/NNG
지속/NNG
상승/NNG
▲/SY
기대/NNG
대응/NNG
##시설/NNG
##라는/ETM
규모/NNG
##개월/NNBC
분석/NNG
▶/SY
##시장/NNG
시간/NNG
늘/VV
서비스/NNG
한편/NNG
영상/NNG
##별/XSN
##받/VV
개최/NNG
우려/NNG
##회/NNBC
##라며/EC
환자/NNG
따른/VV+ETM
##간/NNG
예상/NNG
##당/XSN
점/NNG
될/VV+ETM
위기/NNG
##위/NNBC
됐/VV+EP
상반기/NNG
다시/MAG
훈련/NNG
전년/NNG
국제/NNG
##8/SN
공급/NNG
수준/NNG
유지/NNG
준비/NNG
정책/NNG
원/NNG
전/MM
데/NNB
##29/SN
강화/NNG
실적/NNG
##위원회/NNG
최대/NNG
뒤/NNG
전했/VV+EP
0/SN
행사/NNG
생산/NNG
거리/NNG
활용/NNG
##자/EC
오후/NNG
전체/NNG
##9/SN
인해/VV+EC
의원/NNG
##으며/EC
##사회/NNG
##률/XSN
선박/NNG
주요/NNG
사용/NNG
일본/NNP
조치/NNG
##&/SY
다음/NNG
수요/NNG
격리/NNG
넘/VV
처음/NNG
##이나/JC
강조/NNG
일/NNG
대/XPN
##%)/SY
잘/MAG
##지역/NNG
약/NNG
##째/XSN
많이/MAG
크/VA
기사/NNG
조사/NNG
전국/NNG
직원/NNG
##나/JC
새로운/VA+ETM
실시/NNG
활동/NNG
모든/MM
트럼프/NNG
들/VV
성장/NNG
적극/NNG
##형/XSN
판매/NNG
관리/NNG
##라는/VCP+ETM
등의/NNP
:/SC
A/SL
현장/NNG
글로벌/NNG
방문/NNG
첫/MM
14/SN
앞/NNG
이런/MM
##으면/EC
100/SN
하락/NNG
속/NNG
##격리/NNG
##한다고/XSV+EC
사진/NNG
오전/NNG
프로그램/NNG
기존/NNG
개선/NNG
만들/VV
앞서/VV+EC
게/NNG
국민/NNG
이용/NNG
##장/NNG
##기자/NNG
입장/NNG
##의/JKG
결정/NNG
효과/NNG
노력/NNG
부산/NNP
##회의/NNG
##산업/NNG
##%,/SY
19/SN
한다/VV+EF
시행/NNG
미/NNG
동안/NNG
업무/NNG
진단/NNG
포함/NNG
하루/NNG
SK/SL
대회/NNG
##상/NNG
##라고/VCP+EC
##연합뉴스/NNP
중앙/NNG
여행/NNG
방안/NNG
평가/NNG
등이/NNG
##이익/NNG
##yna/SL
자/NNG
학생/NNG
뉴스/NNG
)/SSC
인한/VV+EC
##시/EP
바이러스/NNG
줄/VV
27/SN
##명의/NNG
제품/NNG
##자의/NNG
맞/VV
공개/NNG
##지원/NNG
##였/VCP+EP
적용/NNG
올/NNG
##업체/NNG
계속/NNG
##현지/NNG
보도/NNG
여파/NNG
##씨/NNB
시즌/NNG
안전/NNG
##부/NNG
지금/NNG
업체/NNG
##news/SL
극복/NNG
간/NNG
##라고/JKQ
계약/NNG
##한다/XSV+EC
##번/NNBC
##기관/NNG
시설/NNG
△/SY
모습/NNG
선정/NNG
정도/NNG
저작권자/NNG
50/SN
인천/NNP
최고/NNG
겪/VV
연기/NNG
사망자/NNG
##리그/NNG
생활/NNG
내용/NNG
감독/NNG
##대책/NNG
시민/NNG
지급/NNG
것/NP
장기/NNG
만/NNG
기술/NNG
##거나/EC
##생활/NNG
##팀/NNG
각각/MAG
##뉴시스/NNP
해당/NNG
디지털/NNG
한다/VV+EC
누적/NNG
된다/VV+EF
신청/NNG
정보/NNG
직접/NNG
부분/NNG
찾/VV
방식/NNG
또한/MAJ
일부/NNG
소비자/NNG
해/VV+EC
북한/NNP
비롯/XR
##처럼/JKB
부문/NNG
연구/NNG
구성/NNG
나타났/VV+EP
고려/NNG
시대/NNG
제/XPN
열린/VV+ETM
음성/NNG
중인/NNG
어려움/NNG
##의료/NNG
##정보/NNG
##중/NNB
산업/NNG
회사/NNG
수도/NNG
##포인트/NNG
최/XPN
전문/NNG
광주/NNP
확보/NNG
##기술/NNG
논의/NNG
협력/NNG
##분/NNBC
구축/NNG
바/NNG
관심/NNG
미래/NNG
사례/NNG
제한/NNG
김/NNP
달러/NNG
나/NP
각/MM
##약/NNG
불/XPN
주장/NNG
더욱/MAG
대해서/VV+EC
근로자/NNG
##0/SN
후보/NNG
분야/NNG
회복/NNG
15/SN
31/SN
내년/NNG
전날/NNG
고용/NNG
##금융/NNG
##사진/NNG
또는/MAJ
환경/NNG
##교육/NNG
##엔/JKB+JX
중심/NNG
의료/NNG
##신의/NNG
전략/NNG
집계/NNG
공연/NNG
재개/NNG
마음/NNG
##곳/NNG
하나/NR
역시/MAJ
전환/NNG
착용/NNG
과정/NNG
24/SN
여름/NNG
임시/NNG
나왔/VV+EP
다만/MAJ
국회/NNG
고객/NNG
팬/NNG
반영/NNG
방송/NNG
상태/NNG
문화/NNG
방침/NNG
방지/NNG
특별/NNG
대책/NNG
중요/NNG
주민/NNG
보이/VV
의무/NNG
##데일리/NNP
회의/NNG
##조사/NNG
신/XPN
회장/NNG
##서/JKB
끝/NNG
건강/NNG
이야기/NNG
중단/NNG
부동산/NNG
나오/VV
위원장/NNG
16/SN
치료제/NNG
개인/NNG
데이터/NNG
안정/NNG
연장/NNG
Q/SL
##검사/NNG
없이/MAG
취소/NNG
하반기/NNG
피해/NNG
##건/NNBC
싶/VX
##했/VV+EP
유럽/NNP
##병원/NNG
지적/NNG
만큼/NNB
##해/XSA+EC
비대/VV
성공/NNG
##상/XSN
판단/NNG
집/NNG
##시/NNG
인구/NNG
예비군/NNG
학교/NNG
동기/NNG
대학/NNG
집중/NNG
팀/NNG
##용/XSN
일/NR
##주/NNG
##제공/NNG
26/SN
시스템/NNG
목표/NNG
자체/NNG
AI/SL
전달/NNG
가치/NNG
기회/NNG
##했/XSA+EP
변화/NNG
일정/NNG
##율/XSN
아직/MAG
그러나/MAJ
관객/NNG
공공/NNG
치료/NNG
임상/NNG
13/SN
의미/NNG
##경기/NNG
수출/NNG
##[/SSO
21/SN
##개발/NNG
##그룹/NNG
본격/NNG
##gt/SL
자리/NNG
대구/NNP
##어요/EF
낮/VA
롯데/NNP
열/VV
주/NNG
긴급/NNG
##는다/EF
자/IC
홈페이지/NNG
연속/NNG
##재/XPN
23/SN
2018/SN
영국/NNP
기반/NNG
교수/NNG
조성/NNG
##의/EC
당시/NNG
지난달/NNG
도입/NNG
양성/NNG
주/VV
예방/NNG
의견/NNG
25/SN
이미/MAG
도움/NNG
축소/NNG
공동/NNG
인원/NNG
##2020/SN
장관/NNG
주택/NNG
참석/NNG
활성/NNG
점검/NNG
##계/XSN
비/XPN
뉴딜/NNG
##어서/EC
##라며/VCP+EC
너무/MAG
오늘/NNG
##해서/XSV+EC
##여/EC
60/SN
상품/NNG
강화/NNP
물론/MAG
##국의/NNG
평균/NNG
명/NNG
##재난/NNG
덧붙였/VV+EP
검토/NNG
##지수/NNG
동영상/NNG
##규모/NNG
임상시험/NNP
##두기/NNG
힘/NNG
조금/NNG
17/SN
어려운/VA+ETM
##씩/XSN
##활동/NNG
사실/NNG
손/NNG
##통신/NNG
캠페인/NNG
##에선/JKB+JX
40/SN
##p/SL
창업/NNG
이전/NNG
갖/VV
홍보/NNG
##전/NNG
시기/NNG
그러/VV
부/XPN
역할/NNG
할인/NNG
베트남/NNP
거래/NNG
분양/NNG
화이자/NNP
곳/NNG
공식/NNG
전문가/NNG
감사/NNG
##호/NNBC
반면/NNG
홍콩/NNP
얻/VV
##안전/NNG
초/NNG
##문화/NNG
##관리/NNG
보건/NNG
가족/NNG
전자/NNG
18/SN
통합/NNG
않/VX
담/VV
관광/NNG
수업/NNG
수익/NNG
혁신/NNG
##투자/NNG
제주/NNP
이달/NNG
##ⓒ/SY
정상/NNG
##나/JX
##단계/NNG
그런/MM
체험/NNG
제외/NNG
자금/NNG
문/NNG
주목/NNG
주가/NNG
##다가/EC
위험/NNG
##복지/NNG
차지/NNG
##세/NNBC
경쟁/NNG
인/NNG
적자/NNG
##원/NNG
외/NNG
부담/NNG
측은/NNG
설치/NNG
분/NNG
보였/VV+EP
합의/NNG
이유/NNG
22/SN
모더/NNP
##왔/VX+EP
연결/NNG
비교/NNG
행정/NNG
파악/NNG
향후/NNG
대출/NNG
##서비스/NNG
그리고/MAJ
##TV/SL
된/VV+ETM
비용/NNG
##우리/NP
일자리/NNG
##로부터/JKB
희망/NNG
##가격/NNG
승인/NNG
보여/VV+EC
경찰/NNG
최종/NNG
소비/NNG
제보/NNG
사장/NNG
##보/VX
##대/XSN
##대회/NNG
##나/NP
도시/NNG
현지/NNG
지방/NNG
날/NNG
원격/NNG
통한/VV+ETM
경기도/NNP
##30/SN
##방역/NNG
경험/NNG
감염병/NNP
막/VV
여러분/NP
어떤/MM
수가/NNG
관계/NNG
업계/NNG
##법/NNG
일반/NNG
서울시/NNP
참가/NNG
가/VV
독일/NNP
##A/SL
뉴시스/NNP
그렇/VA
우선/MAG
##정책/NNG
발전/NNG
선택/NNG
뜻/NNG
프로/NNG
선발/NNG
여부/NNG
안/NNG
70/SN
##길/ETN+JKO
입/NNG
마지막/NNG
##재단/NNG
집단/NNG
##일/NNG
채널/NNG
구매/NNG
YTN/SL
종합/NNG
민주당/NNP
핵심/NNG
사전/NNG
##생/XSN
##했으며/XSV+EP+EC
,/SC
조정/NNG
##업계/NNG
단계/NNG
##신문/NNG
##달/NNG
대화/NNG
##차/NNG
##배/NNG
번/NNBC
혐의/NNG
##제/XSN
##한다는/XSV+ETM
##학기/NNG
배/NNG
상대/NNG
당국/NNG
세/MM
국립/NNG
민간/NNG
알려졌/VV+EC+VX+EP
##수업/NNG
이어/MAG
부족/NNG
아닌/VCN+ETM
입항/NNG
##협회/NNG
##한국/NNP
책임/NNG
중소기업/NNG
선/NNG
##장의/NNG
경남/NNP
우수/NNG
눈/NNG
기획/NNG
##있/VX
##층/NNG
출연/NNG
요청/NNG
휴가/NNG
개봉/NNG
아시아/NNP
지정/NNG
##와의/NNG
##이/MM
제작/NNG
출시/NNG
##는지/EC
배우/NNG
급증/NNG
경영/NNG
부산항/NNP
보인다/VV+EF
##당국/NNG
쉽/VA
##위원장/NNG
어떻/VA
##∼/SY
비중/NNG
##트/NNG
귀국/NNG
소개/NNG
유입/NNG
Copyrights/SL
##택트/NNP
##금지/NNG
요구/NNG
##가/VV+EC
주식/NNG
여전히/MAG
두/VV
당부/NNG
##니/EC
콘텐츠/NNG
이어지/VV
더불/VV
일상/NNG
##시민/NNG
##인/NNG
##선/NNG
볼/NNG
여러/MM
늘어난/VV+ETM
답/NNG
##펀드/NNG
동시/NNG
유튜브/NNP
통과/NNG
비해/VV+EC
실제/NNG
건/NP+JX
게임/NNG
스타/NNG
새/NNG
최소/NNG
##고자/EC
작품/NNG
##감염/NNG
폭/NNG
##안/NNG
##%),/SY
우승/NNG
앞두/VV
분위기/NNG
열리/VV
해결/NNG
공간/NNG
바란다/VV+EC
적/VA
##폼/NNG
총리/NNG
##이번/NNG
진출/NNG
##서/EC
수리/NNG
잡/VV
대부분/NNG
##!/SF
병원/NNG
나온/VV+ETM
##위기/NNG
##은행/NNG
반/NNG
//SC
뿐/NNB
##치/XSV+EC
##는데요/EF
알/VV
##정부/NNG
##나라/NNG
자동차/NNG
성과/NNG
300/SN
사이/NNG
먼저/MAG
비판/NNG
##주/NNBC
어렵/VA
제/NP+JKG
협의/NNG
##님/XSN
질문/NNG
결국/NNG
##시키/XSV
제시/NNG
발굴/NNG
보호/NNG
##조/NNG
메이저/NNP
임직원/NNG
##'(/SY
체결/NNG
제도/NNG
##려고/EC
역량/NNG
##반/NNG
##’,/SY
##24/SN
제출/NNG
해소/NNG
##한/VV+ETM
단체/NNG
계기/NNG
완화/NNG
빠르/VA
관중/NNG
##데이터/NNG
##28/SN
쓰/VV
처리/NNG
##스포츠/NNG
역대/NNG
##종합/NNG
자연/NNG
접종/NNG
악화/NNG
미디어/NNG
올랐/VV+EP
브랜드/NNG
공항/NNG
2019/SN
##주택/NNG
##이노베이션/NNG
법/NNG
반응/NNG
이렇/VA
##업의/NNG
최선/NNG
##newsis/SL
◇/SY
금/NNG
그동안/NNG
접촉/NNG
34/SN
##상품/NNG
##중앙/NNG
스페인/NNP
군/NNG
##보건/NNG
##개국/NNBC
나가/VV
돈/NNG
차/NNG
전북/NNP
인력/NNG
부진/NNG
##교육청/NNG
맡/VV
##비율/NNG
고/MM
연계/NNG
##도시/NNG
##죠/EF
주제/NNG
매출액/NNG
현대차/NNP
나머지/NNG
200/SN
##할/VV+ETM
거/NP
공감/NNG
절반/NNG
소중/XR
##’(/SY
##노총/NNG
응원/NNG
제기/NNG
제약/NNG
##음/ETN
재정/NNG
##학교/NNG
##장관/NNG
그런데/MAJ
국방부/NNG
삼성/NNP
파이낸셜/NNP
##유입/NNG
여기/NP
작년/NNG
##세계/NNG
##증권/NNG
##으나/EC
차단/NNG
누구/NP
##대비/NNG
인도/NNP
##영상/NNG
##믹/NNG
법안/NNG
감염자/NNG
언급/NNG
부부/NNG
준수/NNG
검역/NNG
철저히/MAG
##합니다/XSV+EF
##인데/VCP+EC
위/NNG
##전망/NNG
협약/NNG
##액/NNG
아동/NNG
보유/NNG
##환경/NNG
증상/NNG
최초/NNG
한다는/VV+ETM
##앵커/NNG
사망/NNG
전화/NNG
응답/NNG
##기간/NNG
시험/NNG
않/NNG
여성/NNG
##www/SL
32/SN
구단/NNG
##가/VV
##체험/NNG
온/VV+ETM
※/SY
해야/VV+EC
의사/NNG
사상/NNG
##대의/NNG
협상/NNG
##대로/JX
대형/NNG
선거/NNG
##가구/NNG
소재/NNG
##20/SN
바이오/NNP
분기/NNG
감안/NNG
앨범/NNG
경쟁력/NNG
채용/NNG
마이애미/NNP
##뿐/JX
##중국/NNP
##위/NNG
##10/SN
##mt/SL
추세/NNG
대신/NNG
예산/NNG
통화/NNG
거쳐/VV+EC
남성/NNG
방법/NNG
이상의/NNP
허용/NNG
고민/NNG
위치/NNG
2017/SN
출전/NNG
나온다/VV+EF
플랫/NNG
아울러/MAG
##계층/NNG
교육부/NNG
##문의/NNG
보내/VV+EC
돌파/NNG
사건/NNG
인터넷/NNG
기부/NNG
밤/NNG
보내/VV
작업/NNG
뉴욕/NNP
규제/NNG
##공인/NNG
##손실/NNG
신고/NNG
##가능/NNG
심각/XR
체류/NNG
재난/NNG
임대료/NNG
제조/NNG
모집/NNG
##부산/NNP
오픈/NNG
유/NNP
늘어나/VV
논란/NNG
##해/VV+EC
##아시아/NNP
##지원금/NNG
매년/NNG
##',/SY
자신/NNG
소속/NNG
소장/NNG
삼성전자/NNP
지수/NNG
48/SN
##다면/EC
사/NR
차원/NNG
그룹/NNG
##사의/NNG
금값/NNG
취업/NNG
듣/VV
##급/NNG
화상/NNG
##수칙/NNG
제/NP
민주/NNP
##로서/JKB
현대/NNG
##국가/NNG
얘기/NNG
##스/XSN
##단체/NNG
##공항/NNG
나섰/VV+EP
##어/IC
전파/NNG
CES/SL
기관/NNG
소식/NNG
손실/NNG
##보험/NNG
조기/NNG
트위터/NNP
언론/NNG
자산/NNG
##전하/VV
##같이/JKB
##민주당/NNP
##세종/NNP
혜택/NNG
##치료제/NNG
기본/NNG
##더라도/EC
##c/SL
실천/NNG
학습/NNG
카드/NNG
반대/NNG
##콜/NNG
모델/NNG
내놓/VV
소상/NNG
매우/MAG
##어야/EC
완료/NNG
왔/VV+EP
##평가/NNG
업종/NNG
신용/NNG
아이/NNG
##계획/NNG
구조/NNG
##대표/NNG
전월/NNG
자료/NNG
연구원/NNG
포인트/NNG
##인당/NNG
##훈련/NNG
스포츠/NNG
##셨/EP+EP
##기에/EC
방/NNG
##다며/EC
##마다/JX
달성/NNG
화제/NNG
속도/NNG
##수도/NNG
투어/NNG
목소리/NNG
무대/NNG
##바이오/NNP
불구/XR
근무/NNG
##회사/NNG
지/NNP
지침/NNG
그래서/MAJ
##확산/NNG
##방송/NNG
관람/NNG
이벤트/NNG
물량/NNG
인사/NNG
투입/NNG
상/NNG
오른/VV+ETM
무엇/NP
어느/MM
마케팅/NNG
자유/NNG
프로젝트/NNG
현황/NNG
기능/NNG
리그/NNG
팬데/NNBC+VCP+EC
건설/NNG
즐길/VV+ETM
인터뷰/NNG
호텔/NNG
##여행/NNG
먹/VV
각종/NNG
1000/SN
TV/SL
상당/NNG
기다립니다/VV+EF
LG/SL
통계/NNG
##조치/NNG
##lt/SL
정세균/NNP
경북/NNP
작성/NNG
##시스템/NNG
발행/NNG
위해서/VV+EC
##께/JKB
당/NNG
신속/NNG
공유/NNG
##기/NNG
##대/NNG
##㎡/SY
배터리/NNG
접수/NNG
청소년/NNG
언/VV+ETM
##씨/NNG
##위원/NNG
정/NNP
줄이/VV
인기/NNG
##했으나/XSV+EP+EC
##비/XPN
도전/NNG
대한민국/NNP
제안/NNG
이하/NNG
##수/NNG
국무총리/NNG
구체/NNG
나라/NNG
##비/NNG
##투데이/NNP
수입/NNG
지자체/NNG
해/NNG
진입/NNG
지키/VV
##졌/VX+EP
밖/NNG
항체/NNG
##밖에/JX
커/VA+EC
정말/MAG
##과학/NNG
바로/MAG
이내/NNG
##기구/NNG
##기준/NNG
##코리아/NNP
##여자/NNG
인근/NNG
조직/NNG
달리/MAG
##체계/NNG
사실/MAG
심리/NNG
배달/NNG
내부/NNG
좀/MAG
저/NP
##스타/NNG
##사/NNG
류현진/NNP
비율/NNG
연간/NNG
증시/NNG
예약/NNG
##회견/NNG
##됩니다/XSV+EF
기/NNG
소/XPN
싶/VA
식당/NNG
돕/VV
독자/NNG
초기/NNG
울산/NNP
수립/NNG
홍/NNG
음악/NNG
과제/NNG
장소/NNG
모바일/NNP
세/NNG
매장/NNG
장/NNG
##자산/NNG
인상/NNG
외교/NNG
세종/NNP
##금/NNG
무/XPN
스타트업/NNG
출생/NNG
실질/NNG
사랑/NNG
유통/NNG
정치/NNG
같이/MAG
##부문/NNG
과거/NNG
백/NR
식/NNG
전남/NNP
간담회/NNG
유동/NNG
위반/NNG
SNS/SL
봉쇄/NNG
과학/NNG
＜ⓒ/SY
##＞/SY
항만/NNG
계절/NNG
곡/NNG
##000/SN
차이/NNG
홈/NNG
방향/NNG
##상황/NNG
동참/NNG
##테/NNG
현실/NNG
##G/SL
##한/MM
##미국/NNP
##달/VX
##점/NNG
수치/NNG
식품/NNG
거/NNB
이동/NNG
측/NNB
석유/NNG
극장/NNG
##자료/NNG
##텔레콤/NNP
##edaily/SL
##가량/NNG
##채무/NNG
상담/NNG
이르/VV
전반/NNG
유학생/NNG
침체/NNG
브라질/NNP
공장/NNG
##등급/NNG
역사/NNG
센터/NNG
포스트/NNG
##선수/NNG
##연구원/NNG
높이/VV
한다고/VV+EC
촬영/NNG
##분/XSN
##12/SN
전통/NNG
상가/NNG
전기차/NNP
##된다/XSV+EC
현/MM
##만의/NNG
위축/NNG
##사/VV+EC
육성/NNG
##함/XSA+ETN
##아야/EC
전시/NNG
©/SY
주도/NNG
##AI/SL
취약/NNG
##국제/NNG
##fnnews/SL
청년/NNG
표현/NNG
가까이/MAG
#/SY
저/MM
수행/NNG
##제/NP
임대/NNG
바탕/NNG
소통/NNG
시청/NNG
건수/NNG
현상/NNG
인수/NNG
좌석/NNG
##도의/NNG
비상/NNG
차례/NNG
##롭/XSA
가지/VV
투/NR
##언론/NNG
##+/SY
투자자/NNG
항공사/NNG
##협약/NNG
##머니/NNP
##27/SN
남/VV
유도/NNG
##고의/NNG
유일/NNG
이틀/NNG
거주/NNG
##냐/EC
##려는/ETM
헤럴드/NNP
500/SN
##심리/NNG
사항/NNG
##주의/NNG
주재/NNG
##록/NNG
이해/NNG
워싱턴/NNP
의료진/NNG
은/NNG
소독/NNG
위생/NNG
##사항/NNG
매일/MAG
제약사/NNG
맺/VV
인프라/NNG
KT/SL
무료/NNG
##으로부터/JKB
##최근/NNG
##전략/NNG
단백질/NNG
힘든/VA+ETM
포스코/NNP
상생/NNG
##앞/NNG
제대로/MAG
줄/NNG
이라크/NNP
##폭/NNG
K/SL
##조정/NNG
##07/SN
##시즌/NNG
네이버/NNP
시범/NNG
국토/NNG
예비/NNG
발언/NNG
순/MM
선도/NNG
##자원/NNG
##지방/NNG
빨리/MAG
##asiae/SL
커피/NNG
조/NNG
헌혈/NNG
페트르/NNP
94/SN
창출/NNG
금액/NNG
##나/EC
##통합/NNG
발열/NNG
##11/SN
은행/NNG
##관광/NNG
관한/VV+ETM
글/NNG
##기획/NNG
주문/NNG
공모/NNG
별도/NNG
이유로/NNP
등교/NNG
시도/NNG
항공/NNG
스마트/NNG
갈등/NNG
연합뉴스/NNP
##협력/NNG
긍정/NNG
도널드/NNP
합니다/VV+EF
돼/VV+EC
공시/NNG
규정/NNG
GC/SL
대변인/NNG
##kbs/SL
철저/NNG
친구/NNG
90/SN
44/SN
개/NNG
즐기/VV
효율/NNG
##가치/NNG
인재/NNG
##25/SN
주/MM
번/NNP
##연구/NNG
마무리/NNG
내달/NNG
나갈/VV+ETM
##스/IC
차별/NNG
담당/NNG
기여/NNG
설립/NNG
시점/NNG
혈장/NNG
파우/NNG
2000/SN
절차/NNG
연차/NNG
통계청/NNG
꾸준히/MAG
공무원/NNG
##체의/NNP
2016/SN
##등/NNB
2021/SN
발/NNG
투여/NNG
오프라인/NNG
박/NNP
정원/NNG
등과/NNG
##서의/NNG
##야/EC
##실/NNG
외부/NNG
혼인/NNG
펀드/NNG
줄어들/VV
##joongang/SL
실시간/NNG
어제/NNG
추정/NNG
mk/SL
이노션/NNP
##이란/JX
페이스북/NNP
##아/JKV
##함/XSV+ETN
##더/MAG
##국판/NNG
##hankyung/SL
판매량/NNG
내/VV
##본의/NNG
보장/NNG
책정/NNG
##자동차/NNG
관광객/NNG
주변/NNG
##니까/EC
연말/NNG
##클로로퀸/NNG
##가지/NNBC
면제/NNG
마감/NNG
타/VV
인식/NNG
##형/NNG
물류/NNP
주관/NNG
초/XPN
씨/NNG
타격/NNG
특파원/NNG
메시지/NNG
오르/VV
소규모/NNP
떨어졌/VV+EP
대상자/NNG
외국/NNG
##단의/NNG
##이사/NNG
행복/NNG
##전한/VV+ETM
말씀/NNG
전시회/NNG
##n/SL
등록/NNG
##승/NNBC
바이든/NNP
##17/SN
이슈/NNG
재무/NNG
변경/NNG
만나/VV+EC
액션/NNG
##아요/EF
모임/NNG
##21/SN
월드/NNG
중대/NNG
복지/NNG
이용해/NNP
노동/NNG
인공지능/NNP
실업/NNG
질/NNG
자세/XR
##인/XSN
상장/NNG
맛/NNG
하이드/NNP
탈/XPN
집회/NNG
가지/NNG
어린이/NNG
도쿄/NNP
80/SN
친환경/NNG
농촌/NNG
##저작권자/NNG
##나가/VV+EC
개정안/NNG
##타워/NNG
##종시/NNG
실제로/MAG
호주/NNP
##seoul/SL
##관/NNG
몸/NNG
EU/SL
대유행/NNG
이러/XR
##보/VV
##프로/NNG
##아이/NNG
미치/VV
불과/MAG
반발/NNG
절감/NNG
등도/NNG
##행사/NNG
##존/NNP
공/NNG
완성/NNG
에너지/NNG
줄어든/VV+ETM
##과정/NNG
출신/NNG
##식/NNB
채/NNG
발견/NNG
새롭/VA
작/VA
##군/NNG
##photo/SL
##인력/NNG
##강화/NNG
Δ/SL
소유/NNG
##제품/NNG
##국/NNG
##5000/SN
유치/NNG
##경향신문/NNP
대선/NNG
협업/NNG
##공원/NNG
목적/NNG
##스럽/XSA
재고/NNG
##내/VX
##라도/VCP+EC
안내/NNG
##온라인/NNG
올렸/VV+EP
##가/VX
놓/VV
공실/NNG
개막/NNG
의약품/NNG
##품의/NNG
요인/NNG
동원/NNG
선보이/VV
CEO/SL
취지/NNG
트렌드/NNG
반도체/NNG
재택근무/NNG
##소득/NNG
제로/NNG
모두/MAG
##파이낸셜/NNP
유학/NNG
부총리/NNG
##%(/SY
##오픈/NNG
##제의/NNG
##23/SN
예능/NNG
전면/NNG
##연금/NNG
매력/NNG
heraldbiz/SL
진화/NNG
당초/NNG
노사정/NNG
현금/NNG
몇/MM
주말/NNG
해제/NNG
나서/VV
인간/NNG
##종/NNG
소득/NNG
##공사/NNG
##신종/NNG
##라/VCP+EC
교사/NNG
##같/VA
##원호/NNG
이끌/VV
허가/NNG
##감염증/NNG
에이티/NNP
이름/NNG
초과/NNG
맞춤/NNG
차질/NNG
운동/NNG
종로구/NNP
확정/NNG
서로/MAG
본/VV+ETM
프랑스/NNP
평양/NNP
꿈/NNG
문재인/NNP
솔루션/NNP
밝힌/VV+ETM
해서/VV+EC
대구시/NNP
내/NP+JKG
##이/NP
브리핑/NNG
유행/NNG
다소/MAG
의심/NNG
##생산/NNG
이탈/NNG
늘어났/VV+EP
##이하/NNG
실험/NNG
둔/NNG
음식/NNG
여자/NNG
##가/XSN
권고/NNG
##나/EF
이익/NNG
만날/VV+ETM
자랑/NNG
자제/NNG
##곡/NNG
약속/NNG
통신/NNG
##광주/NNP
인천항/NNP
입원/NNG
##으면서/EC
##로써/JKB
SBS/SL
##현재/NNG
운용/NNG
범위/NNG
순/NNG
굉장히/MAG
급감/NNG
자원/NNG
##세대/NNG
##시의/NNG
##부의/NNG
##디지털/NNG
활약/NNG
농업/NNG
##계약/NNG
##상의/NNG
인텔/NNP
##집/NNG
가공/NNG
그린/VV+ETM
아이/IC
##군의/NNG
돌입/NNG
##P/SL
##국장/NNG
나와/VV+EC
형태/NNG
세부/NNG
##고용/NNG
흐름/NNG
스스로/NNG
근로/NNG
체계/NNG
##관계/NNG
##인천/NNP
신뢰/NNG
##대/XPN
나타나/VV
올/MM
##즈/NNG
수사/NNG
연/NNG
장애/NNG
◆/SY
거의/MAG
##https/SL
B/SL
##구조/NNG
열릴/VV+ETM
만나/VV
원칙/NNG
앱/NNG
##다/JX
걱정/NNG
##헤럴드/NNP
윤/NNG
##고요/EF
주로/MAG
걸쳐/VV+EC
대전/NNP
양/MM
호흡/NNG
##신/XPN
꼽/VV
KB/SL
주최/NNG
##흥원/NNP
초대/NNG
2022/SN
##티즈/NNP
##성과/NNG
스마트폰/NNP
마찬가지/NNG
조건/NNG
혈액/NNG
휴스턴/NNP
##대상/NNG
문의/NNG
##원장/NNG
명이/NNG
##닷컴/NNP
보고서/NNG
##heraldcorp/SL
##기기/NNG
##투어/NNG
폐쇄/NNG
##안정/NNG
아파트/NNG
웃음/NNG
##결과/NNG
##입국/NNG
웹/NNG
##심의/NNG
##실적/NNG
게이츠/NNP
편/NNG
##수의/NNG
삼/VV
임금/NNG
추천/NNG
##거든요/EF
##는다/EC
제조업/NNG
케어/NNG
##파크/NNG
형/NNG
봤/VV+EP
##발/NNG
소감/NNG
55/SN
##층/XSN
##제도/NNG
85/SN
화물선/NNG
대폭/MAG
초청/NNG
모니터링/NNG
##국자/NNG
##아서/EC
만든/VV+ETM
강력/XR
##리조트/NNG
▷/SY
정부세종청사/NNP
정례/NNG
회원/NNG
해석/NNG
떨어지/VV
가계/NNG
반드시/MAG
##브리핑/NNG
개정/NNG
62/SN
오랜/MM
행동/NNG
감정/NNG
##성장/NNG
##확실/XR
구하/VV
슈퍼/NNG
##동향/NNG
카메라/NNG
##간의/NNG
탓/NNG
##라면서/EC
세상/NNG
##세가/NNG
저희/NP
겁니다/NNB+VCP+EF
##제/XPN
##중/NNG
신천지/NNP
기대감/NNG
##민의/NNG
잘못/MAG
겸/NNG
오히려/MAJ
서구/NNG
탈출/NNG
##만/NNB
도/JX
##../SY
퍼포먼스/NNG
##60/SN
요금/NNG
전기/NNG
수주/NNG
##천만/NR
배포/NNG
의지/NNG
이제/MAG
39/SN
##도서관/NNG
##올해/NNG
##원의/NNG
기념/NNG
올리/VV
##재정/NNG
##라운드/NNG
마마/NNG
##치를/XSV+EC+JKO
충북/NNP
배치/NNG
발매/NNG
##용의/NNG
##업/NNG
##의회/NNG
복귀/NNG
##키트/NNG
지표/NNG
힘들/VA
##t/SL
##금리/NNG
##녹십자/NNG
가구/NNG
##을지/EC
가량/NNG
사/VV
일시/NNG
셈/NNG
이용자/NNP
부사장/NNG
##법인/NNG
##m/SL
멤버/NNG
##이/NR
직전/NNG
사모/NNG
부상/NNG
공화/NNG
마쳤/VV+EP
##18/SN
어촌/NNG
##져/XSV+EF
경신/NNG
확장/NNG
토론/NNG
등장/NNG
##광역시/NNG
넘어섰/VV+EP
강원/NNP
캐릭터/NNG
수칙/NNG
##회/NNG
##야구/NNG
최대한/NNG
불가피/XR
##매수/NNG
노동자/NNG
집값/NNG
##공헌/NNG
성/NNG
##식의/NNG
사이트/NNG
가입/NNG
근거/NNG
##자치/NNG
##식품/NNG
##시청/NNG
네/IC
제재/NNG
##비용/NNG
실패/NNG
신사업/NNG
분리/NNG
급등/NNG
얼마나/MAG
티켓/NNG
##벤/NNG
##대학교/NNG
비슷/XR
행위/NNG
##전문/NNG
##미/NNG
##보호/NNG
##사고/NNG
##환자/NNG
강의/NNG
접촉자/NNG
종료/NNG
상승세/NNG
##골프/NNG
장비/NNG
면접/NNG
디자인/NNG
공정/NNG
길/NNG
##sportsseoul/SL
예/IC
##언스/NNP
아/IC
최저/NNG
##00/SN
##드/NNG
중구/NNG
셰프/NNP
젊/VA
온스/NNG
##비대/VV
노래/NNG
지사/NNG
참가자/NNG
불법/NNG
인증/NNG
##연맹/NNG
통해서/VV+EC
##주간/NNBC
5000/SN
필수/NNG
IT/SL
인하/NNG
뛰/VV
코리아/NNP
다르/VA
아시아나항공/NNP
##13/SN
##다만/VCP+EC
축제/NNG
양/NNG
조달/NNG
끌/VV
##건설/NNG
##인터넷/NNG
성적/NNG
##해서/XSA+EC
빅/NNG
시리즈/NNG
거부/NNG
매체/NNG
뉴질랜드/NNP
검찰/NNG
##산의/NNG
##으로서/JKB
주니어/NNG
##국민/NNG
알/NNG
약세/NNG
##당의/NNG
영화제/NNG
걸/NP+JKO
##임/VCP+ETN
보험/NNG
데뷔/NNG
골프/NNG
##께서/JKS
##포스트/NNG
##여름/NNG
##쇼핑/NNG
지연/NNG
의혹/NNG
GO/SL
손님/NNG
##기금/NNG
##건강/NNG
중/NNB
코닥/NNP
개별/NNG
당기/NNG
전수/NNG
차량/NNG
##역량/NNG
모르/VV
생태/NNG
각국/NNG
이미지/NNG
증가세/NNG
트윗/NNG
##GOTTA/SL
가진/VV+ETM
##박람회/NNG
채/MAG
예측/NNG
연방/NNG
##질/XSN
##벤처/NNG
인천시/NNP
해도/VV+EC
그쳤/VV+EP
분류/NNG
종목/NNG
자국/NNG
처벌/NNG
평소/NNG
##지난/VV+ETM
원장/NNG
##연구소/NNG
##화학/NNG
##마을/NNG
##과/NNG
상무/NNG
모색/NNG
특정/NNG
갖추/VV
##세요/EP+EF
경고/NNG
##창출/NNG
##주년/NNBC
앉/VV
##31/SN
협조/NNG
필리핀/NNP
완치/NNG
##감독/NNG
관람객/NNG
기분/NNG
막/NNG
##테크/NNP
##네/XSN
물/NNG
##북/NNP
에이/NNG
존재/NNG
##점/NNBC
##16/SN
빠른/VA+ETM
금리/NNG
##행정/NNG
뮤지컬/NNG
##공장/NNG
노인/NNG
부탁/NNG
캠핑/NNG
선언/NNG
##제보/NNG
##질의/NNG
##척/NNBC
##안/MAG
##인의/NNG
##축구/NNG
##진단/NNG
측면/NNG
대안/NNG
국적/NNG
지금/MAG
##의원/NNG
선진국/NNG
특성/NNG
매각/NNG
##지침/NNG
출항/NNG
##대학/NNG
생/XPN
어/IC
선제/NNG
단/MM
CBS/SL
분산/NNG
지목/NNG
집합/NNG
종식/NNG
비즈니스/NNG
코/NNG
밥/NNG
이탈리아/NNP
##효과/NNG
앞둔/VV+ETM
##계의/NNG
##합니다/XSA+EF
불편/NNG
덕분/NNG
##민/NNP
들어가/VV
##D/SL
대/VV
연내/NNG
순이익/NNG
예매/NNG
##측/NNB
##선의/NNG
보인다/VV+EC
##15/SN
된다/VV+EC
언제/NP
깊/VA
열심히/MAG
두기/NNG
여론/NNG
설정/NNG
##된/VV+ETM
컸/VA+EP
매일/NNG
##쇼/NNG
총/MM
세인트/NNP
온/MM
##나가/VX
라이브/NNP
베트남인/NNP
광주시/NNP
##청/NNG
##신세계/NNG
충격/NNG
세대/NNG
가속/NNG
##카드/NNG
시각/NNG
베이징/NNP
콘서트/NNG
살/VV
35/SN
##회장/NNG
역/NNG
가동/NNG
##판정/NNG
미만/NNG
전력/NNG
##먼/VA+ETM
가정/NNG
신장/NNG
밝히/VV
마을/NNG
넣/VV
연령/NNG
##면서도/EC
www/SL
활력/NNG
맞춰/VV+EC
음식점/NNG
##지구/NNG
##용품/NNG
그것/NP
전쟁/NNG
신한/NNP
대체/NNG
WHO/SL
600/SN
수학/NNG
체온/NNG
##실/EP+ETM
KBS/SL
승리/NNG
남/NNG
강한/VA+ETM
##온/VX+ETM
답변/NNG
전용/NNG
판/NNG
정기/NNG
특징/NNG
설계/NNG
향상/NNG
##요/JX
원인/NNG
냈/VV+EP
상권/NNG
대한항공/NNP
하향/NNG
야외/NNG
##됨/XSV+ETN
##란/JX
##시켰/XSV+EP
45/SN
##필드/NNG
이외/NNG
황정민/NNP
쏟/VV
중점/NNG
##가스/NNG
##자금/NNG
주력/NNG
##운용/NNG
작용/NNG
##상자/NNG
89/SN
##수익/NNG
종사자/NNG
됩니다/VV+EF
포럼/NNG
객실/NNG
도내/NNP
이어졌/VV+EP
요즘/NNG
만드/VV
오/NR
##나/VV
##야/JX
청구/NNG
##해진/XSA+EC+VX+ETM
매주/NNG
단지/NNG
풀이/NNG
##려면/EC
외환/NNG
원유/NNG
신생/NNG
휴가철/NNG
가사/NNG
촉구/NNG
느끼/VV
##진/XSA+ETM
본부/NNG
충남/NNP
충분/XR
계정/NNG
면역/NNG
찍/VV
실내/NNG
일단/MAG
선물/NNG
스/IC
개방/NNG
##패/NNG
##해/NNG
전역/NNG
단기/NNG
이송/NNG
##물/NNG
효능/NNG
시청자/NNG
##방/NNG
북미/NNP
##종의/NNG
청와대/NNP
##드리/VX
##인지/VCP+EC
어디/NP
후원/NNG
##아/IC
##500/SN
54/SN
##재료/NNG
부채/NNG
무증상/NNG
##노인/NNG
현안/NNG
"(/SY
꼭/MAG
태국/NNP
##제주/NNP
발급/NNG
유가/NNG
최다/NNG
양산/NNG
##라도/EC
그만큼/MAG
거론/NNG
##마스크/NNG
##혁신/NNG
훨씬/MAG
##donga/SL
이사장/NNG
접근/NNG
펼치/VV
84/SN
2015/SN
중순/NNG
##사/NR
경계/NNG
보급/NNG
##차례/NNG
관내/NNG
##하우스/NNP
##언/VV+ETM
한화/NNG
분명히/MAG
로이터/NNP
인정/NNG
말/VV
국경/NNG
##려/EC
##반의/NNG
##분의/NNG
강하/VA
##반장/NNG
##동기/NNG
토대/NNG
##누구/NP
부통령/NNG
알리/VV
의결/NNG
도/NNG
나올/VV+ETM
최신/NNG
성장세/NNG
썼/VV+EP
##줄/VX+ETM
해수부/NNG
plus/SL
편의/NNG
이어질/VV+ETM
전투/NNG
##임대차/NNG
사고/NNG
내다봤/VV+EP
직무/NNG
내렸/VV+EP
부여/NNG
##주민/NNG
대중/NNG
##주일/NNBC
새로/MAG
##말/NNG
잠정/NNG
##긴/ETN+JX
##감/XSN
노컷뉴스/NNP
오랜만/NNG
##ytn/SL
##모델/NNG
인용/NNG
에/IC
책/NNG
지지/NNG
2023/SN
##백신/NNG
박인비/NNP
##남/NNG
제고/NNG
오피스/NNP
##상공/NNG
##발전/NNG
##순이익/NNG
중증/NNG
그대로/MAG
##뉴딜/NNG
##CBS/SL
여건/NNG
지도/NNG
##시켜/XSV+EC
배경/NNG
총회장/NNG
총회/NNG
세입자/NNG
물품/NNG
장점/NNG
##26/SN
나눠/VV+EC
##오/VV
##운동/NNG
전해졌/VV+EC+VX+EP
흑자/NNG
네트워크/NNG
낼/NNG
살펴보/VV
수원/NNP
힘입/VV
싱글/NNG
##14/SN
심사/NNG
선수단/NNG
##존의/NNG
느낌/NNG
##진/VX+ETM
들어갔/VV+EP
성추행/NNG
베니스/NNP
체제/NNG
##거래소/NNG
위협/NNG
##‘/SY
백악관/NNG
국내외/NNG
##강/NNG
지인/NNG
열린다/VV+EF
그간/NNG
벌이/VV
불안/NNG
##인데요/VCP+EF
대만/NNP
자율/NNG
청약/NNG
##약품/NNG
##에스/NNG
병행/NNG
어르신/NNG
차등/NNG
##앱/NNG
상용/NNG
##공간/NNG
##두/VV
지난주/NNG
한시/NNG
형성/NNG
모아/VV+EC
컴백/NNG
최/NNP
상영/NNG
부대/NNG
41/SN
##티/NNG
##내/NNB
뉴/NNG
KPGA/SL
능력/NNG
##박의/NNG
믿/VV
대거/MAG
산/NNG
긴/VA+ETM
##은데/EC
##5131/SN
나누/VV
요리/NNG
구/NNG
학원/NNG
팔/VV
##수요/NNG
##아동/NNG
##가상/NNG
##IT/SL
##산/XSN
전담/NNG
술/NNG
##밖/NNG
##해졌/XSA+EC+VX+EP
신경/NNG
시원/XR
##‧/SY
노사/NNG
동일/NNG
관광지/NNG
##치/XSN
부작용/NNG
##시킬/XSV+ETM
##과제/NNG
구입/NNG
##어도/EC
##컵/NNG
소폭/NNG
레알/NNP
아주/MAG
결합/NNG
##없이/MAG
나선/NNG
아버지/NNG
##에너지/NNG
##http/SL
의장/NNG
마친/NNP
감면/NNG
##구의/NNG
부양책/NNG
실현/NNG
건물/NNG
##백/NR
##명회/NNG
측정/NNG
##외국인/NNG
중소/NNG
임원/NNG
##로운/XSA+ETM
작가/NNG
투표/NNG
챔피/NNP
반복/NNG
허위/NNG
호소/NNG
체크/NNG
손해/NNG
##경영자/NNG
배송/NNG
충분히/MAG
우주/NNG
진료/NNG
고령/NNG
##이나마/JX
##32/SN
##러/EC
승선/NNG
##체육관/NNG
##자/EF
장르/NNG
순위/NNG
##카/NNG
구/NR
잃/VV
구속/NNG
힐링/NNG
현/NNG
시중/NNG
수상/NNG
##공급/NNG
##조원/NNG
■/SY
보냈/VV+EP
다수/NNG
##랩/NNG
보완/NNG
장학금/NNG
천/NR
##객의/NNG
##방안/NNG
##sbs/SL
선내/NNG
봉사/NNG
##협의회/NNG
유명/NNG
제보/NNP
본인/NNG
흥행/NNG
노조/NNG
판매가/NNG
설문/NNG
신설/NNG
##사이언스/NNG
##가족/NNG
통제/NNG
권한/NNG
해리스/NNP
이필모/NNP
##분야/NNG
식사/NNG
선사/NNG
늘어날/VV+ETM
##그램/NNG
CNBC/SL
전개/NNG
요소/NNG
##북한/NNP
월/NNG
38/SN
풀/VV
선임/NNG
보건소/NNG
애플/NNP
악/NNG
##노동/NNG
연일/NNG
성인/NNG
##후/NNG
##처/NNG
토론회/NNG
##취재/NNG
강원도/NNP
##예술/NNG
난/NP+JX
##영화/NNG
##비상/NNG
##치료/NNG
##줬/VX+EP
공격/NNG
어려울/VA+ETM
##정의/NNG
점유/NNG
##엔터/NNP
비난/NNG
버스/NNG
이래/VA+EC
##실장/NNG
##론/XSN
사흘/NNG
##달러/NNG
러닝/NNG
수석/NNG
삶/VV
급격히/MAG
지친/NNG
성명/NNG
##검역소/NNG
광고/NNG
나선다/VV+EF
소집/NNG
확충/NNG
중간/NNG
##2000/SN
감축/NNG
명의/NNG
##M/SL
##분/NNB
가수/NNG
##국내/NNG
특수/NNG
##전자/NNG
##수습/NNG
기업인/NNG
나눔/VV+ETN
늘리/VV
##WHO/SL
다저스/NNP
##진/NNG
##갔/VV+EP
신세계/NNG
##야/VCP+EF
브라우저/NNG
격차/NNG
만료/NNG
##놓/VX
이행/NNG
##책/NNG
##오프라인/NNG
권/NNG
##변화/NNG
농협/NNG
##가의/NNG
벤처/NNG
내린/VV+ETM
입/VV
남양주시/NNP
##“/SSO
도주/NNG
##기사/NNG
보안/NNG
400/SN
삶/NNG
국무/NNG
마이크/NNG
##경영/NNG
컨설팅/NNG
격려/NNG
도서관/NNG
적/NNG
양사/NNG
##kyunghyang/SL
복합/NNG
플레이/NNG
참/MAG
부정/NNG
미리/MAG
전해/VV+EC
동료/NNG
65/SN
##주가/NNG
아프리카/NNP
고통/NNG
기억/NNG
수용/NNG
상당히/MAG
출장/NNG
떨어진/VV+ETM
##50/SN
##기의/NNG
자기/NP
조선/NNP
##소서/EC
협/NNG
뛰어난/VA+ETM
##당/NNG
한미/NNG
당분간/MAG
결혼/NNG
##느냐/EC
농/NNG
##부처/NNG
##근로자/NNG
아스트라/NNP
듯/NNB
야구/NNG
당장/NNG
##대출/NNG
##부채/NNG
단순/NNG
##지사/NNG
농가/NNG
피해자/NNG
가입자/NNG
##골/NNG
부회장/NNG
원내대표/NNP
##팩/NNG
##앤/NNG+JX
평화/NNG
방학/NNG
산하/NNG
직장/NNG
결제/NNG
##다/VCP+EC
느낄/VV+ETM
그때/NNG
##문/NNG
거듭/MAG
독립/NNG
조선일보/NNP
이른바/MAJ
정무/NNG
##운영/NNG
문체/NNG
##이닝/NNG
##드/NNP
블룸버그/NNP
올림픽/NNP
##취약/NNG
##킹덤/NNP
㈜/SY
가까운/VA+ETM
원정/NNG
##루/JKB
감시/NNG
##도/NNG
주의/NNG
e/SL
##일자리/NNG
늦/VA
##부장/NNG
경로/NNG
CTA/SL
리/NNP
##체육/NNG
압박/NNG
##경연/NNG
출국/NNG
회사채/NNG
탑승/NNG
쇼핑/NNG
##송/NNP
##문서/NNG
##쓴/VV+ETM
##창업/NNG
걸렸/VV+EP
정박/NNG
##위험/NNG
집행/NNG
숫자/NNG
58/SN
일환/NNG
동의/NNG
교회/NNG
정확/NNG
기초/NNG
사이버/NNG
마이/NNP
교류/NNG
유관/NNG
세금/NNG
코스피/NNP
대면/NNG
##천억/NR
##타임스/NNG
대처/NNG
PC/SL
정신/NNG
##경남/NNP
폐업/NNG
부산시/NNP
52/SN
이용한/NNP
##팀장/NNG
동반/NNG
##회복/NNG
알려/VV+EC
게시/NNG
./SY
##노조/NNG
##유지/NNG
당일/NNG
##발생/NNG
지분/NNG
150/SN
##개소/NNBC
##사용/NNG
화웨이/NNP
##리포트/NNG
인공/NNG
소리/NNG
부처/NNG
편성/NNG
2011/SN
만/NR
아/VV
본/MM
블루/NNP
월북/NNG
##체제/NNG
##시험/NNG
짧/VA
남북/NNP
##오/NR
보건부/NNP
##자는/ETM
##CEO/SL
46/SN
##회담/NNG
원/IC
서부/NNG
자녀/NNG
##준비/NNG
동맹/NNG
약물/NNG
김주형/NNP
kjhpress/SL
켈리/NNP
##데/NNB
불리/VV
유전자/NNG
숲/NNG
##40/SN
##으로써/JKB
검증/NNG
##와/VV+EC
##4000/SN
계열사/NNG
맞이/XR
##콘텐츠/NNG
세계일보/NNP
외교부/NNP
마스터스/NNP
박정민/NNP
강행/NNG
##시가/NNG
항의/NNG
강제/NNG
##점검/NNG
심화/NNG
축구/NNG
이것/NP
공사/NNG
##택지/NNG
법인/NNG
유휴/NNG
##공단/NNG
강세/NNG
엣지/NNG
##77/SN
72/SN
갖춘/VV+ETM
무관/NNG
지출/NNG
곧/MAG
바람/NNG
##플/NNG
들/XSN
##휴직/NNG
51/SN
예고/NNG
본회의/NNG
MBC/SL
##부지/NNG
##?/SY
추이/NNG
##드린다/VV+EC
##총회/NNG
##단백질/NNG
##공연/NNG
이곳/NP
##진흥/NNG
가전/NNG
##인구/NNG
##낙원/NNG
##량/NNG
##잘/MAG
잇따라/VV+EC
시선/NNG
상금/NNG
예술/NNG
등판/NNG
##위의/NNG
궁금/XR
쓴/VV+ETM
담긴/VV+ETM
구분/NNG
포기/NNG
릴레이/NNG
행정명령/NNP
##박스/NNG
전혀/MAG
소외/NNG
##악의/NNG
보입니다/VV+EF
##바이오팜/NNG
분명/MAG
##단장/NNG
체감/NNG
한은/NNG
면/NNG
담호/NNG
##소장/NNG
유치원/NNG
2013/SN
모으/VV
##EU/SL
장면/NNG
연습/NNG
북/NNP
##박/NNP
서류/NNG
이스타항공/NNP
드라마/NNG
관측/NNG
##신/EP+ETM
권역/NNG
기후/NNG
지구/NNG
KLPGA/SL
메뉴/NNG
소요/NNG
##영화제/NNG
##등록/NNG
법률/NNG
한계/NNG
정규/NNG
순간/NNG
보고/NNG
##적자/NNG
만큼/JKB
##능력/NNG
오래/MAG
그래도/VV+EC
외교관/NNG
##됐으며/XSV+EP+EC
##드릴/VX+ETM
##아의/NNG
입소/NNG
단독/NNG
묻/VV
##3000/SN
자격/NNG
##지금/NNG
초반/NNG
살바도르/NNP
선호/NNG
한국은행/NNP
##사랑/NNG
직장인/NNG
마이너스/NNG
##화폐/NNG
##CSI/SL
달러화/NNG
##판매/NNG
헝가리/NNP
##제약/NNG
##국제공항/NNG
##치/XSA+EC
news/SL
HDC/SL
변/NNG
토요일/NNG
3000/SN
표/NNG
우즈베키스탄/NNP
진정/NNG
만약/NNG
##표/NNG
##200/SN
여당/NNG
##성의/NNG
마드리드/NNP
갈/VV+ETM
##대응/NNG
모이/VV
##호/NNG
왕/NNG
##시/NNB
발휘/NNG
합동/NNG
##과장/NNG
품목/NNG
정리/NNG
착수/NNG
변형/NNG
얼굴/NNG
왜/MAG
##노/NNP
이중/NNG
질병/NNG
##생명/NNG
##마트/NNG
위원/NNG
워낙/MAG
##관의/NNG
적정/NNG
##있/VV
취하/VV
여/NP
재활/NNG
##학년/NNG
##싱/NNP
##예약/NNG
음/IC
최소한/NNG
영입/NNG
김해/NNP
정식/NNG
##구/VCP+EC
##렌디/NNP
아들/NNG
심의/NNG
자동/NNG
##글로벌/NNG
##면/NNG
이웃/NNG
만/JX
질병관리본부/NNP
##물질/NNG
120/SN
##급여/NNG
재산/NNG
롯데월드/NNP
한층/MAG
아티스트/NNG
준/NNP
##인원/NNG
출퇴근/NNG
라스베이거스/NNP
만들/VV+ETM
##7000/SN
신곡/NNG
##사이트/NNG
출발/NNG
직후/NNG
수급/NNG
##거래/NNG
투약/NNG
도심/NNG
인종/NNG
##국공/NNG
##자연/NNG
##이나/JX
이정재/NNP
##라면/EC
예전/NNG
##Copyright/SL
##인셉션/NNP
##월드/NNG
##방학/NNG
동아/NNP
43/SN
##22/SN
##감시/NNG
거뒀/VV+EP
사유/NNG
##본/VV+ETM
##관중/NNG
##는다는/ETM
DB/SL
써/VV+EC
클라우드/NNP
##라면/VCP+EC
##데시/NNP
후속/NNG
##장비/NNG
모았/VV+EP
자생/NNG
##경쟁/NNG
출범/NNG
자가/NNG
##현장/NNG
길/VA
##제로/NNG
##니/VCP+EC
의문/NNG
All/SL
##B/SL
영역/NNG
컨퍼런스/NNG
이적/NNG
지식/NNG
마치/VV
##학과/NNG
동/MM
보인/NNG
##홈/NNG
편리/NNG
##벅스/NNP
##100/SN
##미디어/NNG
##→/SY
본사/NNG
넘어서/VV
##중앙일보/NNP
주거/NNG
##kmib/SL
파트너/NNG
##타임스/NNP
##시기/NNG
##상금/NNG
국회의원/NNG
시급/XR
항공편/NNG
올린/NNP
경주/NNP
공백/NNG
##방지/NNG
##북/NNG
##진영/NNG
##향후/NNG
건전/XR
##전염병/NNG
##비르/NNG
자주/MAG
입지/NNG
##해져/XSA+EC+VX+EC
꼽힌다/VV+EF
저렴/XR
랴오닝/NNG
주기/NNG
##사태/NNG
인권/NNG
김광현/NNP
##정원/NNG
통상/NNG
임/NNP
##강철/NNG
##엠/NNG
동월/NNG
##휴양림/NNG
##구청장/NNG
통보/NNG
페트로/NNP
##현/NNG
실행/NNG
##프로그램/NNG
테스트/NNG
##"[/SY
이게/NP+JKS
올려/VV+EC
##대구/NNP
떠나/VV
조언/NNG
넓/VA
이뤄/VV+EC
배지현/NNP
##84/SN
출입/NNG
바뀌/VV
##돼야/XSV+EC
고/EC
##미래/NNG
##8000/SN
전일/NNG
##chosunbiz/SL
운행/NNG
손영래/NNP
##항공/NNG
##보안법/NNG
##편/NNBC
원가/NNG
##아도/EC
경기장/NNG
정우성/NNP
카자흐스탄/NNP
NHK/SL
##분석/NNG
2008/SN
초등/NNG
##cbs/SL
수강/NNG
재미있/VA
챌린지/NNG
휴식/NNG
열렸/VV+EP
##예비군/NNG
사무실/NNG
학부모/NNG
##경북/NNP
선두/NNG
박람회/NNG
##K/SL
나타내/VV
완전히/MAG
##khan/SL
점포/NNG
75/SN
검색/NNG
##안보/NNG
##"]/SY
용역/NNG
인건비/NNG
##이용료/NNG
찬성/NNG
제주도/NNP
##개선/NNG
##MBN/SL
동물/NNG
어린/VA+ETM
만한/NNG
##역의/NNG
##으니까/EC
타이틀/NNG
아이디어/NNG
##키로/XSV+ETN+JKB
압도/NNG
##교회/NNG
현역/NNG
모여/VV+EC
저소득층/NNG
데일리안/NNP
둔화/NNG
무역/NNG
합류/NNG
겨울/NNG
체육/NNG
이루/VV
##만큼/JKB
만난/VV+ETM
##앤드/NNG
치열/NNG
자회사/NNG
기조/NNG
##imaeil/SL
연초/NNG
이용객/NNG
회복세/NNG
##바이저/NNP
chosunbiz/SL
##감소/NNG
고령화/NNG
올라/VV+EC
##긴급/NNG
##CES/SL
상원/NNG
##체/NNG
##홍콩/NNP
푸르지오/NNP
베를린/NNP
━/SY
##부양책/NNG
외식/NNG
융합/NNG
##포/NNG
수산/NNG
송/NNP
김포/NNP
##외입/NNG
##유/NNP
전원/NNG
GS/SL
눈길/NNG
##사가/NNG
##봉사/NNG
##segye/SL
##인가/VCP+EF
해양수산부/NNP
약/MM
생기/VV
##된다고/XSV+EC
조심/NNG
##속/NNG
유효/NNG
들려/VV+EC
신선/XR
년/NNG
들어오/VV
라인업/NNG
띄/VV
##전화/NNG
상임위/NNP
투수/NNG
입점/NNG
NH/SL
57/SN
생일/NNG
##C/SL
아래/NNG
소셜/NNG
##동의/NNG
동선/NNG
S/SL
##일본/NNP
##장애/NNG
##이용/NNG
##사망/NNG
공매도/NNG
##시각/NNG
한때/NNG
남기/VV
##내/NP
마시/VV
북항/NNG
지켜/VV+EC
생명/NNG
살리/VV
I/SL
창원/NNP
##난/NP+JX
치르/VV
##신고/NNG
##나와/VV+EC
##의약품/NNG
보상/NNG
##예방/NNG
##신청/NNG
##는가/EC
대기/NNG
윤종신/NNP
선보인다/VV+EF
##지/VCP+EC
코오롱/NNP
야당/NNG
##습니까/EF
##루이스/NNP
##셀/NNG
몰리/VV
숙박/NNG
##장/NNBC
공론/NNG
##휴가/NNG
영어/NNG
사무국/NNG
채권/NNG
##세/NNG
##회분/NNG
돌아가/VV
따라서/VV+EC
늘/MAG
##는다고/EC
##70/SN
인물/NNG
무산/NNG
패션/NNG
불라/NNP
##82/SN
##지출/NNG
렘/NNP
유로/NNG
등록금/NNG
모/NP
언어/NNG
##호텔/NNG
비행기/NNG
수준의/NNG
##죠/VCP+EF
##대가/NNG
##내의/NNP
특조/NNG
학대/NNG
##기록/NNG
예년/NNG
정하/VV
##해양/NNG
##행위/NNG
##체류/NNG
##오/VCP+EC
노출/NNG
##",/SY
삼/NR
전염병/NNG
했었/VV+EP
##나의/NNG
적절/XR
59/SN
혼자/NNG
폭발/NNG
미쳤/VV+EP
취재/NNG
건립/NNG
불안감/NNG
사기/NNG
만기/NNG
상위/NNG
##태의/NNG
##조선/NNP
상호/NNG
토트넘/NNP
총장/NNG
##쯤/XSN
##질/VX+EC
등급/NNG
블/NNG
##최대/NNG
##해도/XSV+EC
양국/NNG
촉진/NNG
안성/NNG
##수준/NNG
##다음/NNG
콘셉트/NNG
펼쳤/VV+EP
별로/MAG
삼다수/NNP
지나/VV
설/NNG
##직원/NNG
##연전/NNG
과연/MAG
구현/NNG
조처/NNG
##dailian/SL
##데일리안/NNP
기다리/VV
고발/NNG
##조차/JX
휴직/NNG
드라이브/NNG
오/NNG
##침체/NNG
##다면서/EC
면담/NNG
##노위/NNG
리뷰/NNP
##인과/NNG
곳곳/NNG
회원국/NNG
민/NNP
##액셀러레이터/NNG
단위/NNG
##통화/NNG
##였/EP
마켓/NNP
지시/NNG
도민/NNG
확실/XR
##면역/NNG
만족/NNG
##광부/NNG
##라인/NNG
아마/MAG
##마켓/NNP
MLB/SL
간부/NNG
##chosun/SL
돌봄/VV+ETN
##COVID/SL
##순위/NNG
##재의/NNG
공유/NNP
의해/VV+EC
승객/NNG
열/NR
구미/NNG
GDP/SL
한국인/NNG
무더위/NNG
##스러운/XSA+ETM
공약/NNG
낮추/VV
##울산/NNP
##협의/NNG
##부동산/NNG
##청소년/NNG
##포티/NNG
안심/NNG
열기/NNG
##음성/NNG
입증/NNG
##전/MM
행보/NNG
높였/VV+EP
##해의/NNG
파트/NNG
행정부/NNG
##S/SL
호응/NNG
피하/VV
##주인/NNG
##naver/SL
쉬/VV
"'/SY
실태/NNG
다롄/NNP
##핑장/NNP
##러시아/NNP
##어의/NNG
77/SN
기내/NNG
편안/NNG
피치/NNG
##인식/NNG
정책금융/NNP
##케어/NNG
특화/NNG
일각/NNG
생계/NNG
박사/NNG
게재/NNG
개장/NNG
천안/NNP
관점/NNG
자치/NNG
제정/NNG
유럽연합/NNP
##GC/SL
재미/NNG
140/SN
호남/NNG
##포스/NNG
##교통/NNG
향한/VV+ETM
##부/NNBC
##도/NNBC
삭제/NNG
억제/NNG
대외/NNG
판로/NNG
##지주/NNG
##장기/NNG
후보지/NNG
변수/NNG
농기계/NNG
##위생/NNG
나타냈/VV+EP
##권의/NNG
##콜라스/NNP
직업/NNG
이뤄졌/VV+EC+VX+EP
63/SN
도출/NNG
800/SN
의회/NNG
##장학금/NNG
내수/NNG
##캠프/NNG
바우처/NNG
##무역/NNG
국방/NNG
##는데도/EC
##담당/NNG
여유/NNG
점차/MAG
예/NNG
적합/XR
98/SN
##총/MM
##회의실/NNG
저녁/NNG
어려워/VA+EC
56/SN
재발/NNG
클럽/NNG
한경/NNP
##농협/NNG
##공동/NNG
보낸/VV+ETM
##응답/NNG
##셋/NR
장중/NNG
photo/SL
첨단/NNG
배제/NNG
##전환/NNG
수술/NNG
엘/NNG
입찰/NNG
대전환/NNG
##마이/NNP
내일/NNG
비전/NNG
##상담/NNG
테슬라/NNP
##된다는/XSV+ETM
병상/NNG
##박/NNBC
손익/NNG
##마진/NNG
##러닝/NNG
출처/NNG
##산/NNG
중독/NNG
##쯤/NNG
추적/NNG
자문/NNG
나설/VV+ETM
##에요/EF
##약국/NNG
##인사/NNG
부르/VV
33/SN
##노동조합/NNG
##회관/NNG
##농업/NNG
PCR/SL
##볼/VX+ETM
##hankookilbo/SL
##물의/NNG
멜로디/NNG
세웠/VV+EP
존/NNP
상시/NNG
읽/VV
##을까/EF
코미디/NNG
통일부/NNG
##확진/NNG
##해질/XSA+EC
서민/NNG
이어진/VV+ETM
충족/NNG
##경기장/NNG
##마저/JX
##연합/NNG
국유/NNG
##반도체/NNG
일주일/NNG
내놨/VV+EP
##74/SN
중계/NNG
##선거/NNG
##노동부/NNG
씨/IC
남승민/NNP
##청장/NNG
##300/SN
##소비자/NNG
실직/NNG
37/SN
전부/NNG
불어넣/VV
뭐/NP
개성/NNG
##진과/NNG
즉시/NNG
##인가/VCP+EC
법제/NNG
몬스터/NNP
고/XPN
휴관/NNG
##85/SN
##사례/NNG
##준/NNP
따뜻/XR
사업자/NNG
의도/NNG
##날/NNG
선별/NNG
##지만/VCP+EC
KBO/SL
LPGA/SL
지점/NNG
나눴/VV+EP
##량의/NNG
##거리/NNG
정규직/NNG
생겼/VV+EP
##물량/NNG
##다/MAG
##2018/SN
##져/VX+EC
C/SL
##성/NNG
검역소/NNG
낸/NNP
입주/NNG
##왼쪽/NNG
##소프트/NNG
시국/NNG
##다른/MM
##계획서/NNG
내리/VV
형식/NNG
연락/NNG
모/MM
chosun/SL
##영업/NNG
동아일보/NNP
##료의/NNG
##초/NNB
참/NNG
무려/MAG
##SNS/SL
##44/SN
외무/NNG
53/SN
서/VV+EC
걸/VV
##신/NNG
선생/NNG
##해외/NNG
혹은/MAJ
##90/SN
##거래일/NNG
해상/NNG
##듯/EC
사각지대/NNG
노/NNP
비/NNG
거치/VV
##약식/NNG
증설/NNG
쌓/VV
유엔/NNP
대우건설/NNP
택배/NNG
여름철/NNG
국산/NNG
BSI/SL
##어/EF
절대/NNG
송미영/NNP
##생의/NNG
창업자/NNG
47/SN
##파티/NNG
사무/NNG
태/NNG
토크/NNG
잠시/NNG
##진/EC+JX
##관련/NNG
독감/NNG
자사/NNG
##시티/NNG
자릿수/NNG
시너지/NNG
##SK/SL
강사/NNG
추경/NNG
늘려/VV+EC
다낭/NNP
패키지/NNG
사과/NNG
대해선/VV+EC+JX
##특히/MAG
##종재/NNG
민주주의/NNG
##규제/NNG
능동/NNG
실/NNG
##다시/MAG
쪽/NNB
##차별/NNG
호흡기/NNG
42/SN
##한다면/XSV+EC
고속도로/NNP
##800/SN
급락/NNG
위탁/NNG
##시간/NNBC
범죄/NNG
딜리버리/NNG
##요금/NNG
##재산/NNG
핵/NNG
보건복지부/NNP
뮤직/NNG
알려진/VV+EC+VX+ETM
기소/NNG
##스포츠서울/NNP
##6000/SN
수시로/MAG
걸리/VV
조합/NNG
##낸/VX+ETM
유은혜/NNP
헌신/NNG
상정/NNG
##복제/NNG
상업/NNG
##설의/NNG
국면/NNG
##업종/NNG
CJ/SL
위로/NNG
부각/NNG
##net/SL
사업장/NNG
##하로/NNG
신체/NNG
##축제/NNG
상향/NNG
연설/NNG
임기/NNG
챔피언십/NNP
##값/NNG
중동/NNP
임대차/NNG
##한테/JKB
##오후/NNG
폭염/NNG
무디스/NNP
회생/NNG
매입/NNG
##비디오/NNG
짐/NNG
##KBS/SL
방과/NNG
임명/NNG
밝/VA
일손/NNG
대중교통/NNG
달/VV
가졌/VV+EP
잊/VV
구성원/NNG
##TF/SL
도약/NNG
국비/NNG
웃/VV
인정받/VV
내국인/NNG
##AP/SL
rights/SL
reserved/SL
금감원/NNP
##제이스/NNP
250/SN
밀접/NNG
##듀/NNP
보통/NNG
합리/NNG
##어린이/NNG
졸업/NNG
##게임/NNG
##예산/NNG
ICT/SL
소수/NNG
백화점/NNG
##소의/NNG
##공공/NNG
##안타/NNG
입법/NNG
방호복/NNG
##간/NNB
##학습/NNG
##미약/NNG
모범/NNG
폼페이/NNG
말린스/NNP
즉/MAJ
연출/NNG
원양어/NNG
##1000/SN
##베트남/NNP
293/SN
드리/VV
나/VV
and/SL
##덕분/NNG
응/IC
##동안/NNG
##busan/SL
싱가포르/NNP
넘치/VV
상상/NNG
지원금/NNG
##금의/NNG
AP/SL
##고도/EC
활발/XR
쇼핑몰/NNG
MK/SL
안팎/NNG
##단/NNG
##취업/NNG
대구경북/NNP
아쉽/VA
지/VV
생과방/NNG
##공정/NNG
##강사/NNG
##구역/NNG
막대/XR
##면세점/NNG
##텍/NNG
캠/NNP
##광장/NNG
##더나/VV+EC
단축/NNG
교통/NNG
남자/NNG
125/SN
요건/NNG
##정적/NNG
해양/NNG
##협/NNG
골드만/NNP
살/NNG
처분/NNG
##고서/EC
희/NNG
##교사/NNG
선고/NNG
속출/NNG
자아냈/VV+EP
##코/NNG
부서/NNG
##mkinternet/SL
실무/NNG
##재개/NNG
바꾸/VV
##치의/NNG
비자/NNG
소위/NNG
6000/SN
##그/MM
수시/NNP
법무부/NNG
감성/NNG
##셔서/EP+EC
애/NNG
##동/NNBC
강남/NNP
인턴/NNG
donga/SL
##토/XSV+EC
도착/NNG
##석의/NNG
은성/NNG
과도/NNG
##오늘/NNG
원의/NNG
##돈/NNG
접목/NNG
2009/SN
##어스/NNG
##끼리/XSN
무더기/NNG
##실점/NNG
##진/XSV+EC+JX
##없/VA
트립/NNG
건의/NNG
높여/VV+EC
##을까/EC
대로/NNG
##건수/NNG
T/SL
공기/NNG
협회/NNG
##일/NR
엔/NNG
홍현희/NNP
세종문화회관/NNP
최고가/NNG
자영업/NNG
론/NNG
기쁘/VA
##고/VCP+EC
걷/VV
##원에/NNG
##FDA/SL
##보고/NNG
검체/NNG
근황/NNG
##면서도/VCP+EC
선배/NNG
지내/VV
여상/NNG
종/NNG
총괄/NNG
극대/NNG
나/VA
불참/NNG
밟/VV
생생/XR
양키스/NNP
美/NNG
부모/NNG
130/SN
월스트리트/NNP
##저널/NNG
치솟/VV
기타/NNG
##올림픽/NNP
##의견/NNG
##차질/NNG
그냥/MAG
그러니까/MAJ
노하우/NNG
태도/NNG
##투명/NNG
SUV/SL
선전/NNG
##컨트리클럽/NNG
하락세/NNG
88/SN
재학/NNG
원래/NNG
##버스/NNG
애초/NNG
김정은/NNP
놀이/NNG
##류/XSN
##엔/NNBC
흑인/NNG
유증/NNG
질의/NNG
##하반기/NNG
약화/NNG
코치/NNG
함소원/NNP
연극/NNG
##질환/NNG
##으니/EC
##외/NNB
들어온/VV+ETM
이뤄지지/VV+EC
##통신부/NNG
이용우/NNP
매수/NNG
별/MM
##재정부/NNG
##특별/NNG
2012/SN
느꼈/VV+EP
빠졌/VV+EP
시내/NNG
##수/NNB
시티/NNG
고위험/NNP
제휴/NNG
개편/NNG
##시킨/XSV+ETM
자극/NNG
이뤄질/VV+ETM
열/NNG
위주/NNG
만남/NNG
현재/MAG
R/SL
낙관/NNG
드러냈/VV+EP
선보였/VV+EP
가을/NNG
BBQ/SL
투숙/NNG
##증시/NNG
중기/NNG
##소비/NNG
측이/NNG
대결/NNG
산정/NNG
붙/VV
68/SN
품질/NNG
어선/NNG
강릉/NNP
상한제/NNP
##타운/NNG
##내/VV+EC
수산물/NNG
##부와/NNG
##편집/NNG
tvN/SL
알렸/VV+EP
##연합회/NNG
##전의/NNG
빌/NNP
병/NNG
싸움/NNG
한마디/NNG
##땡/NNG
안타깝/VA
직/NNG
필라델피아/NNP
창/NNG
##초의/NNP
다양/NNG
소매/NNG
밝혀/VV+EC
운항/NNG
송파구/NNP
헬스/NNG
##준/VX+ETM
농산물/NNG
쓸/VV+ETM
사정/NNG
학술/NNG
미션/NNG
동력/NNG
프리미엄/NNG
주체/NNG
나흘/NNG
남부/NNG
감당/NNG
##E/SL
##리의/NNG
##대행/NNG
인체/NNG
##세포/NNG
추격/NNG
##하나/NR
점점/MAG
캄보디아/NNP
바라보/VV
개관/NNG
표준/NNG
##로드/NNG
견조/NNG
돌잔치/NNG
##관장/NNG
삼양/NNP
선착순/NNG
단속/NNG
줄일/VV+ETM
교원/NNG
참고/NNG
##수리/NNG
간의/NNG
##행의/NNG
담겼/VV+EP
##판/NNG
원활/NNG
말라리아/NNG
물질/NNG
강렬/XR
##다면/EF
달라/VA+EC
고심/NNG
군수/NNG
##보호법/NNP
LA/SL
##후보/NNG
이겨/VV+EC
얼마/NNG
##딩/NNG
지하/NNG
커졌/VA+EC+VX+EP
##예요/VCP+EF
##사실/NNG
조합원/NNG
##잡/VV
##물품/NNG
양상/NNG
동/NNG
##금액/NNG
##대면/NNG
재판매/NNG
무증/NNG
앞선/VV+ETM
교민/NNG
향해/VV+EC
##품안/NNG
##dt/SL
조치원읍/NNP
지상/NNG
옷/NNG
그게/NP+JKS
문학/NNG
강/NNG
회/NNG
시위/NNG
##시대/NNG
남중국해/NNP
움직임/NNG
##봤/VX+EP
교대/NNG
출마/NNG
##기본/NNG
예금/NNG
##SDI/SL
##자격/NNG
##아직/MAG
외신/NNG
##팩/MAG
인플레이션/NNG
##봉/NNG
수확/NNG
##KLPGA/SL
벗어나/VV
다치/VV
가게/NNG
##부가/NNG
강연/NNG
##전남/NNP
상한/NNG
##imnews/SL
근본/NNG
내내/MAG
발현/NNG
##트윗/NNG
유형/NNG
##단지/NNG
군민/NNG
쿠팡/NNP
##wowtv/SL
자발/NNG
대/NNG
##혁명/NNG
##일/VCP+ETM
줄였/VV+EP
국/NNG
감소세/NNG
##길/NNG
갑/NNG
일방/NNG
공지/NNG
영화관/NNG
마진/NNG
기금/NNG
##프라/NNG
##퍼티/NNG
##은행장/NNG
생산량/NNG
경사/NNG
화학/NNG
긴장/NNG
##b/SL
##근로/NNG
##작업/NNG
외출/NNG
덜/MAG
정비/NNG
##두/JX
36/SN
##전국/NNG
인력난/NNG
##일보/NNG
분량/NNG
인사말/NNG
푸드/NNG
만났/VV+EP
정부서울청사/NNP
표결/NNG
위상/NNG
역학/NNG
##룸/NNG
91/SN
스트레스/NNG
물/VV
담겨/VV+EC
8000/SN
##요원/NNG
투쟁/NNG
축적/NNG
##상품권/NNG
##삭스/NNP
##루/NNG
##72/SN
무시/NNG
창작/NNG
##보증/NNG
선출/NNG
매매/NNG
##산업단지/NNP
미칠/VV+ETM
경선/NNG
##이런/MM
증권사/NNG
징계/NNG
##란/ETM
둘러싼/VV+ETM
탄생/NNG
##국회/NNG
##넷/NR
##민주/NNP
위조/NNG
##나라/NR+VCP
가맹점/NNG
철/NNG
봐/VV+EC
퇴원/NNG
제네시스/NNP
선보인/VV+ETM
복용/NNG
##확인/NNG+XSV
본다/VV+EF
용량/NNG
항상/MAG
떨어져/VV+EC
##수출/NNG
##정상/NNG
##기와/NNG
딸/NNG
주시/NNG
확/MAG
##진다/VX+EF
추후/NNG
동향/NNG
##imbc/SL
클/VA+ETM
소화/NNG
에이스/NNG
치/VV
가하/VV
견본/NNG
##출입/NNG
J/SL
관해/VV+EC
##공개/NNG
납부/NNG
##든/VCP+EC
사안/NNG
##설/NNG
강요/NNG
CNN/SL
##삼/NR
빠진/VV+ETM
##유가/NNG
##신용/NNG
해수욕장/NNG
##정비/NNG
바라/VV
##몰/NNG
고도/NNG
재원/NNG
났/VV+EP
음식물/NNG
누릴/NNP
##주행/NNG
##조달/NNG
##대전/NNP
음원/NNG
2014/SN
##직/NNG
FA/SL
자본/NNG
엄격/XR
##구/EC
육박/NNG
##방과/NNG
##문제/NNG
스타일/NNG
##중계/NNG
##사인/NNG
방해/NNG
##에스티/NNG
##지도/NNG
존슨/NNP
교직원/NNG
메/NP
불만/NNG
##황과/NNG
신명/NNG
PRESSian/SL
신임/NNG
##시당/NNG
##배달/NNG
##2019/SN
다중/NNG
##젠/NNG
##션/NNG
부품/NNG
코스/NNG
배려/NNG
기저/NNP
평/NNG
##리서치/NNG
##이상/NNG
공모전/NNG
잔디/NNG
닫/VV
##스토어/NNG
##안전망/NNG
##처리/NNG
무게/NNG
맞추/VV
변동/NNG
처한/VV+ETM
입법회/NNP
뚜렷/XR
보수/NNG
##그린/VV+ETM
##사위/NNG
쓰레기/NNG
##철도/NNG
##이동/NNG
##휴양/NNG
뽑/VV
마산/NNP
##총생산/NNP
수소/NNG
##짜리/XSN
##트리/NNG
##통계/NNG
신문/NNG
##도/EC
테마/NNG
이제/NNG
강남구/NNP
아름다운/VA+ETM
##접촉/NNG
조짐/NNG
아쉬움/NNG
증명/NNG
##냈/VX+EP
서/VV
##된다면/XSV+EC
이마트/NNP
유예/NNG
##80/SN
##65/SN
##들/VV
|/SY
##기술원/NNG
##파/NNG
##ICT/SL
경상/NNG
##전처/NNG
침해/NNG
구글/NNG
이창섭/NNP
##컴퓨팅/NNP
67/SN
기준선/NNG
폐지/NNG
법원/NNG
공연장/NNG
갤럭시/NNP
스쿨/NNG
##남부/NNG
민원/NNG
49/SN
##맞춤/VV+EC
보험료/NNG
##포럼/NNG
##전쟁/NNG
돼서/VV+EC
##표의/NNG
플로리다/NNP
주지사/NNG
##R/SL
지킬/VV+ETM
##든/EC
FT/SL
방문객/NNG
상임/NNG
간격/NNG
##기분/NNG
전형/NNG
여행사/NNG
추산/NNG
넘어선/VV+ETM
지배/NNG
##교육감/NNG
##실사/NNG
##확대/NNG
음료/NNG
수단/NNG
93/SN
86/SN
74/SN
##정자/NNG
##링/JKO
뒷받침/NNG
계산/NNG
##손/NNG
##할/VX+ETM
바다/NNG
the/SL
항공기/NNG
##냐/EF
귀/NNG
충당/NNG
##사이드/NNP
##장치/NNG
매/MM
마이/MAG
교육감/NNG
##나기/NNG
아베/NNP
탑재/NNG
산림/NNG
한반도/NNP
부과/NNG
파산/NNG
하지만/MAJ
아내/NNG
막상/MAG
##희망/NNG
##kwnews/SL
최우선/NNG
##노컷뉴스/NNP
##피/NNG
댄스/NNG
대사관/NNG
##다고/EF
벌어지/VV
개막전/NNP
증정/NNG
##99/SN
축하/NNG
법사/NNG
##사업자/NNG
다국적/NNG
##∙/SY
##면/VCP+EC
초래/NNG
대조/NNG
##현대/NNG
분쟁/NNG
실력/NNG
악재/NNG
교체/NNG
파/NNG
오마이/NNG
전세/NNG
컷/NNG
미니/NNG
이사/NNG
환율/NNG
무상/NNG
##33/SN
수수료/NNG
##크/VA
적응/NNG
과/NNG
##풀/NNG
북구/NNP
##병/NNG
4397/SN
사라진/NNP
##업무/NNG
2025/SN
태권/NNG
누리집/NNG
추첨/NNG
골/NNG
반등/NNG
##GDP/SL
갈수록/MAG
AFP/SL
73/SN
위촉/NNG
정체/NNG
저소득/NNG
여의도/NNP
찾아가/VV
등지/NNG
취재진/NNG
어떠/XR
다니/VV
훅/NNG
의정부/NNP
만전/NNG
사격/NNG
진로/NNG
BBC/SL
벤치/NNG
수원시/NNP
여름휴가/NNG
세트/NNG
##장이/XSN
연수/NNG
가질/NNG
온도/NNG
아침/NNG
머물/VV
##단과/NNG
엑세스/NNP
여행객/NNG
##88/SN
두산/NNP
##성판/NNG
유연/XR
##KB/SL
##사/VV
개념/NNG
국정/NNG
물가/NNG
하원/NNG
700/SN
연관/NNG
##형편/NNG
##더니/EC
##중의/NNG
##자고/EC
거래일/NNG
레이크/NNP
헌법/NNG
이끄/VV
싼/VA+ETM
골목/NNG
##방식/NNG
표시/NNG
필름/NNG
기구/NNG
의한/VV+ETM
##모든/MM
##기계/NNG
##훈의/NNG
사로잡/VV
상대방/NNG
##sportschosun/SL
##나갈/VX+ETM
##포스트/NNP
와서/VV+EC
줬/VV+EP
의/NNG
##파트/NNG
##즈/XSN
불가/NNG
말레이시아/NNP
##추진/NNG
도서/NNG
명단/NNG
페스티벌/NNG
퇴장/NNG
##kg/SL
##건의/NNG
플랫폼/NNG
권리/NNG
솔로/NNG
취임/NNG
경향/NNG
금요일/NNG
##49/SN
따로/MAG
이례/NNG
와중/NNG
타/VV+EC
민선/NNP
시정/NNG
2030/SN
장외/NNG
##랭킹/NNG
빠지/VV
##지대/NNG
단순히/MAG
양호/XR
타깃/NNG
공동체/NNG
##본/NNG
요양/NNG
경로당/NNG
##되/EC
##대상자/NNG
##유의/NNG
긴장감/NNG
아세안/NNP
생성/NNG
해명/NNG
##아산/NNP
새/MM
##의사/NNG
추억/NNG
터키/NNP
AMD/SL
정관용/NNP
##역사/NNG
##하의/NNG
성분/NNG
D/SL
고위/NNG
잇따르/VV
의제/NNG
##FT/SL
극/NNG
##콘택트/NNG
2024/SN
캐나다/NNP
##평균/NNG
##교류/NNG
##철/NNG
카톡/NNP
그야말로/MAG
##상태/NNG
연다/VV+EC
##현의/NNG
확실히/MAG
지자/NNP
##etnews/SL
##트레저/NNP
흥미/NNG
급여/NNG
경마/NNG
볼티모어/NNP
레드/NNP
신속히/MAG
증거/NNG
##수원/NNP
독재/NNG
앤서니/NNP
##알레르기/NNG
외곽/NNG
##수당/NNG
사인/NNG
##여분/NNG
컨/NNP
##명부/NNG
##장갑/NNG
1500/SN
##중심/NNG
##미술관/NNG
##합의/NNG
하노이/NNP
##극복/NNG
##참여/NNG
자세/NNG
##술/NNG
획득/NNG
그치/VV
##네요/EF
증진/NNG
간편/XR
마르티네스/NNP
##400/SN
##타점/NNG
선포/NNG
##되/VV
항목/NNG
##권단/NNG
루카셴코/NNP
섭취/NNG
러시아인/NNP
퍼지/VV
##할지/XSV+EC
최저치/NNG
다녀오/VV
주인공/NNG
##오전/NNG
첸/NNP
돌/NNG
지지율/NNG
##신사/NNG
실정/NNG
##평화/NNG
##목/NNG
##경찰청/NNG
##범죄/NNG
텃밭/NNG
목적/VV
##지부/NNG
곧바로/MAG
뛰어넘/VV
##할/XSA+ETM
나이/NNG
건축/NNG
연구소/NNG
##심사/NNG
추출/NNG
일문일답/NNG
에피소드/NNG
무슨/MM
##고등학교/NNG
유명/XR
자택/NNG
그럼에도/VA+ETN+JKB+JX
##에겐/JKB+JX
##경로/NNG
뜨거운/VA+ETM
##체크/NNG
##수입/NNG
##요인/NNG
##리퍼스/NNP
투명/NNG
##므로/EC
##구성/NNG
CGV/SL
부실/NNG
##부품/NNG
이어져/VV+EC
관/NNG
##교실/NNG
강점/NNG
유리/NNG
유해/NNG
경복궁/NNG
코스닥/NNG
##테르/NNG
##지표/NNG
##38/SN
손잡/VV
##모/MM
위안/NNG
##집회/NNG
순차/NNG
##롯데/NNP
##당신/NP
##메일/NNG
##너/NP
시절/NNG
##87/SN
##시리즈/NNG
##산업의/NNG
##한화/NNG
정권/NNG
중화/NNG
스태프/NNG
실외/NNG
수집/NNG
해고/NNG
혼란/NNG
##빈/NNG
화장품/NNG
전인/NNG
##독제/NNG
의대/NNG
##`/SY
로얄/NNP
##증자/NNG
간호사/NNG
상회/NNG
##주식/NNG
주당/NNG
연준/NNG+JX
##경비/NNG
일회성/NNG
##설계/NNG
라인/NNG
##ㆍ/UNKNOWN
##센트/NNBC
인도주의/NNG
##통상/NNG
아이폰/NNP
입학/NNG
##유통/NNG
후반/NNG
##청의/NNG
균형/NNG
##균형발전/NNP
원료/NNG
유소연/NNP
##전지/NNG
밀집/NNG
영남/NNP
성화/NNG
##일의/NNG
부/NNG
초/NNB
정착/NNG
##그동안/NNG
펼쳐진다/VV+EF
투자가/NNG
106/SN
92/SN
보컬/NNG
구직자/NNG
##플랫/NNG
지위/NNG
담당자/NNG
##여서/VCP+EC
동부/NNG
철강/NNG
서울대/NNP
도와/VV+EC
재단/NNG
##장소/NNG
##KPGA/SL
##마리/NNBC
짚/VV
리조트/NNG
##가이드/NNG
레스토랑/NNG
제목/NNG
들어간/VV+ETM
반환/NNG
##선발/NNG
##트/VV
##분양/NNG
##교통부/NNP
답답/XR
##여행객/NNG
랜/NNG
조항/NNG
원숭이/NNG
##Fed/SL
재판/NNG
180/SN
커머스/NNG
옵티머스/NNP
##활용/NNG
상인/NNG
개입/NNG
숨/NNG
빈/NNG
보해/NNG
의약/NNG
옮기/VV
내부/NNP
중앙은행/NNG
뿌리/NNG
평일/NNG
##600/SN
##기아차/NNP
이훈/NNG
##은데/EF
결혼식/NNG
##모임/NNG
##균형/NNG
##군수/NNG
##외의/NNG
그려/VV+EC
관전/NNG
된다는/VV+ETM
외무성/NNG
##구나/EF
##대전/NNG
캘리포니아/NNP
매칭/NNP
##영장/NNG
##이미지/NNP
홀/NNP
발맞춰/VV+EC
방어/NNG
##_/SY
아나운서/NNG
박차/NNG
단지/MAG
화성/NNG
전제/NNG
L/SL
##더라고요/EF
머리/NNG
##팝/NNG
##소독/NNG
미주/NNG
예외/NNG
챔피언/NNG
CCTV/SL
용인/NNP
##컨벤션/NNG
일원/NNG
로봇/NNG
강도/NNG
64/SN
##기능/NNG
하늘/NNG
분담/NNG
##삼다수/NNP
판결/NNG
정제/NNG
유사/NNG
워크숍/NNG
사무총장/NNG
벗어나/VV+EC
거대/NNG
국제선/NNG
수령/NNG
후문/NNG
손소/NNP
소진/NNG
##마케팅/NNG
##평등/NNG
처방/NNG
내수/NNP
선보일/VV+ETM
유상/NNG
##윤/NNG
설비/NNG
도시락/NNG
##동/NNG
포장/NNG
개학/NNG
##뱅크/NNG
##망/NNG
봉태규/NNP
서수연/NNP
##라면서/VCP+EC
레고/NNP
박훈정/NNP
##양조/NNG
형사/NNG
공격수/NNG
야간/NNG
대전/NNG
대국민/NNG
토너먼트/NNG
##발언/NNG
jebo/SL
다채/XR
##그/IC
공포/NNG
윤호/NNP
민기/NNP
아예/MAG
##의장/NNG
##드리/VV
##원단/NNG
##NIAID/SL
##제조업/NNG
##로서의/JKB+JKG
##코리안/NNG
VR/SL
##do/SL
아마존/NNP
유사/XR
드/VV
초점/NNG
##유로/NNBC
두드러졌/VV+EP
##이전/NNG
##9000/SN
##유럽/NNP
무리/NNG
##투/NR
대입/NNG
탄탄/XR
G/SL
국외/NNG
101/SN
##이후/NNG
##39/SN
업/NNG
경상남도/NNP
##구/NR
달라진/VA+EC+VX+ETM
##원격/NNG
생긴/VV+ETM
##이의/NNG
##클럽/NNG
발송/NNG
월평균/NNG
맥도날드/NNP
광명/NNG
남양주/NNG
배럴/NNG
71/SN
광주은행/NNP
BSK/SL
##봇/NNG
급격/XR
아이템/NNG
##700/SN
기숙사/NNG
충전/NNG
성남/NNP
##팬/NNG
뒤늦/VA
##X/SL
##저/NP
힘쓰/VV
##학생/NNG
무사히/MAG
옆/NNG
그리/MAG
격상/NNG
멕시코/NNP
제일/NNG
사/NNG
TF/SL
생존/NNG
완벽/NNG
##2021/SN
대학생/NNG
관행/NNG
걸린/NNP
옹호/NNG
##개인/NNG
87/SN
씻/VV
##코드/NNG
##방법/NNG
자꾸/MAG
보낼/VV+ETM
물건/NNG
데모/NNG
응답자/NNG
리더/NNG
##34/SN
파워/NNG
타/MM
##스타트/NNG
##km/SL
##화호/NNG
##텔/NNG
해운대/NNG
공익/NNG
##83/SN
추구/NNG
##사와/NNG
가스/NNG
둘/NR
##모/NNG
부담감/NNG
##강종민/NNP
##평/NNBC
바닥/NNG
즉각/MAG
공직/NNG
##갈/VV+ETM
출근/NNG
CSI/SL
술자리/NNG
산업은행/NNP
개설/NNG
구청장/NNG
다행히/MAG
이용자/NNG
가이드/NNG
체질/NNG
티웨이항공/NNP
##GWh/SL
이메일/NNG
##규/NNG
도매/NNG
##빈/VV+ETM
문가영/NNP
##작/VA
##먹/VV
고급/NNG
폭락/NNG
모양새/NNG
선방/NNG
세우/VV
##전기/NNG
동네/NNG
너/NP
##많/VA
배분/NNG
낮/NNG
짓/VV
직속/NNG
##치/VV
변신/NNG
주자/NNG
##절차/NNG
위해서/VV+EC+VCP
듯한/VX+ETM
think/SL
##대한민국/NNP
##리/NNP
세포/NNG
징후/NNG
수많/VA
높이/NNG
##약의/NNG
##사법/NNG
관심사/NNG
##당했/XSV+EP
책임자/NNG
##list/SL
##icd/SL
##19588/SN
화려/XR
하회/NNG
민관/NNG
앨버트/NNP
화이/NNG
결론/NNG
단장/NNG
부장/NNG
역임/NNG
인센티브/NNG
##도민/NNG
##셀/VV+ETM
##솔루션/NNP
Me/SL
포스트/NNP
##투자자/NNG
전공/NNG
##900/SN
##온/VV+ETM
엄마/NNG
소송/NNG
완전/NNG
##45/SN
##태평양/NNP
핸드볼/NNG
출석/NNG
95/SN
체력/NNG
##경향/NNG
경비/NNG
어워드/NNP
준다/VV+EF
##흥국/NNG
먹거리/NNG
거주지/NNG
##협정/NNG
##백/NNP
배정/NNG
긴밀/XR
ETF/SL
틱톡/NNP
건/NNG
모자/NNG
사망률/NNG
이용이/NNP
입시/NNG
윤도현/NNP
증폭/NNG
`/SY
##산림/NNG
앵커/NNG
◀/SY
식량/NNG
봉합사/NNG
##%)’,/SY
◎/SY
프랜차이즈/NNG
##장과/NNG
##케/XSV+EC
똑같/VA
드러났/VV+EP
봄/NNG
##엑/IC
예선/NNG
##써/VV+EC
비밀/NNG
감각/NNG
파격/NNG
인생/NNG
등산/NNG
##는지/EF
진심/NNG
지켜보/VV
##그/NP
일으키/VV
땅/NNG
즐거움/NNG
훈련장/NNG
동해/NNP
잠재/NNG
잉글랜드/NNP
폭탄/NNG
퇴직/NNG
솔직/XR
화요일/NNG
돌/VV
장남/NNG
돌아오/VV
크린/NNP
서명/NNG
아무래도/MAG
인류/NNG
수십/NR
헌혈증/NNG
재판부/NNG
증권/NNG
프리미어/NNP
맨/MM
키우/VV
##공동체/NNG
##고객/NNG
수출입/NNG
연맹/NNG
JTBC/SL
줄여/VV+EC
##체육회/NNG
명시/NNG
채택/NNG
스파이크/NNP
텐트/NNG
강좌/NNG
스페셜/NNP
접속/NNG
개혁/NNG
폭력/NNG
발병/NNG
##한다/VV+EF
##수협/NNG
의식/NNG
새벽/NNG
본다/VV+EC
##한미/NNG
배출/NNG
자산운용/NNP
발령/NNG
##소리/NNG
자전거/NNG
##교부금/NNG
M/SL
##스/NNP
문자/NNG
##보고서/NNG
옥외/NNG
오사카/NNP
클래스/NNP
손흥민/NNP
진행자/NNG
##기관장/NNG
##활성/NNG
벌금/NNG
검거/NNG
화물/NNG
##미의/NNG
##OSEN/SL
평생/NNG
##선박/NNG
1990/SN
##올/NNG
마음껏/MAG
보증/NNG
춘천/NNP
풍부/XR
##내년/NNG
한동안/NNG
재배/NNG
안정세/NNG
감상/NNG
당연/XR
##음악/NNG
열정/NNG
##s/SL
신청서/NNG
무급/NNG
##간담회/NNG
청취/NNG
시구/NNG
##크/MAG
특별히/MAG
매니저/NNG
유발/NNG
##94/SN
목/NNG
휴업/NNG
##mbc/SL
리스크/NNG
향하/VV
빌미/NNG
자신감/NNG
##연의/NNG
깜짝/MAG
불러/VV+EC
윤종/NNG
킨/NNP
##35/SN
임무/NNG
##첨단/NNG
대북/NNG
##도와/VV+EC
##Me/SL
인도네시아/NNP
지능/NNG
코로나/NNG
4000/SN
쫓/VV
회계/NNG
궁중/NNG
커진/VA+EC+VX+ETM
편의점/NNG
##63/SN
##한데/XSA+EC
했으나/VV+EP+EC
##킹/NNP
97/SN
##보가/NNG
발의/NNG
##커머스/NNG
화/NNG
안전망/NNG
칸/NNG
매도/NNG
빚/VV
##의식/NNG
981/SN
이뤄진/VV+ETM
대량/NNG
러셀/NNG
윤활유/NNG
킹덤/NNP
##잖아요/EC+VX+EF
크기/NNG
취업자/NNG
임차/NNG
바르셀로나/NNP
이재명/NNP
##저/MM
고정/NNG
부합/NNG
미사일/NNG
트래블/NNG
가짜/NNG
총영사관/NNG
통증/NNG
##스마트/NNG
엔젤/NNP
##학대/NNG
##e/SL
정밀/NNG
일어나/VV
넘겼/VV+EP
##살/NNBC
##달/NNBC
##월간/NNG
조만간/MAG
승진/NNG
독점/NNG
갖췄/VV+EP
##조합/NNG
거친/VA+ETM
바랍니다/VV+EF
##더라/EF
베일/NNG
##놀라운/VA+ETM
의학/NNG
저자/NNG
##89/SN
청구/NNP
풍경/NNG
1968/SN
##새로운/VA+ETM
##독일/NNP
##청구/NNG
자리매김/NNG
##무/XPN
##책임/NNG
조세/NNG
##기반/NNG
수영장/NNG
되찾/VV
성격/NNG
대체로/MAG
취득/NNG
We/SL
돌아왔/VV+EP
거기/NP
##두/VX
Copyright/SL
상주/NNG
본토/NNG
한정/NNG
##홀/NNP
전후/NNG
1300/SN
##자리/NNG
청문회/NNG
광/NNG
김효주/NNP
##주자/NNG
던지/VV
키워드/NNP
자유/NNP
수혜/NNP
절실/XR
##낭/NNG
비치/NNG
진영/NNG
시가총액/NNP
선행/NNG
##경대/NNG
##람/NNP
##포의/NNG
벗/VV
##제재/NNG
##복의/NNG
이스라엘/NNP
##브/NNP
##탑/NNG
발판/NNG
지원자/NNG
관할/NNG
시당/NNG
반납/NNG
##청년/NNG
##대사관/NNG
이태석/NNP
공조/NNG
##태권/NNG
진도/NNG
통영/NNG
가중/NNG
완강기/NNG
##한겨레/NNG
##보건소/NNG
공영/NNG
61/SN
리서치/NNG
축/NNG
##전이/NNG
##지의/NNG
도모/NNG
##공고/NNG
##POP/SL
##게티/NNP
DA/SL
명품/NNG
층/NNG
정한/NNG
토로/NNG
실물/NNG
그림/NNG
##중대/NNG
##일정/NNG
마트/NNG
하마다/NNG
오랫동안/NNG
아웃사이더/NNG
취/NNP
누군가/NP+VCP+EC
개척/NNG
미투/NNP
충돌/NNG
기부금/NNG
우리금융그룹/NNP
창조/NNG
##04/SN
표명/NNG
패널/NNG
쉼터/NNG
##미터/NNBC
피/XPN
공감대/NNG
##홈런/NNG
중반/NNG
훔치/VV
코레아/NNP
주지/NNG
##우주/NNG
전당/NNG
리더십/NNG
이뤘/VV+EP
ppkjm/SL
한국노총/NNP
확신/NNG
트래/NNP
##세기/NNG
범죄인/NNG
서비스업/NNG
수도권/NNG
##분기점/NNG
##작/NNG
협의회/NNG
##확인/NNG
평창/NNP
##탄/VV+ETM
보탬/VV+ETN
##석/NNBC
발족/NNG
##나눔/VV+ETN
랭킹/NNG
##막/NNG
벨기에/NNP
매월/NNG
에어컨/NNG
##중견/NNG
서버/NNG
기량/NNG
월세/NNG
##열차/NNG
개시/NNG
신/NNG
##공관/NNG
탄력/NNG
##콘서트/NNG
##상권/NNG
웨일/NNP
징역/NNG
FC/SL
폐기/NNG
청주/NNP
##지식/NNG
##는데/EF
나타난/VV+ETM
풀/NNG
아끼/VV
공략/NNG
##진료/NNG
##증/NNG
지불/NNG
어땠/VA+EP
계신/NNG
##게/NNB+JKS
회복기/NNG
원동력/NNG
수식어/NNG
방영/NNG
##련의/NNG
##162/SN
특구/NNP
##㎞/SY
##도로/NNG
금은/NNG
##해제/NNG
2010/SN
정통/NNG
군사/NNG
식음료/NNG
##소재/NNG
파견/NNG
암/NNG
쪽/NNG
훼손/NNG
분당/NNP
유력/NNG
들여/VV+EC
담배/NNG
##매출/NNG
##매일신문/NNG
##질문/NNG
익숙/XR
부자/NNG
진상/NNG
일선/NNG
##모의/NNG
정해/VV+EC
*/SY
지향/NNG
##트럼프/NNG
##임상/NNG
##빅/NNG
반입/NNG
서면/NNG
##때/NNG
##정밀/NNG
##총/NNG
##블러즈/NNP
초이스/NNP
기계/NNG
TSMC/SL
##상반기/NNG
FBI/SL
##자본/NNG
정점/NNG
가득/MAG
##버리/VX
##일반/NNG
##계망/NNG
118/SN
승용차/NNG
##애/NNG
##재판소/NNG
of/SL
엠/NNG
##공시/NNG
문빈/NNP
##단/NNBC
##대사/NNG
은어/NNG
##%)’/SY
마리오/NNP
내외/NNG
감/NNG
##원호/NNP
지적도/NNG
##말/NNB
##sedaily/SL
각지/NNG
타입/NNG
##소/NNG
##재/NNG
##팜/NNP
##통의/NNG
칭찬/NNG
사투/NNG
나타날/VV+ETM
##구요/EF
개인별/NNG
##진의/NNG
과장/NNG
##력/XSN
논문/NNG
오직/MAG
##CTA/SL
##이제/NNG
책임감/NNG
##토론/NNG
선호도/NNG
골자/NNG
알려져/VV+EC+VX+EC
99/SN
1998/SN
떠났/VV+EP
군위/NNG
군위군/NNG
아무런/MM
##바/NNB
정유/NNG
##그러나/MAJ
상당수/NNG
호조/NNG
##터미널/NNG
##정도/NNG
철회/NNG
골프장/NNG
##52/SN
##매체/NNG
교환/NNG
##큐/NNG
특허/NNG
대처/NNP
##슈퍼/NNG
##전문가/NNG
엔터/NNP
문구/NNG
김민재/NNP
저조/NNG
쿠폰/NNG
홈런/NNG
##타수/NNG
##득점/NNG
갑자기/MAG
치렀/VV+EP
진짜/MAG
##공의/NNG
텐센트/NNP
가리/VV
일대/NNG
당선/NNG
##어촌/NNG
##촌마을/NNG
김대중/NNP
열차/NNG
혼합/NNG
##추가/NNG
##세의/NNG
##베스트/NNG
##증가/NNG
높일/VV+ETM
##09/SN
##사건/NNG
공부/NNG
앞장서/VV
키워/VV+EC
호평/NNG
성수기/NNG
백인/NNG
【/SY
전월세/NNP
잔액/NNG
##화의/NNG
폐기물/NNG
최적/NNG
##케이블카/NNG
왕래/NNG
빅맥/NNP
이은영/NNP
부총재/NNG
##편의/NNG
즐겨/VV+EC
플러스/NNG
붙잡/VV
김포시/NNP
앞세워/VV+EC
내정/NNG
##공학/NNG
한성권/NNP
##보험료/NNG
##축산/NNG
##전북/NNP
1600/SN
개강/NNG
오도/NNG
훌륭/XR
어쨌든/MAG+XSV+EP+EC
사노/NNG
##글로불린/NNG
##미디어넷/NNP
공백기/NNG
##감사/NNG
삭감/NNG
상관없이/MAG
##부/XPN
##복합/NNG
업그레이드/NNG
조회/NNG
독서/NNG
탐색/NNG
갱신/NNG
P/SL
NBA/SL
이상직/NNP
매/NNG
##59/SN
입주자/NNG
##사람/NNG
##남의/NNG
##도청/NNG
밴드/NNG
발목/NNG
금속/NNG
##현산/NNP
목사/NNG
##신뢰/NNG
전방/NNG
늘어나/VV+EC
##촬영/NNG
신작/NNG
##물가/NNG
점수/NNG
극단/NNG
##볼/NNG
696/SN
오지현/NNP
증세/NNG
##감독원/NNG
생물/NNG
황/NNP
신의주/NNP
##는가/EF
견인/NNG
##관광공사/NNP
장려/NNG
낮춰/VV+EC
##갯골/NNG
##인공지능/NNP
96/SN
싣/VV
영유권/NNG
도로/NNG
지하철/NNG
효력/NNG
팔/NNG
오름세/NNG
##투쟁/NNG
문제점/NNG
상용차/NNG
##함께/MAG
##박물관/NNG
##회의소/NNG
167/SN
##을까요/EF
복무/NNG
기술력/NNG
파업/NNG
한국감정원/NNP
안겼/VV+EP
##콕/NNG
성능/NNG
##연료/NNG
##구매/NNG
성남시/NNP
에코/NNP
요기/NP
스크린/NNG
기념사업/NNG
키즈/NNP
사용료/NNG
##CC/SL
##법원/NNG
명령/NNG
이윤/NNG
촉발/NNG
점진/NNG
##보장/NNG
무관/XR
마리/NNP
의존도/NNG
##아트/NNG
왜냐하면/MAJ
박명훈/NNP
찾아보/VV
성숙/NNG
a/SL
순천/NNG
치/NNG
##영리/NNG
잔여/NNG
머니/NNG
올라가/VV
근접/NNG
몰두/NNG
비싼/VA+ETM
102/SN
##스카이/NNP
##라/EF
스루/NNG
구역/NNG
신선/NNG
어울리/VV
##느라/EC
발사/NNG
간단/XR
밀워키/NNP
플로리다주/NNP
##행업/NNG
돌아갈/VV+ETM
보조/NNG
증대/NNG
##수산청/NNG
자치구/NNG
우위/NNG
반박/NNG
회식/NNG
예타/NNP
##8585/SN
월요일/NNG
타자/NNG
레이/NNG
거두/VV
드러나/VV
시판/NNG
군의/NNG
무언가/NP+VCP+EC
한식/NNG
##joseilbo/SL
##로스/NNG
일/VV
여/NNG
태양광/NNG
##음식/NNG
##명/NNG
”/SSC
비말/NNG
7000/SN
캡처/NNP
교실/NNG
##채널/NNG
##일자/NNG
##담회/NNG
출판사/NNG
게이트/NNG
##부총리/NNG
선진/NNG
수정/NNG
문턱/NNG
##바우처/NNG
연료/NNG
2002/SN
착공/NNG
〈/SY
##제한/NNG
난항/NNG
딥/NNG
김근희/NNP
##히어로/NNG
시황/NNG
영향력/NNG
웨이스트/NNG
스웨덴/NNP
객/NNG
여행지/NNG
카카오톡/NNP
놓인/VV+ETM
##통과/NNG
2007/SN
운전/NNG
사우디/NNP
표정/NNG
올릴/VV+ETM
노후/NNG
##원은/NNG
소식통/NNG
미루/VV
범/XPN
탈북자/NNG
지켜야/VV+EC
##TREASURE/SL
우영/NNG
in/SL
서머/NNP
디딤돌/NNG
전액/NNG
이만희/NNP
##재생/NNG
혼/NNG
나옵니다/VV+EF
회당/NNG
동아닷컴/NNP
기념식/NNG
##시켜야/XSV+EC
##갱신/NNG
조절/NNG
81/SN
##커스/NNP
조종사/NNG
퇴직금/NNG
##년/NNB
진전/NNG
별다른/VA+ETM
##75/SN
힘내/VV
엄청난/VA+ETM
재충전/NNG
##41/SN
##37/SN
##64/SN
꼽히/VV
전장/NNG
111/SN
##인도/NNP
공기업/NNG
예의/NNG
##hanmail/SL
##나요/EF
금호산업/NNP
수영/NNG
##끌/NNG
증원/NNG
##jtbc/SL
관찰/NNG
나파/NNG
아무/NP
남동구/NNP
나스닥/NNG
의향/NNG
모듈/NNG
기온/NNG
지명/NNG
받아들이/VV
02/SN
##398/SN
social/SL
##랜드/NNG
##차원/NNG
피드백/NNG
에드윈/NNP
하드보일드/NNG
동생/NNG
무기한/NNG
저점/NNG
##속도/NNG
##경쟁력/NNG
##팔/NR
클래시/NNP
이동걸/NNP
##로선/JKB+JX
##항공편/NNG
적발/NNG
##여성/NNG
하역/NNG
##g/SL
사회관/NNG
콘퍼런스/NNP
##가정/NNG
돌아갔/VV+EP
##동서/NNG
서한/NNG
고대/NNG
기재/NNG
V/SL
꽝/MAG
야/IC
보조금/NNG
황희/NNP
##】/SY
동대문/NNP
불/NNG
회담/NNG
수리공/NNG
피부/NNG
158/SN
##신생/NNG
화면/NNG
밑돌/VV
다녀온/VV+ETM
꾸러미/NNG
비상사태/NNG
350/SN
한류/NNG
##창원/NNP
##소멸/NNG
티셔츠/NNG
##청작/NNG
소자본/NNG
##회로/NNG
시사/NNG
김해시/NNP
##실/NNBC
##했었/XSV+EP
테이블/NNG
산업의/NNG
약품/NNG
뜨겁/VA
임팩트/NNG
변호사/NNG
나아가/VV+EC
박종일/NNP
신축/NNG
##익과/NNG
뷰/NNP
끊임없/VA
82/SN
전례/NNG
휴대/NNG
코트/NNG
폴/NNG
할머니/NNG
##WSJ/SL
종가/NNG
매진/NNG
##베이/NNP
##자마자/EC
힘써/VV+EC
매경/NNP
커뮤니티/NNG
##사무소/NNG
##기한/NNG
조율/NNG
상실/NNG
##일간스포츠/NNP
비핵화/NNG
라임/NNG
##필리핀/NNP
톱/NNG
파이널/NNG
게다가/MAG
##73/SN
##수지/NNG
기기/NNG
닷새/NNG
기한/NNG
##넷/NNP
스탠더드/NNG
신호/NNG
호실/NNG
##인권/NNG
##단기/NNG
금이/NNG
##사각지대/NNG
##캠페인/NNG
##전형/NNG
##카카오톡/NNP
내비쳤/VV+EP
반전/NNG
##개동/NNG
여지/NNG
##있/VA
과잉/NNG
##건축/NNG
카페/NNP
상징/NNG
북경/NNP
폴리/NNG
소녀/NNG
집권/NNG
##격의/NNG
야구장/NNG
##제작/NNG
시니어/NNP
##경찰/NNG
##트롯/NNG
##경기도/NNP
홈경기/NNG
양보/NNG
가시/NNG
##적의/NNG
생태계/NNG
##안산/NNG
●/SY
마치/MAG
농구/NNG
읍/IC
##도움/NNG
평택/NNP
온실가스/NNG
##감염병/NNP
##젠/NP+VCP+ETM
위해선/VV+EC+JX
##각/NNG
시가/NNG
렌터카/NNG
맞춤/VV+EC
늦추/VV
##성모병원/NNP
여야/NNG
로컬/NNG
오사카부/NNP
##기후/NNG
밥솥/NNG
생분해성/NNG
##노트/NNG
한방/NNG
위원회/NNG
##유치원/NNG
##강전/NNG
비관/NNG
##트럭/NNG
DGIST/SL
##화면/NNG
통하/VV
##행복/NNG
아마추어/NNG
줄어드/VV
##공무원/NNG
사라지/VV
it/SL
텍사스/NNP
팀장/NNG
총력/NNG
##청사/NNG
중입니다/NNG+VCP+EF
##욕/NNG
패러다임/NNG
주춤/MAG
성폭행/NNG
네덜란드/NNP
##월세/NNG
조례/NNG
사스/NNP
훈훈/XR
스트롱/NNP
용품/NNG
월간/NNG
##36/SN
멀/VA
범행/NNG
##글/NNG
송금/NNG
경쟁사/NNG
##츠/NNP
주주/NNG
달리/VV
보스턴/NNG
부산일보/NNP
##대주주/NNG
클래식/NNG
무단이탈/NNG
##송금/NNG
시상식/NNG
타당/XR
##체온/NNG
행태/NNG
##밥/NNG
##음/IC
대목/NNG
스위스/NNP
##확보/NNG
안전성/NNG
틈/NNG
스토리/NNG
##훈/NNG
런던/NNP
매달/NNG
암살자/NNG
고부/NNG
동행/NNG
거점/NNG
##된다며/XSV+EC
##실리콘/NNG
늘렸/VV+EP
돌리/VV
##프/VX
##체/NNB
포스터/NNP
##어항/NNG
##CCSI/SL
달라질/VA+EC+VX+ETM
손쉽/VA
한꺼번에/MAG
##항만/NNG
힘들/VA+ETM
성성/NNG
##소득세/NNG
##연준/NNG+JX
##건전/XR
##규정/NNG
모니터/NNG
저하/NNG
##재무/NNG
실수/NNG
아쉬운/VA+ETM
창원시/NNP
##꾼/XSN
대행/NNG
구리/NNG
심화/NNP
##기존/NNG
넷플릭스/NNP
신중/NNG
양양/NNG
IND/SL
IFA/SL
##스타트업/NNG
이건/NP+JX
공고/NNG
##극장/NNG
국립보건원/NNP
모테기/NNG
수상자/NNG
##푸드/NNG
평범/XR
머물렀/VV+EP
##국립/NNG
보답/NNG
들어왔/VV+EP
##수리공/NNG
##리가/NNG
공문/NNG
들어갈/VV+ETM
근무자/NNG
발탁/NNG
끈다/VV+EF
니즈/NNG
군산/NNG
중학교/NNG
##주도/NNG
바꿔/VV+EC
명도/NNG
각자/NNG
##학력/NNG
고향/NNG
앤/NNG+JX
##I/SL
미뤄졌/VV+EC+VX+EP
멋진/VA+ETM
gonna/SL
##주문/NNG
된다면/VV+EC
기다려/VV+EC
갈/VV
광장/NNG
날씨/NNG
##적십자사/NNG
물론/NNG
놓치/VV
벌써/MAG
치러/VV+EC
물리/NNG
고소득/NNG
비싸/VA
##통제/NNG
환매/NNG
미국인/NNG
움직임/VV+ETN
덜/VV
##합병/NNG
##컴퍼니/NNG
몰랐/VV+EP
거주자/NNG
지도자/NNG
설레/NNG
걸릴/VV+ETM
줄어들/VV+ETM
##58/SN
탈락/NNG
정의/NNG
환기/NNG
안건희/NNP
##투표/NNG
수혈/NNG
첫날/NNG
동작/NNG
##보드/NNP
맞물려/VV+EC
##내사/NNP
영종/NNG
감지/NNG
##령/NNG
씨/VA
##입/NNG
##진료소/NNG
길리/VV
##결제/NNG
의류/NNG
불황/NNG
몇몇/MM
양측/NNG
##적료/NNG
단골/NNG
##페이/NNP
아웃/NNG
##비의/NNG
시세/NNG
당첨/NNG
##일수록/VCP+EC
RBD/SL
##내용/NNG
소형/NNG
공존/NNG
지혜/NNG
직면/NNG
접/VV
바다/NNP
주니/NNG
이른다/VV+EF
재편/NNG
웃돌/VV
도선사/NNG
급/NNG
##gmail/SL
체/IC
주간/NNG
경력/NNG
##품은/NNG
회피/NNG
##차량/NNG
전주/NNP
무기/NNG
펼쳐지/VV
가이드라인/NNG
휴/IC
메우/VV
마/IC
##47/SN
고문/NNG
정지/NNG
완공/NNG
뉴클레오시드/NNG
##유공자/NNG
항공업/NNG
저작/NNG
애널리스트/NNG
청년층/NNG
수험/NNG
##교/NNG
나고야/NNP
직격탄/NNG
궁금증/NNG
##낭시/NNG
연봉/NNG
##폭력/NNG
김봉수/NNP
미세먼지/NNP
브릭/NNG
전민기/NNP
☏/SY
중복/NNG
표본/NNG
##꺼/NNB+VCP
지휘/NNG
농담/NNG
155/SN
76/SN
회수/NNG
##영역/NNG
보다/JKB
수요일/NNG
##나무/NNG
꾸준/XR
신의/NNG
최희서/NNP
결심/NNG
겹쳐/VV+EC
##혈액/NNG
피버/NNP
해요/VV+EF
##회계/NNG
내실/NNG
진주/NNG
열풍/NNG
##토크/NNG
##일까/VCP+EF
커지/NNG
베테랑/NNG
머무르/VV
기인/NNG
1981/SN
당사자/NNG
##리거/NNP
##BNT/SL
납품가/NNG
뉴스룸/NNP
##원가/NNG
##퀸/NNP
##필요/NNG
콜/NNG
과감/XR
과학자/NNG
##48/SN
##토론회/NNG
심지어/MAG
##오른쪽/NNG
열려/VV+EC
##채용/NNG
고수/NNG
내지/NNP
산업단지/NNP
정성/NNG
저지르/VV
비트코인/NNP
##법의/NNG
##반응/NNG
##결정/NNG
다루/VV
포항/NNP
##플러스/NNG
##관은/NNG
당신/NP
모인/NNG
크루즈/NNP
##채/NNG
계층/NNG
##57/SN
핵산/NNG
##실험/NNG
##십니까/EP+EF
107/SN
##2022/SN
##회/XSN
손길/NNG
면치/NNG
교외/NNG
빚/NNG
전적/NNG
담보/NNG
현행/NNG
이행/NNP
버전/NNG
##좋/VA
78/SN
##처분/NNG
그나마/MAG
돌기/NNG
확립/NNG
장마/NNG
접할/VV+ETM
성실/NNG
박물관/NNG
요원/NNG
##발표/NNG
##생태/NNG
우선/NNG
##IC/SL
경품/NNG
유감/NNG
합법/NNG
##동이/NNG
포착/NNG
유니폼/NNG
부양/NNG
빛/NNG
도자기/NNG
체포/NNG
카운터포인트/NNG
포트폴리오/NNG
신한은행/NNP
변동성/NNG
##됐/VV+EP
객관/XR
##십/NR
##전주/NNP
110/SN
##1996/SN
여수/NNP
연이/VV
최경주/NNP
욕구/NNG
조찬/NNP
이자/NNG
파미/NNP
버블/NNG
##사기/NNG
##제휴/NNG
광범위/NNG
원자재/NNG
동구/NNP
벌어졌/VV+EP
고체/NNG
코인/NNG
움직이/VV
커질/VA+EC+VX+ETM
캐서린/NNP
연주/NNG
##대화/NNG
출간/NNG
겨냥/NNG
다이어트/NNG
##컨설팅/NNG
스카이/NNP
고성/NNG
이/NR
##순환/NNG
중고차/NNG
기원/NNG
##홍/NNG
이목/NNG
##톤/NNBC
승/NNG
##자치단/NNG
커뮤니케이션/NNG
출동/NNG
납입/NNG
무한/NNG
나와서/VV+EC
영화계/NNG
남편/NNG
특례/NNG
##대로/NNB
반년/NNG
##드립니다/VV+EF
영광/NNG
##덕/NNG
마사회/NNG
강구/NNG
지역민/NNG
소프트웨어/NNG
맨체스터/NNP
연상호/NNP
##후의/NNG
과천/NNP
##86/SN
모아진다/VV+EC+VX+EF
##일부/NNG
부당/NNG
##했/VX+EP
윤호중/NNP
실점/NNG
##거의/MAG
##면적/NNG
접근성/NNG
롯데마트/NNP
##밤/NNG
##동력/NNG
##협상/NNG
교섭/NNG
주차/NNG
낯선/VA+ETM
##인간/NNG
미친/VV+ETM
적립/NNG
사라졌/VV+EP
학교의/NNG
애정/NNG
##hwan/SL
오가/NNG
캐주얼/NNG
경찰의/NNG
프로모션/NNG
주류/NNG
줄줄이/MAG
##보수/NNG
##승인/NNG
쏘/VV
##푸/NNG
##원대/NNG
##전시/NNG
무력/NNG
꼬집/VV
현대/NNP
##효율/NNG
##기침/NNG
루프/NNP
도달/NNG
##플러스/NNP
무릎/NNG
##블/NNG
##RFA/SL
운송/NNG
##고는/EC
QR/SL
##가들의/XSN
계열/NNG
지도부/NNG
국장/NNG
양천구/NNP
##운수/NNG
죽/VV
즐거운/VA+ETM
비정규직/NNG
재택/NNG
기울이/VV
to/SL
##만큼/NNB
컴퓨터/NNG
한글/NNG
##인증/NNG
싸/VA
##미팅/NNG
대여/NNG
##구단/NNG
이동해/NNP
구간/NNG
##신천지/NNP
##천안/NNP
민감/XR
##감면/NNG
##유동/NNG
##中/NNG
종전/NNG
##가공/NNG
##상승/NNG
항구/NNG
된다고/VV+EC
규칙/NNG
##임시/NNG
##개의/NNG
남겼/VV+EP
랠리/NNG
매수세/NNG
마크/NNG
이용은/NNP
식료품/NNG
##사모/NNG
##든지/VCP+EC
집행정지/NNP
최대치/NNG
고시/NNG
이태원/NNP
##니스/NNG
##담가/NNG
게시판/NNG
사내/NNG
##션/EC
포괄/NNG
##spotvnews/SL
아이스/NNG
유방/NNG
##태/NNG
FDA/SL
순천시/NNP
##쓰리/NR
##회생/NNG
디저트/NNG
남녀노소/NNG
붙잡혔/VV+EP
수렴/NNG
갔/VV+EP
##hani/SL
벌였/VV+EP
##남자/NNG
감탄/NNG
반려/NNG
##목적/NNG
취급/NNG
잠실/NNG
H/SL
##격차/NNG
어려워진/VA+EC+VX+ETM
돌파구/NNG
쓰이/VV
미술/NNG
여겨/VV+EC
구멍/NNG
즐거워/VA+EC
##수단/NNG
안동/NNP
##08/SN
백/NNP
타지/NNG
앓/VV
주역/NNG
비하인드/NNG
##한/NNP
##고교/NNG
##입북/NNG
국회법/NNG
게시물/NNG
질환/NNG
결핵/NNG
올랜도/NNP
##화/NNG
##연/NNG
##지상/NNG
##문학/NNG
홈플러스/NNP
잠실/NNP
##지난해/NNG
총선/NNG
목숨/NNG
##샷/NNG
##작년/NNG
##나갈/VV+ETM
##지법/NNG
##군/NNB
##경복궁/NNG
##통역/NNG
##육성/NNG
응급/NNG
일명/NNG
##온천/NNG
##회가/NNG
펼쳐/VV+EC
서빙/NNG
조리/NNG
연합/NNG
##백화점/NNG
##지/EF
봐야/VV+EC
##물산/NNG
유니버설/NNG
책임지/VV
터/NNG
하/IC
##해수욕장/NNG
청부/NNG
정은경/NNP
##요의/NNG
타인/NNG
청결/NNG
##수가/NNG
낳/VV
걸친/VV+ETM
연대/NNP
##피해/NNG
##라이온즈/NNP
인지/NNG
뷰티/NNG
급속도/NNG
##워/NNG
관건/NNG
中/NNG
순매도/NNG
##MLB/SL
포털/NNP
##세/MM
법정/NNG
텐데/NNG+VCP+EC
꽃/NNG
베스트/NNG
##美/NNG
유출/NNG
##상준/NNG
##파의/NNG
##보도/NNG
할아버지/NNG
통화량/NNG
##사단/NNG
##용관/NNG
##아픔/NNG
##마당/NNG
무인/NNG
추대/NNG
##호남/NNG
##사유/NNG
유흥/NNG
##장벽/NNG
##센서스/NNG
맛있/VA
대표자/NNG
128/SN
##시재/NNG
##4251/SN
소방청/NNP
출점/NNG
출산/NNG
##일수/NNG
주방/NNG
셀프/NNP
비박/NNG
기독교/NNG
양치/NNG
네오/NNP
청원/NNG
쌍용/NNP
중도/NNG
민방위/NNG
##레고/NNP
트레일/NNP
##백주/NNG
산림청/NNG
치유/NNG
허/IC
만성/NNG
##총장/NNG
경영난/NNG
내려/VV+EC
##물자/NNG
##주한/NNG
청소/NNG
156/SN
##양성/NNG
지/NP
재검사/NNG
존스/NNP
105/SN
군인/NNG
독려/NNG
MC/SL
박성광/NNP
하/NNG
##불/XPN
##첫/MM
원주/NNP
하루빨리/MAG
데가/NNP
##수상/NNG
액체/NNG
딱/MAG
아닐까/VCN+EC
편곡/NNG
여덟/NR
##의료진/NNG
문성혁/NNP
입수/NNG
어머니/NNG
배우/VV
복잡/XR
이정현/NNP
박스오피스/NNP
블록버스터/NNP
##사업단/NNG
구민/NNG
드디어/MAG
##코미디/NNG
##부대/NNG
이상인/NNP
내년도/NNG
##처장/NNG
재기/NNG
주전/NNG
##남성/NNG
##유치/NNG
킬링/NNP
더욱더/MAG
명확/XR
일간/NNG
##43/SN
##51/SN
##2017/SN
##어가/NNG
부지/NNP
정했/VV+EP
재즈/NNG
##교수/NNG
장수영/NNP
presy/SL
이영환/NNP
카니발/NNG
사이즈/NNG
명목/NNG
##영/NNG
##예방법/NNG
깔끔/XR
##이러/XR
의존/NNG
COVID/SL
납품/NNG
AMC/SL
싸우/VV
필리스/NNP
마스터스/NNG
노리/VV
##아카데미/NNG
재건축/NNG
신용보증기금/NNP
시뮬레이션/NNG
##이정재/NNP
소설/NNG
##1273/SN
셀룰로스/NNG
##힘내/VV
##준다/VX+EF
##자/NNG
키트/NNG
폭넓/VA
##의의/NNG
##통/MAG
##GM/SL
업로드/NNG
시일/NNG
##733/SN
##혈액원/NNG
동반성/NNG
산소/NNG
진흥/NNP
크리에이터/NNP
그랬/VV+EP
차기/NNG
대접/NNG
일레븐/NNP
인접/NNG
강의실/NNG
연예인/NNG
##디/NNG
##유/NNG
##관객/NNG
키움/VV+ETN
신분증/NNG
##가계/NNG
안보/NNG
374/SN
CCSI/SL
##권역/NNG
##지속/NNG
고르/VA
이낙연/NNP
Mnet/SL
해병대/NNG
통장/NNG
자/VV
끊이/VV
독거/NNG
숙주/NNG
재차/NNG
플립/NNP
1967/SN
맞서/VV+EC
격화/NNG
구수환/NNP
##연구회/NNG
복구/NNG
만의/NNG
채산성/NNG
공룡/NNG
U/SL
시설물/NNG
##79/SN
챗/NNG
던전/NNP
##․/SY
닭/NNG
##할인/NNG
후렴/NNG
##55/SN
과일/NNG
##됐으나/XSV+EP+EC
댓글/NNG
애플리케이션/NNG
플러그인/NNP
고문역/NNG
입장객/NNG
테니/ETM+NNB+VCP+EC
해지/NNG
##tf/SL
교육청/NNG
설레/VV
곡이/NNG
트랙/NNG
for/SL
##식당/NNG
전염/NNG
횡령/NNG
즐겁/VA
감동/NNG
제조사/NNG
##배상/NNG
윤석헌/NNP
끈/NNG
##보좌관/NNG
우승자/NNG
조지/NNP
정작/NNG
미네소타/NNP
기도/NNG
마스크/IC
##원자력/NNG
뚫/VV
소지/NNG
들으면/VV+EC
이용섭/NNP
수장/NNG
##스가/NNP
##곤/EC
##69/SN
눈치/NNG
관장/NNG
전시관/NNG
##무의/NNG
넘기/VV
##군민/NNG
꽤/MAG
디아스/NNP
##어치/NNG
컨소시엄/NNG
한참/NNG
##임의/NNG
##새/NNG
자립/NNG
with/SL
##탈락/NNG
돌아섰/VV+EP
결단/NNG
쟁점/NNG
다변/NNG
각광/NNG
##병상/NNG
##어질/EC+JKO
##캠핑/NNG
꼽혔/VV+EP
춤/NNG
개의/NNG
##커피/NNG
##청과/NNG
수차례/NNG
일요일/NNG
##원이/NNG
관문/NNG
##방향/NNG
우울/NNG
내셔널스/NNP
이정은/NNP
부활/NNG
##한제/NNG
지나치/VA
1211/SN
내세우/VV
혹시/MAG
홍남기/NNP
합쳐/VV+EC
놀이터/NNG
올라갔/VV+EP
세미나/NNG
바란다/VV+EF
소멸/NNG
##탈/XPN
##부정/NNG
##랜/VCP+ETM
편집/NNG
##MOU/SL
민주/NNG
둘째/NR
##러/VCP+EC
##공익/NNG
##버렸/VX+EP
##경험/NNG
##종목/NNG
##칼/NNG
241/SN
폐광/NNG
부인/NNG
대가/NNG
잦/VA
##in/SL
다섯/NR
원이/NNG
##네트워크/NNG
차익/NNG
값/NNG
성향/NNG
##LG/SL
참석자/NNG
##킬로/NNG
##연계/NNG
##메가/NNP
OECD/SL
##포인트/NNBC
##8145/SN
##혁/NNG
견제/NNG
입력/NNG
싹/NNG
##행/NNG
##봉사자/NNG
##츠/IC
##PCR/SL
확인/NNG+XSV
##최/XPN
배부/NNG
드린다/VV+EC
사후/NNG
쾌적/XR
여전/XR
##느냐는/ETM
시행령/NNG
##홀딩스/NNP
세네갈/NNP
##빠르/VA
Baa/SL
펀/NNG
우유/NNG
이동환/NNP
러/EC
##칭/NNG
채무/NNG
갖춰/VV+EC
##경찰서/NNG
Olive/SL
청계동/NNP
##잖/VCP+UNA
보험금/NNG
##AR/SL
룰/NNG
빵/NNG
니혼/NNP
##이자이/NNP
굿/NNG
키트/NNP
##문화재/NNG
##서머/NNP
ERP/SL
##국금/NNG
230/SN
##니/NP
기업체/NNG
##망의/NNG
알아보/VV
##염의/NNG
##FC/SL
너무나/MAG
##마의/NNG
##선원/NNG
제거/NNG
66/SN
##청주/NNP
신청자/NNG
활약상/NNG
방송인/NNG
놀라운/VA+ETM
등극/NNG
명성/NNG
##컨/NNP
토끼/NNG
특종/NNG
속초/NNG
돼야/VV+EC
농림/NNG
결항/NNG
미술관/NNG
캐스팅/NNP
간다면/VV+EC
유망/NNG
덕/NNG
고생/NNG
##95/SN
갈망/NNG
스페인어/NNP
장식/NNG
##퍼포먼스/NNG
가져/VV+EC
지정/XR
##자형/NNG
##92/SN
##전년/NNG
치매/NNG
##코페/NNP
쇼/NNG
예비역/NNG
자칫/MAG
##척의/NNG
##97/SN
브라/NNP
실거/NNG
위법/NNG
항/NNG
’/SY
##모집/NNG
경과/NNG
독보/NNG
##기우/VV
##251/SN
##자유/NNG
##53/SN
##42/SN
복원/NNG
환불/NNG
그랜드/NNP
숙소/NNG
추락/NNG
카카오/NNP
유타/NNG
플레이오프/NNG
관계없이/MAG
다과/NNG
대수/NNG
##토/NNG
이른/VA+ETM
전문의/NNG
누리/VV
##시스/NNP
1200/SN
##위안/NNBC
##또/MAG
환/NNG
방위비/NNG
수비/NNG
수능/NNG
스푸트니크/NNG
##레/EC
고전/NNG
끌어올리/VV
##mRNA/SL
감수/NNG
##민간/NNG
610/SN
애쓰/VV
##경사/NNG
활기/NNG
##자릿수/NNG
격/NNG
특색/NNG
##or/SL
2004/SN
작전/NNG
##부부/NNG
알리바바/NNP
여력/NNG
테크/NNP
나타나/VV+EC
##검역/NNG
##강의/NNG
##응/IC
##총괄/NNG
##56/SN
정확히/MAG
빨라/VA+EC
장기간/NNG
인플루엔자/NNG
상황도/NNG
횟수/NNG
##흐름/NNG
##데이/NNG
##중소기업/NNG
216/SN
조화/NNG
이때/NNG
땐/NNG+JX
계좌/NNG
##캠프/NNP
##형태/NNG
황지영/NNP
검/VA
##98/SN
##전당/NNG
PGA/SL
쉬운/VA+ETM
비하/VV
##배터리/NNG
##공백/NNG
##냐는/ETM
아이돌/NNP
##'…/SY
##공/NNG
분자/NNG
##으려는/ETM
##자/IC
보전/NNG
회동/NNG
##〉/SY
응모/NNG
뭐/IC
랩/NNG
펼친다/VV+EF
##하락/NNG
##연습장/NNG
신차/NNG
티/NNG
##오염/NNG
속한/NNG
파키스탄/NNP
틀/NNG
알고리즘/NNG
특유/NNG
##단위/NNG
##밴드/NNG
품종/NNG
##룰/NNG
삽시도/NNG
##승/NNG
저장/NNG
인디/NNG
고른/VA+ETM
##사장/NNG
토지/NNG
라이프/NNG
이혼/NNG
##색/NNG
##디스플레이/NNG
이걸/NP+JKO
종사/NNG
어린이집/NNG
##연극/NNG
##세상/NNG
대첩/NNG
##섬/NNG
로테이션/NNG
센카쿠/NNP
특허청/NNG
##KDN/SL
pjh/SL
##중소/NNG
원산지/NNG
처/NNG
##수사대/NNG
고촌읍/NNP
119/SN
이송/NNP
맞대결/NNG
##바이/NNG
희귀/XR
쏟아지/VV
##무증상/NNG
##지/XSV+EC
성장률/NNG
시간대/NNG
##영업자/NNG
##홉킨스/NNP
걸려/VV+EC
청춘/NNG
후원금/NNG
중학생/NNG
고등학교/NNG
161/SN
##대통령/NNG
##MS/SL
##랑/JKB
해/VV+EF
너무너무/MAG
용기/NNG
##니다/VCP+EF
안무/NNP
수여/NNG
##그렇/VA
UEFA/SL
##산행/NNG
들어올/VV+ETM
약간/MAG
##영국/NNP
##승선원/NNG
2005/SN
깊이/NNG
##진도/NNG
##서로/NNG
복제/NNG
MOU/SL
open/SL
##현대산업개발/NNP
##캠퍼스/NNP
##사업소/NNG
Hollywood/SL
##Arthur/SL
Francis/SL
드릴/NNG
##까만/VA+ETM
##번의/NNG
구상/NNG
뮤지션/NNP
##46/SN
##쟁의/NNG
관광업/NNG
설득/NNG
##스코어/NNG
경/NR
프로듀서/NNG
빌려/VV+EC
발간/NNG
##조건/NNG
역설/NNG
##여부/NNG
염두/NNG
스포츠서울/NNP
떠오르/VV
내다보/VV
##내과/NNG
newsen/SL
##newsen/SL
copyright/SL
##대/VV
양평/NNG
##외국/NNG
##희/NNG
이뤄지는/VV+ETM
열대야/NNG
깨/VV
키/NNG
##뉴/NNG
카를로스/NNP
##트립/NNG
##델/NNB+JKO
파운드/NNP
재선/NNG
서초구/NNP
단둥/NNP
김유진/NNP
조망/NNG
##족/NNG
어려웠/VA+EP
평점/NNG
대단/XR
OCI/SL
반찬/NNG
제작진/NNG
급성장/NNG
##등/NNBC
동남아/NNP
##봉쇄/NNG
중부/NNG
웃도/VV
블랙/NNG
##L/SL
##자체/NNG
플랜/NNG
탑승객/NNG
##판단/NNG
걸로/NNB+JKB
##주/NNP
##정/NNP
인터/NNG
##다고요/EF
호재/NNG
아트/NNG
##닝/NNP
바이어/NNG
남녀/NNG
나무/NNG
반중/NNG
장병/NNG
배당/NNG
##국민카드/NNP
컨디션/NNG
람/NNP
]/SSC
437/SN
##또는/MAJ
정강/NNG
잇/VV
고령자/NNG
영수증/NNG
사연/NNG
잡히/VV
##웰/NNP
빙그레/MAG
수혜/NNG
양식/NNG
리모/NNP
##숲/NNG
재외/NNG
접어들/VV
##재택근무/NNG
마땅/XR
##원인/NNG
중진/NNG
나아가/VV
키움증권/NNP
한도/NNG
기축/NNG
마니아/NNP
오리/NNG
송훈/NNP
유나이티/NNP
성북구/NNP
##단/ETM
##인치/NNBC
벼/NNG
방글라데시/NNP
국제법/NNG
수위/NNG
여아/NNG
순둥이/NNG
##시터/NNP
항균/NNG
대동공업/NNP
##세자/NNG
오태훈/NNP
##혈압/NNG
##월/NNG
거짓/NNG
##백만/NR
##거/NNB
전반기/NNG
실/VV
##김/NNP
##부두/NNG
##다운/XSA+ETM
##대에/NNG
구형/NNG
겸비/NNG
하하/MAG
운명/NNG
##구간/NNG
사업비/NNG
tf/SL
완성도/NNG
참견/NNG
번이/NNG
최우/NNP
##빠른/VA+ETM
칼럼니스트/NNG
##인지/VCP+EF
기쁠/VA+ETM
지켜봐/VV+EC
##니/VCP+EF
희생/NNG
이뤄지며/VV+EC
전무/NNG
강행/NNP
##UEFA/SL
도중/NNG
고의/NNG
돌아온다/VV+EF
독특/XR
느슨/XR
조용/XR
송환/NNG
##전부/NNG
사용량/NNG
심층/NNG
김도읍/NNP
대응책/NNG
대내외/NNG
##현/MM
레이/NNP
##항/NNG
종교/NNG
##WP/SL
획기/XR
##특구/NNP
##105/SN
KTX/SL
경기력/NNG
##룬/NNG
재료/NNG
##연수/NNG
편입/NNG
##딜/NNG
다급/XR
IPO/SL
살아가/VV
고교/NNG
##매각/NNG
##젠/NNBC+JX
겹치/VV
학업/NNG
구현모/NNP
과시/NNG
대다수/NNG
파티/NNG
불씨/NNG
도구/NNG
가성/NNG
##당과/NNG
##-)/SY
69/SN
##황의/NNG
더욱이/MAJ
논리/NNG
##자산운용/NNP
윌슨/NNP
조명/NNG
심도/NNG
올라온/VV+ETM
##투수/NNG
행진/NNG
vs/SL
폰세/NNP
##터/NNG
##LPGA/SL
박현경/NNP
##신탁/NNG
던졌/VV+EP
분노/NNG
살인/NNG
반성/NNG
평상시/NNG
김동명/NNP
##OECD/SL
덮친/VV+ETM
승부/NNG
진정/XR
크다/NNP
##각의/NNG
정해진/NNP
##넥/NNG
간소/XR
아무리/MAG
환영/NNG
전격/NNG
104/SN
경전철/NNG
육아/NNG
##돌봄/VV+ETN
순서/NNG
PD/SL
석/NNG
올라섰/VV+EP
##식이/NNG
침투/NNG
벌어진/VV+ETM
삼성증권/NNP
##숙박/NNG
밀/NNG
##순천/NNG
##부문장/NNG
##텍사스/NNP
누가/NP+JKS
떨어질/VV+ETM
##학회/NNG
##송의/NNG
882/SN
##헬기/NNG
휴대폰/NNG
근거리/NNG
광역/NNG
##mydaily/SL
수에/NNG
유력/XR
##드/VX
##차용/NNG
단행/NNG
종이/NNG
따라가/VV
원내/NNG
고무/NNG
##교의/NNG
##㎏/SY
후손/NNG
##연장/NNG
막히/VV
세워/VV+EC
종류/NNG
검단/NNG
할리우드/NNP
##젠/NNB+JKB+JX
생리대/NNG
##OSP/SL
이명영/NNP
과목/NNG
드러내/VV+EC
건데/NNB+VCP+EC
제일/MAG
ELS/SL
셋째/NR
LNG/SL
성사/NNG
신부/NNG
감비아/NNP
##법안/NNG
뒀/VV+EP
MWC/SL
##동맹/NNG
##탄소/NNG
민물고기/NNG
##％/SY
##아수/NNG
권력/NNG
비투비/NNP
지나/VV+EC
예민/XR
막내/NNG
시공/NNG
김경래/NNP
메모리/NNG
경찰관/NNG
당사국/NNG
밀입국/NNG
이종호/NNP
108/SN
##너스/NNG
##테크윈/NNP
##스와프/NNG
구상/NNP
작동/NNG
제압/NNG
프리/NNG
##라서/EC
##스포츠조선/NNP
연금/NNG
##가입/NNG
함정/NNG
##북대/NNG
농축/NNG
갚/VV
##시립/NNG
##았었/EP
보다/MAG
들뜨/VV
출품/NNG
남한/NNG
##미/XPN
빌보드/NNP
##피버/NNP
##암/NNG
아레나/NNP
be/SL
안주/NNG
##에이티/NNP
무더운/VA+ETM
최우수/NNP
불/VV
##례의/NNG
며칠/NNG
##음식점/NNG
##구장/NNG
끼치/VV
164/SN
문진/NNG
본관/NNG
##프랑스/NNP
급변/NNG
##연결/NNG
잇달/VV
구제/NNG
면모/NNG
보고회/NNG
투기/NNG
가점/NNG
시립/NNG
##수본/NNG
##살/VV
고척/NNP
색깔/NNG
포부/NNG
LH/SL
회의실/NNG
##태승/NNP
떠난/VV+ETM
일어난/VV+ETM
연장선/NNG
상반/NNG
인적/NNG
가상/NNG
치른다/VV+EF
학사/NNG
##는다면/EC
컨트롤/NNG
디스플레이/NNG
##준칙/NNG
연대/NNG
위로금/NNG
##코스/NNG
##야드/NNG
아픈/VA+ETM
널리/MAG
##㎡,/SY
비해서/VV+EC
연인/NNG
2003/SN
##아들/NNG
##마음/NNG
주한/NNG
민족/NNG
##중공업/NNG
시군/NNG
삼진/NNG
##볼넷/NNG
통산/NNG
데이비스/NNP
수용체/NNG
처절/NNG
가격대/NNG
##언서/NNG
풍성/XR
중지/NNG
##명소/NNG
##모바일/NNP
포모스/NNP
삼성전기/NNP
무조건/MAG
##패밀리/NNG
시나리오/NNG
가/VV+EC
관여/NNG
강서구/NNP
이원일/NNP
내려간/VV+ETM
출소/NNG
갑작스러운/VA+ETM
##좌석/NNG
문서/NNG
코스로/NNP
폴란드/NNP
균형발전/NNP
공로/NNG
##행진/NNG
급등세/NNG
격인/NNG
##제기/NNG
##가구/NNBC
들어간다/VV+EF
압력/NNG
초저/NNG
디/NNG
##구청/NNG
스윙/NNG
전과/NNG+JC
##해선/XSA+EC+JX
없애/VV
682/SN
부지/NNG
멈추/VV
##특권/NNG
특별법/NNG
##3001/SN
##관리자/NNG
##찬/NNP
어쩔/VV+ETM
##증서/NNG
공원/NNG
고양이/NNG
사죄/NNG
조정기/NNG
개점/NNG
##멀/NNG
물놀이/NNG
녹색/NNG
##술의/NNP
추가경정예산/NNP
넓혀/VV+EC
전작/NNG
뺀/VV+ETM
로드맵/NNP
ACL/SL
오른쪽/NNG
공통/NNG
##공제/NNG
##핵/NNG
##부활/NNP
##플라자/NNP
블록체인/NNG
질서/NNG
특이/NNG
전향/NNG
##치가/XSA+EC+JKS
아닌가/VCN+EC
성장주/NNG
말년/NNG
지배인/NNG
억제력/NNG
윤종원/NNP
##상거래/NNG
조형물/NNG
굳/VA
160/SN
##요트/NNG
##청원/NNG
청/NNG
##자수/NNG
##셀프/NNP
제프/NNP
컴퓨팅/NNP
##굿/NNG
##비치/NNG
주중/NNG
피로감/NNG
##항목/NNG
장편/NNG
위하/VV
##코닥/NNP
키웠/VV+EP
신선대/NNP
##신약/NNG
적어도/MAG
세포주/NNG
단백/NNG
돋보이/VV
##방의/NNG
한다면/VV+EC
원에/NNG
##호주/NNP
##정/NNG
##증진/NNG
해법/NNG
처해/VV+EC
메이커/NNG
유이/NNG
감회/NNG
파괴/NNG
용/NNG
기침/NNG
후배/NNG
컬러/NNG
엔딩/NNG
##무대/NNG
##메시지/NNG
##해요/XSA+EF
창의/NNG
##양의/NNG
남겨진/VV+EC+VX+ETM
신도/NNG
소환/NNG
##리자/NNG
러시/NNG
##IND/SL
섹시/XR
청사/NNG
신종/NNP
공언/NNG
축사/NNG
간사/NNG
꺼내/VV+EC
##응방/NNG
연체/NNG
##석/NNG
뛸/VV+ETM
당연히/MAG
##감축/NNG
다큐멘터리/NNG
대사/NNG
##예년/NNG
##유전자/NNG
수요자/NNG
안방/NNG
화장실/NNG
심장/NNG
수고/NNG
창사/NNG
법령/NNG
근처/NNG
##무엇/NP
나의/NNG
편하/VA
러브/NNG
##61/SN
##역본/NNG
##매/NNBC
떨/VV
비록/MAG
양호/NNG
디즈니/NNP
의뢰/NNG
입사/NNG
전경/NNG
생계비/NNG
별개/NNG
현저히/MAG
데이비드/NNG
##인더스/NNP
##1997/SN
추광호/NNP
CC/SL
##홀/NNG
단말기/NNG
240/SN
치명률/NNG
양파/NNG
선택과/NNG
밑/NNG
##프로젝트/NNG
##가운데/NNG
해설/NNG
굳이/MAG
##체인/NNG
패권/NNG
##NUGU/SL
부적절/XR
##테크노/NNP
가톨릭/NNG
놀랐/VV+EP
고지/NNG
##타/NNBC
##줘야/VX+EC
트로피/NNG
피폐/XR
옥스퍼드/NNP
과열/NNG
구청/NNG
##현황/NNG
신약/NNG
체중/NNG
빈틈/NNG
상식/NNG
풀린/NNP
##창업자/NNG
국악/NNG
자세히/MAG
몰린/NNG+JX
등재/NNG
탑/NNG
유저/NNG
고충/NNG
##해당/NNG
상하이/NNP
##방위/NNG
##조직/NNG
찾아오/VV
##대본/NNG
##거점/NNG
DNA/SL
##연차/NNG
욜/NNP
경제학/NNG
대법원/NNG
주거비/NNG
덩달/VV
바람직/XR
나란히/MAG
앞서/VV
보일/NNG
달라졌/VA+EC+VX+EP
##한다/VX+EC
둘러보/VV
일괄/NNG
##그런/MM
##패스/NNG
##뉴욕/NNP
직접/MAG
거품/NNG
##주파/NNG
##달의/NNG
##에다/JKB
송파/NNG
레이스/NNG
##보조금/NNG
알차/VA
만인/NNG
1138/SN
조경태/NNP
##용역/NNG
김태년/NNP
##피아/NNG
합작/NNG
##키/NNG
##VR/SL
조속히/MAG
털어놨/VV+EP
쥐/NNG
돌아온/VV+EC
##마이애미/NNP
안/VV
유전/NNG
강경/NNG
이력서/NNG
##|/SY
탁월/XR
##인프라/NNG
결집/NNG
제작사/NNG
##길이/NNG
##자생/NNG
##익/NNG
기안/NNP
거둔/VV+ETM
운/NNG
피고인/NNG
##듯이/EC
남수단/NNP
##폐업/NNG
##쉼터/NNG
##상생/NNG
책자/NNG
우편/NNG
하선/NNG
##MWC/SL
업데이트/NNG
그리스/NNP
##연도/NNG
고맙/VA
전선/NNG
요/MM
처우/NNG
주신/NNG
##카페/NNP
환경부/NNG
##혼/NNG
브레인/NNG
##고양이/NNG
권아솔/NNP
이루어지/VV
##페트르/NNP
##소수자/NNG
안녕/NNG
내릴/VV+ETM
응시/NNG
침수/NNG
##언/EC
남해안/NNG
경제인/NNG
개원/NNG
진주시/NNP
베이/NNP
##조스/NNP
##이마트/NNP
안면/NNG
▶(/SY
##거든요/VCP+EF
김종대/NNP
골드바/NNG
1921/SN
##2580/SN
##실의/NNG
인지도/NNG
##05/SN
##6500/SN
##공무/NNG
내/MM
##이훈/NNG
##려던/ETM
카지노/NNP
기울여야/VV+EC
##xportsnews/SL
##종이/NNG
농어촌/NNG
스마트/NNP
##메디/NNP
흘렀/VV+EP
도레미/NNG
하우스/NNP
생길/NNG
장/NNP
산발/NNG
##매일/NNG
##ZERO/SL
FEVER/SL
part/SL
##Inception/SL
여정/NNG
출연진/NNG
맛집/NNG
##경의/NNG
##마사회/NNG
수협/NNG
치른/VV+ETM
늘린/VV+ETM
애리조/NNP
##홍보/NNG
강동원/NNP
몽골/NNP
가평/NNG
영장/NNG
163/SN
##톤/NNG
##osen/SL
재입/NNG
##신협/NNP
총량/NNG
##우즈베키스탄/NNP
##리바운드/NNG
대우/NNG
투구/NNG
쉼/NNG
연구자/NNG
##진출/NNG
##월드컵/NNG
##돔/NNG
공용/NNG
단번에/MAG
들리/VV
더더욱/MAG
그날/NNG
유권자/NNG
원주시/NNP
##농산물/NNG
로렌/NNP
수락/NNG
멀리/MAG
느낀다/VV+EC
##부모/NNG
육군/NNG
기적/NNG
흡수/NNG
##권/NNBC
##드/VV
뉴/NNP
든다/VV+EF
##스/VV
ESPN/SL
구호/NNG
##토록/XSV+EC
##대우/NNG
의료비/NNG
도울/VV+ETM
최기영/NNP
송도/NNG
##EV/SL
국고/NNG
순찰/NNG
##탈해/NNP+EC
접점/NNG
품/NNG
열악/XR
레시피/NNG
##알/NNG
존경/NNG
영/NNG
우/NNG
윤태현/NNP
tomatoyoon/SL
##FOMC/SL
##이미/MAG
전사/NNG
고유/NNG
##자재/NNG
##전력/NNG
기피/NNG
##능동/NNG
바꿨/VV+EP
##금값/NNG
스탠다드/NNG
놀라/VV
##클리어링/NNP
##레이/NNG
##02/SN
완/NNP
가동/XR
놀란/VV+ETM
##네/EF
조롱/NNG
그라운드/NNG
##남/EF
정치국/NNG
##나/VV+EC
##칠/NNG
로케이션/NNG
역의/NNG
##배우/NNG
##간접/NNG
##브라질/NNP
##코트/NNG
상점/NNG
##민/NNG
##이시아/NNP
##기에/VCP+EC
##봐야/VX+EC
##향/NNG
셀/VA+ETM
블라디보스토크/NNP
인공호흡기/NNG
##블루/NNP
시진핑/NNP
명분/NNG
나들목/NNG
낮췄/VV+EP
긴밀히/MAG
동계/NNG
급속히/MAG
유기/NNG
로/JKB
OSEN/SL
얼어붙/VV
##작품/NNG
쏠림/NNG
##메/NNG
##경보/NNG
보육/NNG
상하/NNG
봐도/VV+EC
기상/NNG
##리스트/NNG
##혜택/NNG
학기/NNG
면세/NNG
플라스틱/NNG
가림막/NNG
##조약/NNG
문화재청/NNG
가파르/VA
##니얼/NNP
##중증/NNG
공무/NNG
크리스티나/NNP
사용자/NNG
생애/NNG
신분/NNG
국한/NNG
##천의/NNG
미흡/NNG
CNET/SL
335/SN
거센/VA+ETM
##세트/NNG
구로구/NNP
맞붙/VV
##과세/NNG
몸값/NNG
속속/MAG
정순형/NNP
junsh/SL
화답/NNG
##카자흐스탄/NNP
하위/NNG
##포탈/NNG
패턴/NNG
고양/NNG
언론사/NNG
##엔지니어링/NNG
우세/NNG
박지원/NNP
가동률/NNG
##모듈/NNG
##생활비/NNG
피아노/NNG
오른다/VV+EF
차세대/NNG
박쥐/NNG
초등학생/NNG
##행동/NNG
승선원/NNG
잠재력/NNG
추미애/NNP
##고투/NNG
##부사장/NNG
부서장/NNG
서밋/NNP
정확도/NNG
면세점/NNG
통신사/NNG
세계유산/NNP
적시/NNG
전해진다/VV+EC+VX+EF
##머레/NNG
경매/NNG
##엄마/NNG
이거/NP
##진입/NNG
열지/NNG
직관/NNG
##스타일/NNG
증강현실/NNP
수출액/NNG
##승은/NNG
##서울시/NNP
##NIH/SL
보인다고/VV+EC
생쥐/NNG
밀크/NNP
으뜸/NNG
##빅맥/NNP
룬/NNG
##쓰리/NNG
소프트/NNG
윈프리/NNP
##매립지/NNG
가구원/NNG
생략/NNG
안산시/NNP
##수산물/NNG
##워치/NNP
검/NNG
움막/NNG
출입국/NNG
##관리법/NNG
내기/NNP
공직자/NNG
적도/NNG
득점/NNG
악영향/NNG
이뤄지고/VV+EC
##논의/NNG
날짜/NNG
KISA/SL
침묵/NNG
##평소/NNG
영문/NNG
꽉/MAG
제로/NR
연평균/NNG
살린/VV+ETM
밀리/VV
접하/VV
ohoh/SL
##병기/NNG
##문해/NNG
거소/NNG
##비자/NNG
학위/NNG
제제/NNG
뵙/VV
love/SL
작곡/NNG
녹음/NNG
really/SL
people/SL
##짐/NNG
이겨낼/VV+EC+VX+ETM
업소/NNG
마리아노/NNP
몰/VV
극장가/NNG
발대식/NNG
인문학/NNG
유의/NNG
##페스티벌/NNG
힙/NNP
할매/NNG
미뤄/VV+EC
##진행/NNG
북측/NNG
견해/NNG
##질병/NNG
##내달/NNG
##참한/NNG
손수/NNG
짐작/NNG
개인위생/NNG
##발급/NNG
##렌/NNG
정당/NNG
면적/NNG
##상장/NNG
가까이/NNG
약값/NNG
쉴/VV+ETM
약자/NNG
단어/NNG
객석/NNG
꿈꾸/VV
제치/VV
##키드/NNP
청량/NNG
악용/NNG
실형/NNG
대담/NNG
##공모/NNG
##을수록/EC
나름/NNB
##네트/NNG
##디자인/NNG
아닙니다/VCN+EF
##비아/NNG
##열/NR
##2023/SN
##기원/NNG
##ONE/SL
정형/NNG
반사/NNG
##밀러/NNP
남다른/VA+ETM
만들어진/NNP
슬기/NNG
옮겨/VV+EC
서로/NNG
공표/NNG
##다른/VA+ETM
극찬/NNG
인형/NNG
이현아/NNP
##조사단/NNG
##애플/NNP
##한지/XSA+EC
적립금/NNG
마운드/NNG
내려갔/VV+EP
패배/NNG
살려/VV+EC
발돋움/NNG
팔꿈치/NNG
인연/NNG
##만약/NNG
##엠스/NNP
내려가/VV
오바마/NNP
중시/NNG
퇴출/NNG
##으론/JKB+JX
##편/NNB
##확대회의/NNG
##인회/NNG
##액션/NNG
구출/NNG
돌이킬/VV+ETM
##질병관리본부/NNP
교훈/NNG
##높/VA
쏠리/VV
가맹/NNG
마거릿/NNP
길이/NNG
##동물/NNG
##융합/NNG
가늠/NNG
MLCC/SL
시흥/NNP
외면/NNG
##활의/NNG
대국/NNG
##N/SL
##끈/NNG
##두/MM
최장/NNG
##㎡)/SY
브이/NNG
나뉘/VV
##도심/NNG
유급/NNG
피력/NNG
보잉/NNG
순환/NNG
##96/SN
##작전/NNG
188/SN
북경/NNG
가슴/NNG
##비중/NNG
##제조/NNG
간접/NNG
고공/NNG
##엘/JKB+JKO
콜라보/NNP
인천국제공항공사/NNP
##직의/NNG
##차단/NNG
##치킨/NNG
인사이트/NNP
##링/NNG
멤피스/NNP
##지디/NNP
##zdnet/SL
ZDNet/SL
4329/SN
준공/NNG
검출/NNG
구두/NNG
철학/NNG
##시행/NNG
믿음/NNG
택시/NNG
삼계탕/NNG
##삽시/NNG
##인공/NNG
과기/NNG
##숍/NNG
시내버스/NNG
빠져/VV+EC
끼/VV
괜찮/VA
화생방/NNG
##비시/NNG
##석유/NNG
RNA/SL
266/SN
##연대/NNG
태어난/VV+ETM
연면적/NNG
라이/NNG
DJ/SL
##하인/NNG
면역력/NNG
가깝/VA
명/XPN
곡선/NNG
OTT/SL
선수협/NNP
발달/NNG
문성현/NNP
##창/NNG
##%→/SY
정서/NNG
곳도/NNP
단일/NNG
박수/NNG
해커/NNG
##세네갈/NNP
##획단/NNG
괴롭힘/VV+ETN
##메/VV+EC
##도쿄/NNP
##충남/NNP
##확인서/NNG
##7733/SN
빼/VV
##초등/NNG
잡혔/VV+EP
##냐/VCP+EC
##램/NNG
푹/NNP
추방/NNG
억압/NNG
첫째/NR
입단/NNG
원양/NNG
##롯데월드/NNP
윤대희/NNP
##부양/NNG
자격증/NNG
국책/NNG
라이더/NNG
대원/NNG
##캄보디아/NNP
쪽방/NNG
표류기/NNG
과자/NNG
찐/VV+ETM
온천/NNG
##캉/NNG
캠퍼스/NNG
치료비/NNG
품평회/NNG
박지혜/NNP
##적용/NNG
극심한/NNP
##빵/NNG
##실습/NNG
##양식/NNG
대두/NNG
오늘/MAG
와/VV+EC
퀴즈/NNG
재밌/VA
##PETR/SL
##IMF/SL
개그맨/NNG
##솔/NNG
초회/NNG
넘어설/VV+ETM
준우승/NNG
주어진다/VV+EF
##씨티/NNP
우호/NNG
##농가/NNG
저널/NNG
##뭐/NP
나중/NNG
증평군/NNG
연회/NNG
##경주/NNP
편한/VA+ETM
더블/NNG
##트랙/NNG
성금/NNG
##호의/NNG
인도/NNG
##맨/MM
각별/NNG
휴가지/NNP
참모/NNG
피터/NNP
##외/NNG
##cm/SL
다지/VV
##선거법/NNG
트윈스/NNP
실책/NNG
특집/NNG
제네릭/NNG
##기획사/NNP
입주민/NNG
땀/NNG
건데요/NNB+VCP+EF
##공동대책위원회/NNP
근절/NNG
165/SN
153/SN
이방인/NNG
마주/MAG
충실/NNG
거장/NNG
330/SN
턱없이/MAG
특강/NNG
올라갈/VV+ETM
##H/SL
1997/SN
센서/NNG
잠복기/NNG
분배/NNG
바이/MAG
한지우/NNP
뉴욕주/NNP
공공시설/NNG
푸젠/NNG
받아들여/VV+EC
X/SL
서초/NNG
좁/VA
FOMC/SL
##심/XSN
##형의/NNG
남측/NNG
보강/NNG
해시/NNG
고려대/NNP
형평/NNG
환원/NNG
컵스/NNP
W/SL
볼넷/NNG
##93/SN
잭/NNG
##68/SN
심하/VA
확률/NNG
당하/VV
견고/XR
재현/NNG
빠/NNP
##제는/NNB+JKB+JX
##면의/NNG
서열/NNG
노동당/NNG
##살인/NNG
추격자/NNG
마침/MAG
구립/NNG
##주체/NNG
한전/NNP
입구/NNG
죽음/NNG
고래/NNG
##주시/NNG
본선/NNG
열화상/NNG
끼쳤/VV+EP
##JCT/SL
제동/NNG
게리/NNP
어업/NNG
동거인/NNG
유인/NNG
4500/SN
##대한/VV+ETM
떠나/VV+EC
스테이/NNP
아모/MM
##풋볼/NNG
태세/NNG
대의원/NNG
##군요/EF
##인덱스/NNG
만난다/VV+EF
##웨이/NNG
통역/NNG
##갈/VX+ETM
검진/NNG
베/NNG
##팅/MAG
정당/XR
당황/NNG
김태형/NNP
##2002/SN
##학년도/NNG
##세율/NNG
##캉/JKB
막판/NNG
의자/NNG
동미/NNG
##참/NNG
미쓰/NNP
##예금/NNG
##출연/NNG
종로/NNG
##인텔/NNP
##그래픽/NNG
103/SN
##담당자/NNG
정교/XR
들어가/VV+EC
Fed/SL
##한가/XSA+EF
쿠키/NNG
박스/NNG
##한방/NNG
##체인지/NNG
붕괴/NNG
매물/NNG
장시간/NNG
##관계자/NNG
실사/NNG
치과/NNG
##뿐/NNB
##꺼야/VV+EC
##개혁/NNG
후기/NNG
협/XR
모의고사/NNG
집중호우/NNP
MBN/SL
장장/NNG
체육회/NNG
베이커리/NNP
##초/NNBC
발레/NNG
교/NNG
공인/NNG
당면/NNG
##저축/NNG
―/SY
2300/SN
##복무/NNG
서포터/NNG
누계/NNG
##jebo/SL
##내/VX+EC
##제이/NNG
##대주/NNG
최신형/NNG
##힐링/NNG
##정치/NNG
##콤/NNG
클/NNG
그걸/NP+JKO
노근리/NNP
이란/NNG
79/SN
##르미/NNP
요트/NNG
##IFA/SL
##전시관/NNG
봅니다/VV+EF
##bp/SL
일치/NNG
##걸음/NNG
##리얼/NNG
조립/NNG
권한쟁의심판/NNP
##발전소/NNG
##엑스포/NNG
멀린/NNP
부위/NNG
맘/NNG
OCR/SL
##천은/NNG
##자녀/NNG
안전거리/NNG
##증권거래소/NNP
고조/NNG
벌/VV
모형/NNG
분/NNB
총재/NNG
##드릴/NNG
이정진/NNP
대대/NNG
어기/VV
##개방/NNG
장익수/NNP
독성/NNG
##카지노/NNP
결승전/NNG
집짓기/NNG
채소/NNG
##실천/NNG
보탰/VV+EP
원주/NNG
그랬던/VA+EP+ETM
역이/NNG
신나/NNG
##모두/NNG
영감/NNG
시화/NNG
문해/NNG
벤자민/NNP
To/SL
전의/NNG
풀어낸/VV+ETM
섭외/NNG
매진/NNP
마디/NNG
급기야/MAG
남겨/VV+EC
술집/NNG
일어날/VV+ETM
##내/VV
위약/NNG
나선다고/VV+EC
대명사/NNG
구매자/NNG
##앤/NNP
##자도/NNG
활발히/MAG
네/MM
챙기/VV
명실상부/NNG
날아가/VV
모양/NNG
기흥/NNG
안무가/NNG
찾아왔/VV+EP
과감히/MAG
잡지/NNG
선점/NNG
##고/NNG
흔적/NNG
크리스/NNP
눈앞/NNG
후퇴/NNG
##항의/NNG
손실액/NNG
재능기부/NNP
##송라이터/NNP
##뮤직/NNG
간절/XR
거짓말/NNG
딜/NNG
자부심/NNG
##여객/NNG
##께/XSN
돌려주/VV
##채/NNB
##이사장/NNG
##될지/XSV+EC
##복수/NNG
##인터뷰/NNG
##스퀘어/NNG
850/SN
과다/NNG
##오마이/NNG
종종/MAG
샀/VV+EP
코리안/NNG
by/SL
캔/NNG
세분/NNG
환전/NNG
기종/NNG
143/SN
머무/VV
얼음/NNG
팔/NR
배인규/NNP
거절/NNG
절박/XR
증/NNG
부연/NNG
##설비/NNG
송출/NNG
저커버그/NNP
나쁘/VA
3500/SN
미드필더/NNP
수비수/NNG
##자문/NNG
역점/NNG
이력/NNG
##pressian/SL
83/SN
##01/SN
구장/NNG
브레그먼/NNP
매뉴얼/NNG
##온/MM
그래픽/NNG
##제네/NNP
mRNA/SL
심한/VA+ETM
##강남/NNP
출원/NNG
##어서다/EF
최악/NNG
##튜버/NNP
오브라이언/NNP
당국자/NNG
캠프/NNP
노스캐롤라이나주/NNP
여행자/NNG
##연출/NNG
유치에/NNP
기판/NNG
##포털/NNP
##타이/NNG
분열/NNG
##준의/NNG
중식/NNG
157/SN
coinlocker/SL
실업자/NNG
농업기술센터/NNP
트럼프/NNP
들어설/VV+ETM
AR/SL
Sh/SL
##119/SN
##법상/NNG
실전/NNG
##최고/NNG
##환/NNG
271/SN
생필품/NNG
느껴/VV+EC
장치/NNG
곽/NNG
##일간/NNG
CP/SL
##급식/NNG
실감/NNG
##합동/NNG
금시장/NNG
아니/IC
이어진다/VV+EF
친중파/NNP
수리온/NNP
황각규/NNP
##백억/NR
혈세/NNG
대니얼/NNP
신뢰도/NNG
뭔가/NP+VCP+EC
건설사/NNG
옛/MM
##스페인/NNP
##뉴질랜드/NNP
김현경/NNP
##영의/NNG
북부/NNG
모처럼/MAG
오락/NNG
##예매/NNG
주소/NNG
##고도/NNG
##보이즈/NNP
올바른/VA+ETM
유독/MAG
키오스/NNP
철도/NNG
##지/XSA+EC
임신/NNG
##외교/NNG
##코리아/NNG
정치력/NNG
가급적/NNG
##부서/NNG
다짐/NNG
권장/NNG
On/SL
##주점/NNG
##천시/NNG
##브랜드/NNG
세단/NNG
RFA/SL
남포/NNG
추인/NNG
서대문구/NNP
고스란히/MAG
민생/NNG
역동/NNG
함/NNG
넘긴/VV+ETM
거시/NNG
##허브/NNG
달해/VV+EC
##여건/NNG
##혈장/NNG
산업용/NNG
달랐/VA+EP
라이스/NNP
샤피로/NNP
코로/NNP
머스크/NNG
2040/SN
BMW/SL
버핏/NNP
별/NNG
파크/NNG
기조연설/NNG
갖춰야/VV+EC
##래/VCP+EF
##투석/NNG
##동자/NNG
변하/VV
대한체육회/NNP
##조세/NNG
##임원/NNG
##카페/NNG
##청정기/NNP
##전담/NNG
##혼란/NNG
살아나/VV
##서수연/NNP
##배정/NNG
세일/NNG
여객/NNG
필두/NNG
놀/VV
##라서/VCP+EC
안착/NNG
동성애/NNG
##렀다/UNKNOWN
##어제/NNG
##도원/NNG
사이언스/NNG
출하량/NNG
오클라호마시티/NNP
##다양/NNG
냉방/NNG
추/NNG
미래형/NNG
##삽시도/NNG
핑크/NNG
소득세/NNG
##지나/VV+EC
버크셔/NNP
메그/NNP
공단/NNG
영동군/NNG
헬기/NNG
예스/IC
##비빔밥/NNG
보석/NNG
##지/NNP
펫/NNP
##였으며/EP+EC
빈번/XR
일수/NNG
불거지/VV
공론화/NNG
숙의/NNG
##항체/NNG
국제통화기금/NNP
붙이/VV
##특정/NNG
별명/NNG
누리꾼/NNG
차관/NNG
저출산/NNP
다룬/VV+ETM
##완전/NNG
내로/NNG
무조건/NNG
그럴까/VA+EC
아실/NNG
엑스트라/NNG
지나가/VV
국제기구/NNG
김진/NNP
거머쥐/VV
##제프/NNP
기쁜/VA+ETM
닿/VV
##럽/NNP
##돌/NNG
##별/NNG
메일/NNG
돌풍/NNG
의정부/NNG
주거지/NNG
명소/NNG
popnews/SL
heraldpop/SL
학술지/NNG
졸탄/NNP
다녀간/VV+ETM
##진자/NNG
kim/SL
고강도/NNG
아메리카/NNP
개최지/NNG
공이/NNG
##스테이/NNP
##증폭/NNG
##외교부/NNP
##골프장/NNG
치/IC
리듬/NNG
녹여/VV+EC
눈여겨/VV+EC
직영/NNG
##예측/NNG
빅/NNP
소망/NNG
멀티플렉스/NNG
나간/NNG
불꽃/NNG
사원/NNG
기증/NNG
싱어/NNG
1900/SN
##났/VV+EP
레이커/NNP
##도서/NNG
##온/NNG
##예정/NNG
미래인/NNP
니/NP
##대수/NNG
##joins/SL
##순손실/NNG
##전시실/NNG
450/SN
##젠/EC
##자치구/NNG
가라앉/VV
보편/NNG
현명/NNG
다가왔/VV+EP
넘어가/VV
다우존스/NNG
##로움/XSA+ETN
온누리/NNP
##민족/NNG
##쇼핑몰/NNG
가져올/VV+ETM
##삼성/NNP
##차이/NNG
맞서/VV
##캐피탈/NNP
##재정법/NNG
##사업비/NNG
라이언/NNP
동남/NNG
##태그/NNG
중개/NNG
국부/NNG
일어났/VV+EP
이어서/VV+EC
신인/NNG
샌프란시스코/NNP
449/SN
필드/NNG
스폰서/NNG
##솔/NNP
마이클/NNP
##매제/NNG
##서초/NNG
##사무/NNG
##개관/NNG
사단/NNG
##재무제표/NNG
우량/NNG
할지/VV+EC
아닐/VCN+ETM
뼈/NNG
뉴노/NNP
국채/NNG
말레/NNP
지켜봐야/VV+EC
고리/NNG
논/VV+ETM
에프/NNG
투자처/NNG
쿨/NNG
##음에도/EC
6800/SN
건설업/NNG
폐도/NNG
##경마/NNG
본국/NNG
눈높이/NNG
##고령/NNG
전파로/NNG
관리자/NNG
##키트/NNP
다리/NNG
##2003/SN
보여준다/VV+EC+VX+EF
##인플레이션/NNG
##졸/NNG
##아웃/NNG
##화이자/NNP
사/VV+EC
##미스터/NNP
억울/XR
##매매/NNG
##해서/VV+EC
만족도/NNG
##밀착/NNG
##수산/NNG
꺾/VV
노무현/NNP
##측정/NNG
맡기/VV
표창/NNG
수천/NR
##에서부터/JKB
이승훈/NNP
##모닝/NNP
한데/NNG
소방/NNG
114/SN
이론/NNG
경계심/NNG
벨라루스/NNP
##전통/NNG
통로/NNG
sj/SL
유경준/NNP
열람실/NNG
동결/NNG
NC/SL
##기회/NNG
엑스레이/NNG
마중물/NNG
##품/NNG
채워/VV+EC
##㈜/SY
오염/NNG
여권/NNG
변동비/NNG
2001/SN
ʺ/SY
##ʺ/SY
도드/NNP
##도드/NNP
넓히/VV
유흥주/NNP
##패션/NNG
https/SL
이대로/NNP
다극/NNG
##벨트/NNG
프리랜서/NNG
##머니/NNG
##조성/NNG
김소연/NNP
그분/NP
##퍼/VV+EC
##퍼/NNG
자식/NNG
채우/VV
발사체/NNG
더구나/MAJ
##ESS/SL
트리오/NNG
조작/NNG
송구/XR
나이키/NNG
##FM/SL
용이/XR
맞춘/VV+ETM
피/NNG
화두/NNG
##친환경/NNG
##남대/NNG
애경/NNP
##탈/NNG
##광고/NNG
교내/NNG
오리올/NNP
##가장/NNG
바꿀/VV+ETM
경제활동인구/NNP
##철의/NNG
국영/NNG
라는/ETM
보존/NNG
예식/NNG
이화여대/NNP
##종사자/NNG
##관망/NNG
가파른/VA+ETM
##보유/NNG
서방/NNG
##집단/NNG
저스틴/NNP
##요기/NP
강판/NNG
##위반/NNG
해운/NNG
피/VV
특급/NNG
포틀랜드/NNP
##국방/NNG
위대/XR
##식/NNG
오페라/NNG
##lee/SL
##비상사태/NNG
##BSI/SL
구독/NNG
쏠린다/VV+EF
##이치현/NNP
턱시도/NNG
현대제철/NNP
인허가/NNG
노르웨이/NNP
방위/NNG
샷/NNG
밥상/NNG
쌀/NNG
##느냐/EF
KF/SL
이산화/NNG
소강/NNG
##작가/NNG
##본/VX+ETM
##부정의/NNG
훈육/NNG
잘못/NNG
##하/JKV
##학원/NNG
DT/SL
카페/NNG
큐리/NNP
##서류/NNG
《/SY
심신/NNG
베네치아/NNP
##비와/VV+EC
보관/NNG
##NYSE/SL
##성분/NNG
##수사/NNG
##죄/NNG
확인서/NNG
##부여/NNG
##해요/XSV+EF
##감염자/NNG
144/SN
IMF/SL
360/SN
긴축/NNG
훌쩍/MAG
증권가/NNG
##KISA/SL
##진이/XSV+EC+JX+JKS
친해/VA+EC
원금/NNG
스타크래프트/NNP
자정/NNG
엑/IC
##농/NNG
##위가/NNG
발동/NNG
##염과/NNG
빈틈없/VA
##너무/MAG
##꼭/NNG
수인/NNG
오대환/NNP
일반인/NNG
##다의/NNG
##케이/NNG
바가/NNP
방송사/NNG
노스캐롤라이나/NNP
출입자/NNG
진지/XR
방문자/NNG
바르/NNG
##')/SY
욕/NNG
고루/NNG
취했/VV+EP
##사로/NNG
248/SN
일사천리/NNG
시켜/VV+EC
무거운/VA+ETM
##검찰청/NNG
그려졌/VV+EC+VX+EP
트레이닝/NNG
아꼈/VV+EP
올라서/VV
아빠/NNG
직선/NNG
향유/NNG
구비/NNG
차근차근/MAG
##목표/NNG
##어려운/VA+ETM
무작위/NNG
흔히/MAG
느낀/VV+ETM
터미널/NNG
498/SN
국무부/NNG
뿌듯/XR
##져서/VX+EC
##태국/NNP
워너/NNP
##청이/NNG
줌/NNG
##눈/NNG
민경석/NNP
newsmaker/SL
볼리비아/NNP
키울/VV+ETM
##업과/NNG
##대로/JKB
손병두/NNP
E/SL
임박/XR
띠/VV
따지/VV
##베드/NNG
이탈자/NNG
##요금제/NNP
##하노이/NNP
퍼져/VV+EC
##소주/NNG
##기업인/NNG
피할/VV+ETM
IC/SL
항바이러스제/NNG
왼쪽/NNG
제너/NNP
##구축/NNG
1478/SN
취미/NNG
레저/NNG
스콧/NNP
도발/NNG
증액/NNG
케이블/NNG
연동/NNG
한창/NNG
야경/NNG
##베이징/NNP
조제/NNG
##적립금/NNG
따/VV+EC
몰렸/VV+EP
##루수/NNG
고개/NNG
가해자/NNG
탄/NNG
포토/NNG
##데이/VV
좌승/NNG
##창작/NNG
디자이너/NNG
구로/NNG
##가짜/NNG
건축비/NNG
미세/NNG
폐/NNG
색다른/VA+ETM
포항/NNG
무자비/XR
##폴/NNG
무비/NNG
구할/VV+ETM
##정말/MAG
조세일보/NNP
유의미/XR
적임자/NNG
까지/JX
털/VV
##낼/VX+ETM
웹툰/NNP
##허가/NNG
홀로/MAG
예술가/NNG
##것/NNB
거세/VA
대장/NNG
머크/NNP
##밀정/NNG
##품목/NNG
##헬스/NNG
고철/NNG
##학술지/NNG
동남아시아/NNP
주석/NNG
늘릴/VV+ETM
##도로공사/NNP
닛케이/NNP
기승/NNG
##콘/NNG
##스쿨/NNG
라이온즈/NNP
공적/NNG
##노동자/NNG
##전시회/NNG
러닝메이트/NNG
##더라/EC
정문/NNG
합성/NNG
산출/NNG
청약률/NNG
파운드리/NNP
관중석/NNG
##’)/SY
심판/NNG
웃돈/NNG
발부/NNG
밀레/NNP
##IB/SL
금과/NNG
명은/NNG
파생/NNG
만회/NNG
캐디/NNG
부정행위/NNG
퇴치/NNG
IATA/SL
건당/NNG
##핸드볼/NNG
##설명/NNG
시키/VV
부터/JX
끊/VV
적혀/VV+EC
##임금/NNG
유색인/NNP
##덤/NNG
사업체/NNG
수와/NNG
##123/SN
해외여행/NNG
##맹의/NNG
일으킬/VV+ETM
##책의/NNG
데이브/NNP
##상업/NNG
무전기/NNG
나아갈/VV+ETM
베이비/NNG
기준치/NNG
IPTV/SL
##전공/NNG
더딘/VA+ETM
기탁/NNG
래/NNP
인덱스/NNG
##역대/NNG
159/SN
##화력/NNG
지났/VV+EP
##국민주/NNG
254/SN
하이브리드/NNG
일제히/MAG
태블릿/NNP
keun/SL
깨끗/XR
포/NNG
든/VV+ETM
##콘퍼런스/NNP
확실시/NNG
##재즈/NNG
##위크/NNG
##악/NNG
##아름다운/VA+ETM
##쿠폰/NNG
##테/NNB+VCP
오스트리아/NNP
오디션/NNG
##레스/NNP
1100/SN
제품군/NNG
GM/SL
꺾이/VV
##스와/NNP
야기/NNG
전송/NNG
패밀리/NNG
##실물/NNG
번영/NNG
전념/NNG
##제이기/NNG
넷째/NR
이인영/NNP
##munhwa/SL
충청/NNP
낀/NNG
전산/NNG
##메뉴/NNG
들깨/NNG
오늘날/NNG
아산/NNP
외화/NNG
마사지/NNP
##인먼/NNP
##농요/NNG
##채/MAG
버리/VV
##담사/NNG
다를/VA+ETM
존중/NNG
오디오/NNG
##분경/NNG
기성/NNG
무주군/NNG
명예/NNG
##도스/NNG
##도장/NNG
##임대료/NNG
공청회/NNG
필연/NNG
##연소/XR
반장/NNG
##배송/NNG
##KOTRA/SL
행/NNG
##킹/MAG
프로젝터/NNG
DID/SL
Atomo/SL
에듀/NNP
##공매도/NNG
TS/SL
174/SN
오서산/NNP
단/MAJ
상품권/NNG
산학/NNG
중앙일보/NNP
원천/NNG
티저/NNP
기운/NNG
폭등/NNG
회견/NNG
기다렸/VV+EP
언제나/MAG
행정력/NNG
해킹/NNG
##MC/SL
푸른/VA+ETM
생보/NNG
1700/SN
##더불/VV
금년/NNG
##시국/NNG
서먹서먹/XR
##GSK/SL
##비스/NNG
독창/NNG
공관/NNG
##7375/SN
보람/NNG
##었었/EP
이렇게/MAG
기다린/VV+ETM
##광역/NNG
수산업/NNG
##촉진/NNG
시어머니/NNG
소문/NNG
휴식기/NNG
dream/SL
##比/NNG
##케이/XSV+EC+JKS
당뇨병/NNG
안건/NNG
컨벤션/NNG
살해/NNG
앞당겨/VV+EC
금감/NNG
##행과/NNG
##커/VA+EC
트레이드/NNG
##250/SN
##인생/NNG
주차장/NNG
동갑내기/NNG
되짚/VV
##한편/NNG
지우/VV
매점/NNG
발산/NNG
탈환/NNG
##가라/NNG
불문/NNG
##짐/VX+ETN
##기대/NNG
##포장/NNG
온전히/MAG
##선진국/NNG
농민/NNG
감자/NNG
바쁜/VA+ETM
조용히/MAG
살아남/VV
입대/NNG
##관사/NNG
##통업/NNG
줄인/VV+ETM
##원송/NNP
챙긴/VV+ETM
##판사/NNG
유소년/NNG
스포츠조선/NNP
##서/VV+EC
피츠버그/NNP
지냈/VV+EP
재테크/NNG
KDB/SL
월드컵/NNG
단점/NNG
끄/VV
##의체/NNG
미래산업/NNP
스포츠동아/NNP
낮출/VV+ETM
##워싱턴/NNP
##지회/NNG
##육의/NNG
##원사/NNG
컷오프/NNG
##플레이/NNG
·/SC
Rights/SL
Reserved/SL
이음/NNG
만하/NNG
##대원/NNG
446/SN
상처/NNG
##397/SN
선보인다고/VV+EC
##한데/XSV+EC
##"…/SY
한쪽/NNG
##객/NNG
꾸려/VV+EC
WSJ/SL
바짝/MAG
멈출/VV+ETM
끌어올린/VV+ETM
광역시/NNG
부임/NNG
젝시/NNP
수어/NNG
화폐/NNG
불리/NNG
##남/VV
가말/VV
던진/VV+ETM
팝/NNG
라이트/NNG
당했/VV+EP
세인트루이스/NNP
불펜/NNG
##발의/NNG
미추홀/NNP
수백만/NR
##상한제/NNP
택지/NNG
##회사채/NNG
총액/NNG
##작용/NNG
남포항/NNP
한강/NNP
-'/SY
##라기/ETN
느와르/NNP
인해서/VV+EC
해온다/VV+EC+VX+EF
BIG/SL
집무실/NNG
아카데미/NNG
파트너십/NNP
##개주/NNG
수만/NR
모을/VV+ETM
##약용/NNG
##세미나/NNG
엎친/VV+ETM
수년/NNG
##어떻/VA
거세/VA+EC
펼칠/VV+ETM
예술인/NNG
##고리/NNG
코너/NNG
일가/NNG
낙폭/NNG
매코/NNG
##일인/NNG
밀착/NNG
제언/NNG
한눈/NNG
1992/SN
썰매/NNG
##67/SN
##찾아가/VV
위성/NNG
##분에/NNG
오브/NNP
##결합/NNG
진술/NNG
진실/NNG
##요령/NNG
##매치/NNG
청정/NNG
##Untact/SL
##문재인/NNP
후보자/NNG
지방분/NNG
이바지/NNG
서양식/NNG
다운로드/NNG
##시점/NNG
##방해/NNG
프레젠테이션/NNG
##엠아이/NNP
미얀마/NNP
교과목/NNG
면책/NNG
무너지/VV
##로워/XSA+EC
명부/NNG
개막식/NNG
몫/NNG
세운/NNG
착한/VA+ETM
터지/VV
##접수/NNG
##New/SL
##과거/NNG
##회수/NNG
##용량/NNG
##왕/NNG
퇴근/NNG
파리/NNG
다가올/VV+ETM
의과/NNG
중환자실/NNG
안다/VV+EC
##연말/NNG
공세/NNG
##캡틴/NNG
##4353/SN
해병/NNG
클린/NNG
##답/XSA
정면/NNG
초선/NNG
점프/NNG
가져가/VV
280/SN
##던스/NNP
##담배/NNG
생체/NNG
싫/VA
산책/NNG
로켓/NNG
전폭/NNG
유가증권/NNP
##중단/NNG
##예/NNG
메리/NP
김부겸/NNP
##토의/NNG
정치인/NNG
페이지/NNG
역성/NNG
##아모/MM
##보안/NNG
피서지/NNG
액수/NNG
주춤/XR
##플로리다/NNP
급속/NNG
한국어/NNG
##전산망/NNG
이대호/NNP
그쳐/VV+EC
분담금/NNG
익명/NNG
이병훈/NNP
전달식/NNG
놓여/VV+EC
관악구/NNP
##테마/NNG
그친/VV+ETM
##망치/NNG
##실질/NNG
볼보/NNP
클로로퀸/NNG
##훈련장/NNG
후유증/NNG
##사망자/NNG
케이블카/NNG
900/SN
판사/NNG
전라북도/NNP
신파/NNG
##개/NNG
리포트/NNG
##LA/SL
노트북/NNG
밸류/NNG
연쇄/NNG
##관박쥐/NNG
순회/NNG
레/NNG
##정통부/NNG
##총의/NNG
##3069/SN
직결/NNG
베터/NNP
앤디/NNP
##양국/NNG
함평군/NNG
고농도/NNG
기장/NNG
디비/NNG
인포/NNP
르네상스/NNG
##베이/VV
열도/NNG
키르기스스탄/NNP
굴/NNG
차림/NNG
차가운/VA+ETM
떠오른/VV+ETM
미룬/VV+ETM
안타까움/VA+ETN
##지시/NNG
식물/NNG
##The/SL
##부지사/NNG
디바이스/NNG
애덤/NNP
##유출/NNG
구도/NNG
살균/NNG
안부/NNG
##워킹/NNG
내리/NNP
늘려야/VV+EC
트레이너/NNG
##근/NNG
##골목/NNG
새울/VV+ETM
##공감/NNG
규격/NNG
악기/NNG
그럼/MAJ
춘천/NNG
##극단/NNG
한껏/MAG
친밀/NNG
화가/NNG
애틋/XR
##상가/NNG
##부족/NNG
##mm/SL
시티투어/NNP
기해/VV+EC
영동/NNG
##포드/NNP
파라다이스/NNP
준비기/NNG
##넬/XSN+JKO
전라남도/NNP
건춘문/NNG
스펙/NNP
##보통/NNG
광산구/NNP
##소설/NNG
수업료/NNG
1944/SN
##링단/NNG
쏠/NNG
홍범도/NNP
##에스원/NNP
##중량/NNG
베토벤/NNP
##륙/NR
##2012/SN
떡볶이/NNG
보/NNG
성폭력/NNG
##부산시/NNP
##성남/NNP
폭소/NNG
이뤄져야/VV+EC
수거/NNG
##올/MM
줄여야/VV+EC
강자/NNG
캐스팅/NNG
##유이/NNG
싸여/VV+EC
##2014/SN
시상/NNG
##들/NNG
##지자체/NNG
##동시/NNG
서사/NNG
셀/NNP
하시/NP
풀어내/VV
했으니/VV+EP+EC
법무법인/NNP
##사원/NNG
낫/VA
주/NNP
거창군/NNG
강력히/MAG
누락/NNG
트로트/NNG
168/SN
1116/SN
슈/NNP
총출동/NNG
빼놓/VV
정화/NNG
주식회사/NNG
##입장/NNG
조달청/NNG
피의자/NNG
##존슨/NNP
단호/XR
아이스/NNP
##어라/EC
##이게/NP+JKS
기고/NNG
##비노/NNG
##틱/XSN
고소/NNG
소소/XR
사소/XR
저지/NNG
임할/VV+ETM
선발투수/NNP
팻말/NNG
##비즈니스/NNG
드림/VV+ETM
##기장/NNG
슬프/VA
##라가/NNG
##아연/NNG
귀금속/NNG
복숭아/NNG
옥수수/NNG
##토지/NNG
반환점/NNG
복수/NNG
구직/NNG
##2013/SN
누리/NNG
간절히/MAG
##후보지/NNG
순증/NNG
##회차/NNG
아성/NNG
심정/NNG
##구인/NNG
에일리/NNP
##리스/NNG
##여기/NP
무겁/VA
양형/NNG
##엑스/NNG
모은/VV+ETM
공산/NNG
띈다/VV+EF
경영학/NNG
##정신/NNG
##가/NNG
분포/NNG
아르헨티나/NNP
대하/VV
연다고/VV+EC
##요즘/NNG
입니다/VCP+EF
##비나/NNG
##부진/NNG
##치웠/VX+EP
##윈/NNP
입소자/NNG
계단/NNG
##우승/NNG
서/NNG
##128/SN
##틴/NNG
##알파/NNG
지지자/NNG
우루무치/NNP
방제/NNG
여가/NNG
##음료/NNG
##황/NNP
우여곡절/NNG
절/NNG
##드사이/NNP
그저/MAG
##증한/VA+ETM
##미군/NNG
닫/NNG
대체/MAG
진/VV+ETM
##페이스북/NNP
알파벳/NNG
도스/NNG
##타당/XR
##토트넘/NNP
칼럼/NNG
##밸리/NNP
봉사자/NNG
##교협/NNP
##돼/VV+EC
마일스/NNP
애틀랜타/NNP
멀티/NNG
##71/SN
로드리게스/NNP
안겨/VV+EC
빈볼/NNP
결과물/NNG
아프/VA
돼지/NNG
슈퍼컴퓨터/NNG
아미노산/NNG
배수로/NNG
##스러워/XSA+EC
쾌감/NNG
말자/NNG
한데/MAJ
대타협/NNG
수기/NNG
치킨/NNG
입장권/NNG
행사장/NNG
절실히/MAG
돌보/VV
민심/NNG
넉/NNG
애니메이션/NNG
우한/NNG
콩/NNG
##유형/NNG
##mtstarnews/SL
대란/NNG
이은/NNG
##카메라/NNG
##원주/NNP
빌딩/NNG
##건물/NNG
##널/NNG
도로공사/NNP
##사별/NNG
탔/VV+EP
인테리어/NNG
소진/NNP
##요양/NNG
정세/NNG
##지정/NNG
혈소판/NNG
커플/NNG
2434/SN
##젯/NNP
##스토리/NNG
남미/NNP
정오/NNG
##삼성전자/NNP
##하이닉스/NNP
##지요/EF
##톡/NNG
김승두/NNP
kimsdoo/SL
대립/NNG
오해/NNG
총학생회/NNG
##daum/SL
수록/NNG
높인/VV+ETM
헤지/NNG
상관/NNG
타이/NNG
##콩/NNG
달아났/VV+EP
##산업은행/NNP
큐/NNP
149/SN
##↑/SY
134/SN
뛰어들/VV
##선전/NNG
텅/MAG
달달/MAG
메울/VV+ETM
HUG/SL
부착/NNG
비행/NNG
도전장/NNG
각오/NNG
##소/EF
외치/VV
융/NNG
##담보/NNG
명확히/MAG
팔레스타인/NNP
##으려면/EC
##내일/NNG
홍진영/NNP
달라지/VV
든다/VV+EC
##근무/NNG
이수/NNG
2359/SN
397/SN
##현대차/NNP
폴리티/NNP
공산주의/NNG
계시/VV
라이프치히/NNP
아까/MAG
지닌/VV+ETM
결코/MAG
##7800/SN
따져/VV+EC
유영규/NNP
##ykyou/SL
풀리/VV
##보훈/NNG
##감과/NNG
##포탈/NNP
##규칙/NNG
##영향/NNG
##장한/NNG
##타/XSV+EC
##상황실/NNG
CPU/SL
호전/NNG
##창조/NNG
./SF
더워/VA+EC
##속편/NNG
##maekyung/SL
덴/VV+ETM
나쁜/VA+ETM
##업소/NNG
장맛비/NNG
##주대/NNG
알레르기/NNG
##현실/NNG
##新/NNG
이동욱/NNP
감액/NNG
압구정/NNP
바뀔/VV+ETM
작물/NNG
##신속/NNG
청중/NNG
##이강원/NNP
밸런스/NNG
##큰/VA+ETM
전주시/NNP
파이팅/NNP
타임/NNG
되게/MAG
조력자/NNG
박정/NNG
고립/NNG
일대기/NNG
톤즈/NNP
재해/NNG
##5700/SN
##Baa/SL
컵/NNG
품격/NNG
##등의/NNP
##누리/NNG
##發/XSN
체포영장/NNP
##력사/NNG
하이라이트/NNG
끊임없이/MAG
##BSK/SL
##출국/NNG
낙점/NNG
##은데요/EF
###/SY
##철인/NNG
큐브/NNP
보여준/VV+EC+VX+ETM
더위/NNG
완자/NNG
오리탕/NNP
침착/NNG
책임져/VV+EC
##향의/NNG
신주인수권/NNP
루프/NNG
보태기/NNG
초콜릿/NNG
군악/NNG
##세요/EP+EF+VCP
모를/VV+ETM
뻗/VV
강기준/NNP
세전/NNG
##뮤지컬/NNG
개소식/NNG
라디오/NNG
양적/NNG
##아베/NNP
기관지/NNG
봉/NNG
서지영/NNP
베스트셀러/NNG
팔리/VV
##이야기/NNG
이기작/NNG
남해안/NNP
##남항/NNG
영등포구/NNP
일자/NNG
후반기/NNG
##얼/NNG
울주군/NNG
표면/NNG
체내/NNG
형편/NNG
##효/NNG
##복/NNG
##태세/NNG
리라/NNG
박정호/NNP
화요/NNG
##담호/NNG
베이비/NNP
달려온/VV+ETM
월마트/NNP
성과급/NNG
##화재/NNG
##간호사/NNG
연산/NNG
##삼양/NNP
건데/MAJ
##홍춘/NNP
##casinohong/SL
##파레/NNG
동백/NNG
##밀집/NNG
##찬/NNG
ESG/SL
스파/NNP
##승용차/NNG
황보선/NNP
##go/SL
수료/NNG
실습/NNG
학/NNG
##표시/NNG
자급/NNG
##단독/NNG
모/NNG
토/NNG
블럭/NNP
유재석/NNP
주인/NNG
레전드/NNP
방치/NNG
끌어들이/VV
##하/IC
##DGIST/SL
##개념/NNG
제게/NP+JKB
##배당/NNG
##보험의/NNG
프로게이머/NNP
방송국/NNG
##아프리카/NNP
인제/IC
체인/NNG
모은다/VV+EF
혼돈/NNG
##힐/NNP
대금/NNG
어서/EC
원룸/NNG
피오/NNG
##아스/NNG
작사/NNG
##신다면/EP+EC
기발/XR
are/SL
못지/VA+EC
영혼/NNG
##소방서/NNG
류/NNP
이레/VA+EC
##예수교/NNG
추/VV
436/SN
생물학/NNG
트롯/NNG
##앉/VV
다행/NNG
몰입/NNG
기립/NNG
한해서/VV+EC
다각/NNG
기울여/VV+EC
ABC/SL
##마는/JX
팜/NNP
근육/NNG
##어시스트/NNG
##인수/NNG
이스타/NNP
다룬다/VV+EF
##란스/NNP
반경/NNG
##썸머/NNP
당당/XR
음색/NNG
머릿속/NNG
##곡인/NNG
짰/VV+EP
봐주시면/VV+EP+EC
떨렸/VV+EP
끌어올렸/VV+EP
상설/NNG
독서실/NNG
용도/NNG
거래량/NNG
##고가/NNP
##비교/NNG
##지인/NNG
혐오/NNG
취한/NNG
##345/SN
대륙/NNG
섰/VV+EP
지켰/VV+EP
대손/NNG
GKL/SL
창립/NNG
##백혈병/NNG
윤민/NNP
중고/NNG
##IPO/SL
모른다/VV+EF
##서부/NNG
재직/NNG
칠레/NNP
##책임자/NNG
##웍스/NNG
##03/SN
영구/NNP
목회/NNG
AFC/SL
동아시아/NNP
##944/SN
혁/NNP
기아차/NNP
일례/NNG
행방/NNG
빠져나가/VV+EC
복도/NNG
헤이룽장/NNG
##객실/NNG
##선물/NNG
이태희/NNP
곱하/VV
크레이머/NNP
##착오/NNG
##목상/NNG
시달리/VV
계/NNG
##스마트폰/NNP
##경과/NNG
이용료/NNG
##대/XSV
최전선/NNG
알렉스/NNP
##이/XSN
##크/NNP
홈구장/NNG
패/NNG
일으켰/VV+EP
옵션/NNG
##78/SN
유격수/NNG
##팅/IC
내걸/VV
##동대문/NNP
hACE/SL
육/NR
##수욕장/NNG
휘말리/VV
매번/MAG
상관없/VA
##학술/NNG
밑도/VV
##기적/NNG
괴리/NNG
볼거리/NNG
편지/NNG
경관/NNG
복/NNG
onlinenews/SL
##호가/NNG
##공식/NNG
중견/NNG
고정비/NNG
확/NNG
##가지/NNG
##참/MAG
밀어붙이/VV
##점유/NNG
##마녀/NNG
주연/NNG
##해수/NNG
조세범/NNG
비타민/NNG
월급/NNG
##주석/NNG
##듯/NNB
퍼진/VV+ETM
지쳐/VV+EC
들어와/VV+EC
틀/VV
선상/NNG
잠잠/XR
예컨대/MAG
모빌리티/NNG
헌/MM
세심/XR
테이/NNP
2500/SN
배운/VV+ETM
176/SN
##지질혈증/NNG
오한/NNP
##家/NNG
제네바/NNP
일축/NNG
밀양/NNP
유사시/NNG
##친화/NNG
조아/NNG
수반/NNG
몰려/VV+EC
##유튜브/NNP
##우산/NNG
박탈/NNG
급부상/NNG
지체/NNG
##집행/NNG
##행장/NNG
##소사이어티/NNG
205/SN
굽히/VV
##실업/NNG
벨/NNP
군부대/NNG
543/SN
뛰어나/VA
떠올리/VV
돌아보/VV
##부제/NNG
중위/NNG
박성현/NNP
부추기/VV
조장/NNG
##동과/NNG
##아파트/NNG
올스타/NNG
병변/NNG
##핏/NNG
##회도/NNG
##열/NNG
휴먼/NNG
270/SN
변종/NNG
내야석/NNG
벗/NNG
김지원/NNP
##택배/NNG
숨졌/VV+EP
##통/NNG
내세워/VV+EC
경연/NNG
보이/NNG
골든/NNP
약국/NNG
김수영/NNP
평등/NNG
그녀/NP
김낙현/NNP
채팅/NNG
나가/VV+EC
##당하/XSV
노래방/NNG
드러난/VV+ETM
##신규/NNG
수당/NNG
끼니/NNG
급식/NNG
##보낸/VV+ETM
장거리/NNG
차감/NNG
궤도/NNG
##시약/NNG
이듬해/NNG
알찬/NNG
락다운/NNP
찾아가/VV+EC
##누가/NP+JKS
타율/NNG
세력/NNG
##SBS/SL
##가수/NNG
근무지/NNG
사들였/VV+EP
각기/NNG
식별/NNG
##초과/NNG
종로/NNP
##치는/XSA+EC+JX
이덕영/NNP
##남도/NNG
맥락/NNG
손가락/NNG
농심/NNP
특실/NNG
교보/NNG
##단가/NNG
화물차/NNG
크루그먼/NNP
##돼서/XSV+EC
##호수/NNG
##문화예술/NNP
1117/SN
북/NNG
대학가/NNG
시에/NNP
고점/NNG
##송/NNG
엠스/NNP
##;,/SY
의총/NNG
##리츠/NNP
경유/NNG
##합리/NNG
##연령/NNG
위약금/NNG
##약물/NNG
광화문/NNG
영원히/MAG
육로/NNG
취식/NNG
문화재/NNG
산불/NNG
##만장/NNG
포화/NNG
이내/MAG
명칭/NNG
마칠/VV+ETM
엔진/NNG
2600/SN
세율/NNG
거액/NNG
밀렸/VV+EP
성당/NNG
##골퍼/NNG
리디아/NNP
고/NNG
##㎡(/SY
영양/NNG
##자신/NNG
페인/NNP
289/SN
미군/NNG
각별히/MAG
##귀/NNG
제대/NNG
아이스크림/NNG
방역대/NNG
과학관/NNG
스터디/NNP
##기/XSN
CF/SL
김연경/NNP
내려왔/VV+EP
태어날/VV+ETM
어떨지/VA+EC
온몸/NNG
김정유/NNP
모금/NNG
엄/IC
삼척시/NNP
##온의/NNG
욕심/NNG
구독자/NNG
##금지법/NNG
감리교/NNG
식의/NNG
##해야/VV+EC
신재/NNG
주입/NNG
##네이버/NNP
그럴/VA+ETM
용어/NNG
##소방/NNG
무주/NNG
##제회/NNG
카카오/NNG
##로직스/NNP
내과/NNG
강/NNP
항원/NNG
##테마파크/NNG
aT/SL
드러내/VV
이청용/NNP
비빔밥/NNG
온열/NNG
CHOSUN/SL
핑계/NNG
빨간/VA+ETM
##주/VV
##Five/SL
보육원/NNG
##동정/NNG
##울림/NNP
신자/NNG
프랑스어/NNP
##상과/NNG
군포/NNG
오른팔/NNG
소주방/NNG
##동철/NNG
필하모닉/NNG
단원/NNG
장착/NNG
##개미/NNG
##엣지/NNG
기성용/NNP
에미상/NNP
##오프라/NNP
전미도/NNP
##》/SY
이동형/NNP
##몽테/NNP
스미레/NNP
정지훈/NNP
미비/NNG
##76/SN
##요소/NNG
성범죄/NNG
결승/NNG
유무/NNG
650/SN
##동제/NNG
##부도/NNG
성적표/NNG
긴박/NNG
돌아와/VV+EC
거쳐야/VV+EC
권유/NNG
만두/NNG
판매처/NNG
과밀/NNG
##미술/NNG
낭비/NNG
##의학/NNG
지라/NNG
아쿠아/NNP
든든/XR
갈증/NNG
치명/NNG
멋있/VA
끝없이/MAG
##싶/VX
경진/NNG
문건/NNG
리스트/NNG
명문/NNG
##의정부/NNP
##센터/NNG+VCP
총무/NNG
찾아온/VV+ETM
소품/NNG
##보상/NNG
480/SN
##파운드/NNBC
##스트림/NNP
##장도/NNG
##독단/NNG
부치/VV
엄중/NNG
##적극/NNG
면밀히/MAG
##채의/NNG
애로/NNG
##SARS/SL
먼/VA+ETM
출격/NNG
창업주/NNG
제주항공/NNP
이끌어냈/VV+EP
장난/NNG
메이/NNG
선보여/VV+EC
데려오/VV
##건과/NNG
##189/SN
넉넉/XR
장충/NNG
##싱에/NNG
레게톤/NNP
댄스홀/NNG
##댄스/NNG
##무도/XR
어우러져서/VV+EC
감회가/NNG
묘했/VA+EP
들으면서/VV+EC
신나고/NNP
##진주/NNG
창고/NNG
취할/VV+ETM
식자재/NNG
어쩌면/MAG
##스스로/NNG
##혼자/NNG
어색/XR
연상/NNG
단호히/MAG
이영호/NNP
사의/NNG
##식음료/NNG
##공기업/NNG
##다이소/NNP
##검토/NNG
리딩/NNG
미팅/NNG
벅스/NNP
앤드/NNG
부응/NNG
찾아내/VV
아닌가/VCN+EF
##무안/NNP
##NH/SL
##관이/NNG
학생과/NNG
근력/NNG
##아시아나항공/NNP
마곡/NNG
##결국/NNG
빠져나간/VV+ETM
위의/NNG
##박카스/NNP
##세린/NNG
##사간/NNG
실무자/NNG
Security/SL
##알토/NNG
##이드/NNG
음주/NNG
오징어/NNG
##믹스/NNP
피자/NNG
품/VV
한두/MM
조시형/NNP
##약/MM
안시/NNG
##멘/NNG
##외환/NNG
##남북/NNP
##해서라도/XSV+EC
O/SL
헌혈자/NNG
종업원/NNG
시인/NNG
각급/NNG
친/XPN
##717/SN
여의/XR
466/SN
##트롤/NNG
미뤘/VV+EP
베리/NNG
##르/NNG
##비에르/NNP
##EPL/SL
실망/NNG
##민선/NNP
학부/NNG
미지수/NNG
드미트리/NNP
인공위성/NNG
저지른/VV+ETM
##볼티모어/NNP
바뀐/VV+ETM
##구/NNBC
막힌/VV+ETM
버티/VV
좌/NNG
캠프/NNG
화이트/NNP
펼친/VV+ETM
루키/NNP
임희정/NNP
텍사스주/NNP
꿇/VV
##송파/NNG
BBB/SL
##교섭/NNG
잔/NNG
인원수/NNG
##정보원/NNG
살포/NNG
##제인/NNG
##예비/NNG
준수/XR
##가명/NNG
주권/NNG
쌓인/VV+ETM
야구팬/NNG
달려/VV+EC
IP/SL
주효/NNG
갯골/NNG
패밀리/NNP
발걸음/NNG
라이브/NNG
선례/NNG
##인재/NNG
1994/SN
##지로/NNG
##로봇/NNG
셀/NNG
##케/XSA+EC
아닌지/VCN+EC
중대/XR
뛴/VV+ETM
영토/NNG
##생물/NNG
##지/VCP+EF
##휴게소/NNG
##이재준/NNP
##벤트/NNG
에어/NNG
##역/NNG
말리/VV
가까워/VA+EC
순연/NNG
울컥/MAG
메인/NNP
들이/VV
##평생/NNG
유네스코/NNP
##113/SN
##인터/NNG
박태환/NNP
은평/NNP
##드렸/VX+EP
메디신/NNG
##주로/MAG
게스트/NNG
양우석/NNP
##국토/NNG
소액/NNG
##기념관/NNG
##이라크/NNP
##전체/NNG
안산/NNG
123/SN
현물/NNG
골드/NNP
순익/NNG
##ｍ/SL
골퍼/NNG
시카고/NNP
##런던/NNP
##라루스/NNP
##웹/NNG
떠올랐/VV+EP
##챔피언십/NNP
이민지/NNP
간섭/NNG
KIA/SL
성황리/NNG
##클린/NNG
미달/NNG
##퍼스트/NNG
UN/SL
협정/NNG
신화/NNG
아기/NNG
##7752/SN
##한다며/XSV+EC
##뷰티/NNG
신상품/NNG
컬렉션/NNG
##임대/NNG
벨트/NNG
최저임금/NNP
##오프/NNG
##회원/NNG
월북자/NNG
귀향/NNG
거란/NNG
기세/NNG
##수처/NNG
##감정/NNG
터트렸/VV+EP
출현/NNG
이색/NNG
박이/NNG
박기원/NNP
노선/NNG
지단/NNG
##으려고/EC
일찍/MAG
##비축/NNG
##줘/VX+EC
나갔/VV+EP
##쓰/VV
##남양주/NNG
단정/NNG
재학생/NNG
##김명원/NNP
kmx/SL
##1105/SN
##클라우드/NNP
##저장/NNG
##키르기스스탄/NNP
통/NNG
##DB/SL
##상환/NNG
9000/SN
홍천/NNG
##강원도/NNP
##경/XSN
가족의/NNG
전략가/NNG
##V/SL
범주/NNG
##동네/NNG
##범/NNG
##애리조/NNP
##득/XSN
질주/NNG
##갑/NNG
화합/NNG
김용우/NNP
##캘리포니아/NNP
알트리아/NNP
엄중/XR
동서/NNG
##On/SL
##노래/NNG
마권/NNG
승합차/NNG
두드러질/VA+ETM
##예술인/NNG
굳건/XR
최형두/NNP
의구심/NNG
평년/NNG
##대안/NNG
##운송/NNG
##CCMS/SL
##와/EC
→/SY
##여행사/NNG
미흡/XR
미공/NNG
##고시/NNG
유광석/NNP
##멕시코/NNP
잠수함/NNG
##중위/NNG
474/SN
정국/NNG
+/SY
##식과/NNG
##타임/NNG
타사/NNG
될지/VV+EC
##일상/NNG
워런/NNP
220/SN
소위원회/NNG
##스포츠/NNP
##육/NR
170/SN
심/NNG
발전소/NNG
포용/NNG
거둘/VV+ETM
##서양/NNG
청두/NNG
서프라이즈/NNP
섬/NNG
요지부동/NNG
다툼/NNG
이춘희/NNP
가/JKS
만장일치/NNG
##당시/NNG
##돕/VV
##동원/NNG
1970/SN
##임상시험/NNP
분획/NNG
##구안/NNG
서은광/NNP
조속/XR
정관/NNG
디비피/NNG
조업/NNG
##아이템/NNG
##2016/SN
##같이/MAG
##스팅/NNP
예사/NNG
카리스마/NNG
홀/NNG
케미스트리/NNP
##소녀/NNG
결실/NNG
엄청/MAG
랜턴/NNG
##조끼/NNG
##노사정/NNG
들뜬/VV+ETM
경지/NNG
109/SN
##피크/NNG
아이치/NNP
##돼도/XSV+EC
축복/NNG
거/VV
##오의/NNG
중립/NNG
PETR/SL
산재/NNG
신생아/NNG
##통시/NNG
엔지니어링/NNG
김학균/NNP
##복과/NNG
##액세스/NNG
##특보/NNG
평택항/NNP
한빛/NNP
관방/NNG
##개편/NNG
국산화/NNG
##환경청/NNP
##정식/NNG
활동가/NNG
아이러니/NNG
노숙자/NNP
비상시/NNG
실수요자/NNG
고노/NNG
##라든지/JC
대군/NNG
##빌리/NNP
수성/NNG
입혀야/VV+EC
##다운/NNG
슈트/NNP
포스/NNG
파파/NNG
씁쓸/XR
파장/NNG
추석/NNG
스프링/NNP
LY/SL
실장/NNG
흥국/NNG
##생기/NNG
통학/NNG
원사/NNG
스토어/NNG
함안군/NNG
팟캐스트/NNP
루지/NNG
##성당/NNG
대차/NNG
##출생/NNG
인텔코리아/NNP
##공은/NNG
민법/NNG
하림/NNG
서무/NNG
해피/NNG
정선/NNP
KOTRA/SL
진도군/NNG
BoA/SL
문장대/NNP
면세품/NNG
구보/NNP
카탈로그/NNG
휴양림/NNG
##조리/NNG
수상/XR
##홈페이지/NNG
벌기/NNG
##공직자/NNG
달여/VV+EC
만만/XR
양산시/NNP
유선/NNG
결렬/NNG
떼/VV
##치를/XSA+EC+JKO
강호동/NNP
이상민/NNP
##촌동/NNG
##맞춤/NNG
계약자/NNG
학급/NNG
이명철/NNP
발효/NNG
친숙/XR
때로/MAG
pasta/SL
접한/VV+ETM
##아침/NNG
경주시/NNP
코멘트/NNP
찾아갈/VV+ETM
##던데/EF
달려가/VV
##중과/NNG
스펙트럼/NNG
캐치/NNG
신나/VV
달려갈/VV+ETM
나위/NNG
##했으면/XSA+EP+EC
##mk/SL
화재/NNG
신입/NNG
받아들일/VV+ETM
##레드/NNP
명당/NNG
체육관/NNG
박래/NNG
케이크/NNG
안병용/NNP
블로그/NNG
##가논/NNP
##쇼/VCP+EP+EF
##디의/NNG
재치/NNG
훈/NNG
익/IC
##이탈리아/NNP
##부당/NNG
##AFP/SL
##호/XSN
직계/NNG
##건전/NNG
##제약사/NNG
1996/SN
둘러/VV+EC
##슛/NNG
스프링/NNG
뜨거워서/VA+EC
기다림/VV+ETN
성지/NNG
##창의/NNG
##연내/NNG
개통/NNG
통풍/NNG
조바심/NNG
합해져서/VV+EC+VX+EC
흥얼거리/VV
OST/SL
남다를/VA+ETM
토닥여/VV+EC
##필름/NNG
노골/NNG
분의/NNG
##한강/NNP
흔쾌히/MAG
##탄생/NNG
##기억/NNG
권영진/NNP
##된다/VV+EC
희망퇴직/NNG
##테일/NNP
201/SN
주고받/VV
보탠/VV+ETM
무거워/VA+EC
##대유행/NNG
##코노/NNP
스스로/MAG
프리/NNP
##메라/NNP
##농구/NNG
##알/VV
맞대/VV
##인상/NNG
라운드/NNG
라운드/NNP
##인솔자/NNG
##직무/NNG
##2011/SN
적외선/NNG
고가/NNP
엄정/XR
##풍산/NNP
빈혈/NNG
##양사/NNG
희망자/NNG
유료/NNG
중심지/NNG
합쳐진/VV+EC+VX+ETM
마늘/NNG
비/VV
중환자/NNG
##디지털/NNP
바꾼/VV+ETM
대전시/NNP
음압/NNG
재량/NNG
##대형/NNG
경색/NNG
최상층/NNG
##루프/NNP
420/SN
##조항/NNG
현행법/NNG
궈안/NNP
연세대/NNP
##학/NNG
##효능/NNG
키릴/NNG
쇼크/NNP
1957/SN
소련/NNP
린드/NNP
##블럼/NNP
허리/NNG
내줬/VV+EP
린/NNG
##런/VCP+ETM
소토/NNG
날카로운/VA+ETM
190/SN
##211/SN
일으킨/VV+ETM
##박/VV
수면/NNG
##환의/NNG
은평구/NNP
##공작/NNG
##우선/MAG
저런/MM
체형/NNG
초월/NNG
욕망/NNG
##절대/NNG
스톱/NNG
##첨가제/NNG
약진/NNG
코엑스/NNP
##선정/NNG
##누적/NNG
440/SN
##자면/EC
##여수/NNP
개개인/NNG
##축/NNG
요즘/MAG
##정지/NNG
##여단/NNG
캔버스/NNG
소극/NNG
고소장/NNG
##구호/NNG
##과학관/NNG
영업소/NNG
##DC/SL
##됐었/XSV+EP
잔소리/NNG
##성적/NNG
##갯벌/NNG
##낚시/NNG
써야/VV+EC
경각심/NNG
##웅/NNG
경영진/NNG
황당/XR
펴/VV
진보/NNG
한산/XR
##멜린다/NNP
만든/VV
##불안/NNG
샬럿/NNP
살펴볼/VV+ETM
심상/XR
정가/NNG
월별/NNG
사들인/VV+ETM
김호/NNP
원치/VV+EC
##요건/NNG
##호흡기/NNG
##CP/SL
##현금/NNG
##다는데요/EF
코레/NNG
##나주/NNG
타워/NNG
청사진/NNG
당의/NNG
##구성원/NNG
추측/NNG
가방/NNG
올라왔/VV+EP
##은퇴/NNG
##오브/NNP
1580/SN
추종/NNG
친지/NNG
사우스/NNP
##차이나/NNP
캐피탈/NNP
타운/NNG
번거/XR
네티즌/NNG
미치/NNG
다름/VA+ETN
불린다/VV+EF
##끝/NNG
##ABS/SL
선발전/NNG
##수와/EC
##라우/EC
감리/NNG
댐/NNP
##성추/NNG
사운드/NNP
##영회/NNG
##기자재/NNG
##어떤/MM
이하/NNP
##러스/NNP
합병/NNG
유아/NNG
박소연/NNP
##세금/NNG
##쪽/NNB
사직/NNP
주길/NNG+JKO
외야석/NNG
##완/JKB+JX
난다/NNG
과세/NNG
국민체육진흥공단/NNP
순전히/MAG
말라/VV+EC
##중간/NNG
실효성/NNG
시그/NNP
##꽃/NNG
봉화/NNG
자동화/NNG
한남/NNG
여타/NNG
발주/NNG
capital/SL
##은의/NNG
135/SN
횡/NNG
불발/NNG
이러/VV
논쟁/NNG
에스퍼/NNP
제임스/NNP
##’…/SY
이뤄냈/VV+EC+VX+EP
다니엘/NNP
규율/NNG
두루/NNG
##탈출/NNG
허/VV+EC
색상/NNG
클릭/NNG
유용/NNG
##헌장/NNG
##손님/NNG
빚어지/VV
수분/NNG
세밀/XR
양극/NNG
박근혜/NNP
번화가/NNG
생활비/NNG
##염력/NNG
##놀/NNG
##구민/NNG
부리/VV
클립/NNG
체조/NNG
##김동우/NNP
bosun/SL
배급사/NNP
이상일/NNP
##대의원/NNG
하나하나/NNG
걸음/NNG
관악/NNG
##발사체/NNG
##만주/NNP
##포차/NNG
##테이블/NNG
##코인/NNG
##노력/NNG
단기간/NNG
현대모비스/NNP
##손익/NNG
모른다/NNP
두려움/NNG
동화면세점/NNP
산단/NNG
한국프로축구연맹/NNP
##송가/NNG
카탈루냐/NNP
##장외/NNG
부평구/NNP
##PC/SL
##국외/NNG
##겔/NNG
##이념/NNG
신영/NNG
라운지/NNG
파동/NNG
비춰/VV+EC
오프닝/NNG
센터/NNG+VCP
392/SN
익산/NNP
군청/NNG
끈끈/XR
신조/NNG
##Stable/SL
살피/VV
##브루/NNP
##독재/NNG
HMM/SL
컨테이너/NNG
##습관/NNG
4900/SN
##대인/NNG
##수석/NNG
짜/VV
김지영/NNP
시름/NNG
연중/NNG
##선세/NNG
피아니스트/NNG
유찬/NNG
2006/SN
##숙/VV
##유산/NNG
중국인/NNG
미처/MAG
##결산/NNG
##maniareport/SL
가해/VV+EC
판명/NNG
##탈퇴/NNG
##조작/NNG
친화/NNG
공중/NNG
171/SN
컬/NNG
한상/NNG
##난도/NNG
진땀/NNG
야무진/VA+ETM
##갓/MAG
##가영/NNG
##답/MAG+VCP
실버/NNP
스타트/NNG
바퀴/NNG
즐겼/VV+EP
불거졌/VV+EP
##비정규직/NNG
일부분/NNG
1974/SN
##강좌/NNG
##인가요/VCP+EF
갈라/VV+EC
Show/SL
시의/NNG
똑같이/MAG
##T/SL
##언제/NP
따/IC
매장/MAG
세법/NNG
드라이버/NNG
경위/NNG
##반찬/NNG
##왕실/NNG
개소/NNG
덴버/NNP
거듭났/VV+EP
##드림/VV+ETM
##라이프/NNG
생/XR
##개정/NNG
##402/SN
인벤/NNP
역내/NNG
놓였/VV+EP
절벽/NNG
##범위/NNG
아픔/NNG
##TEU/SL
정/NNG
##인근/NNG
그해/NNG
잠시/MAG
펑크/NNG
서막/NNG
##봐/VX+EC
풍겼/VV+EP
마구/NNG
원리/NNG
승무원/NNG
가정용/NNG
##기지/NNG
외교통상부/NNP
##제시/NNG
경찰청/NNG
배상/NNG
고사/NNG
잇단/VV+ETM
##해도/VV+EC
##조선소/NNG
조지아/NNP
혼잡도/NNG
첫발/NNG
요금제/NNP
##키즈/NNP
##폐도/NNG
감사패/NNG
알릭스/NNP
삼정/NNG
프로세서/NNG
##박윤경/NNP
##산책/NNG
##방촌/NNG
소부/NNG
바이올린/NNG
넘나드/VV
구미시/NNP
라고/JKQ
세비야/NNP
##한국노총/NNP
카디널스/NNP
##잔고/NNG
휴게소/NNG
##튜/NNP
뚜/MAG
##보/NNG
##활주로/NNG
전체주의/NNG
뉴웰/NNP
바텍/NNP
주조/NNG
##에프/NNG
##여대/NNG
##장어/NNG
##가인/NNG
회사원/NNG
풀릴/VV+ETM
가져다/VV+EC
숨/VV
일행/NNG
도운/NNG
##사전/NNG
##민주주의/NNG
한올/NNP
##의존/NNG
철거/NNG
계도/NNG
##깜짝/MAG
음성군/NNG
##IE/SL
김예분/NNP
금치/VV+EC
보안관/NNG
##무슨/MM
신혼/NNG
줄곧/MAG
영업장/NNG
씨티/NNP
천안시/NNP
##왜/MAG
건조/NNG
경제성장/NNP
홍삼/NNG
##학부/NNG
닥락/NNP
##준다고/VX+EC
세심/NNG
강민경/NNP
##인지라/VCP+EC
아닐까/VCN+EF
##터널/NNG
##부국/NNG
정이/NNG
젊음/NNG
비트/NNG
해야/VV+EC+VX
위트/NNP
래핑/NNG
##킬링/NNP
복근/NNG
##행렬/NNG
##이건/NP+JX
shock/SL
##만장이/NNG
##니와/NNP
수습/NNG
##NYT/SL
이노베이션/NNG
##레알/NNP
아우르/VV
권익/NNG
##강당/NNG
##지검/NNG
교단/NNG
3128/SN
라니티딘/NNG
##a/SL
콩트/NNG
##웃/VV+EP
빛나/VV
몸매/NNG
##공연장/NNG
멘토링/NNP
보리스/NNG
##설서/NNG
소리치/VV
위기관리/NNG
##굿모닝/NNP
만화/NNG
가세/NNG
내려놓/VV
입단식/NNG
선후배/NNG
야구단/NNG
척척/MAG
##저리/MAG
##지난주/NNG
##컬/VV+ETM
##62/SN
시행착오/NNG
08/SN
목동/NNP
##대기/NNG
얼/IC
##반한/NNG
##mkculture/SL
##초/XPN
##란/EC
초창기/NNG
##현대/NNP
##굿바이/NNP
증언/NNG
김예진/NNP
돌려/VV+EC
##1880/SN
숨진/VV+ETM
##특별시/NNG
##외출/NNG
라비/NNP
라/IC
실력파/NNG
속여/VV+EC
##북부/NNG
감원/NNG
방탄소년단/NNP
로스앤젤레스/NNP
연고/NNG
출판/NNG
탐사/NNG
##철강/NNG
상황실/NNG
IB/SL
##행인/NNG
카타르/NNG
강경래/NNP
##자/VCP+EC
##영종도/NNP
임헌정/NNP
kane/SL
사물/NNG
##베포/NNP
ABS/SL
합심/NNG
시위대/NNG
##木/NNG
동북/NNG
##졌으며/VX+EP+EC
눈물/NNG
염려/NNG
서두르/VV
137/SN
##ANVISA/SL
산정호수/NNP
늘어남/VV+ETN
##54/SN
##텀/NNG
오하/NNG
쓰인다/VV+EF
정리/NNP
##혜주/NNG
장단/NNG
##한다/VV+EC
##최초/NNG
엇갈리/VV
534/SN
##타가/XSV+EC
EPL/SL
##공약/NNG
##팡/NNP
##챌린지/NNG
##징/NNG
##예프/NNP
어깨/NNG
흔들리/VV
타석/NNG
케이/NNG
858/SN
##연패/NNG
생겨/VV+EC
##런/NNG
후방/NNG
서서히/MAG
가벼운/VA+ETM
##타/VV
메츠/NNP
질적/NNP
출사표/NNG
커버/NNG
##善/NNG
약이/NNG
322/SN
##성동/NNG
##광명/NNG
원자/NNG
뇌/NNG
장사/NNG
##황정민/NNP
황정/NNG
##다치/VV
과격/XR
##여/NNG
lee/SL
##점프/NNG
근대/NNG
보좌관/NNG
무렵/NNB
##메이저/NNP
폐렴/NNG
흘러가/VV
##야/EF
돌아선/VV+ETM
##절벽/NNG
상해/VA+EC
##양/MM
굿/NNP
드론/NNP
혁명/NNG
태풍/NNG
가르치/VV
응급처치/NNP
메모/NNG
##남방/NNG
유산/NNG
##항시/NNG
Air/SL
노선/NNP
시차/NNG
병력/NNG
##현상/NNG
짙/VA
뛰어드/VV
꺼리/VV
마카오/NNP
발권/NNG
##아스트라/NNP
##조원대/NNP
올인/NNP
ⓒ(/SY
접어든/VV+ETM
창구/NNG
커져/VA+EC+VX+EC
##냐고/EC
불교/NNG
##여당/NNG
박원순/NNP
서양/NNG
팔렸/VV+EP
질타/NNG
은퇴/NNG
##아메리카/NNP
##WTI/SL
상쇄/NNG
##레이팅/NNG
##언니/NNG
1023/SN
경부고속도로/NNP
교통망/NNG
##ETF/SL
신한/NNG
197/SN
이동하/NNP
##옵션/NNG
녹화/NNG
##대도/NNG
##원유/NNG
유류/NNG
연가/NNG
441/SN
갤러리/NNG
##오/EC
택하/VV
SOL/SL
##외파/NNG
언니/NNG
587/SN
변환/NNG
옥상/NNG
자외선/NNG
##오/VX
##칸/NNBC
성별/NNG
MZ/SL
김동우/NNP
공방/NNG
##클래식/NNG
##귀신/NNG
##입니까/VCP+EF
아무것/NP
127/SN
사명/NNG
분이/NNG
붐비/VV
데스크/NNG
김유경/NNP
제이브이/NNG
일터/NNG
##바다/NNG
##강국/NNG
뛰어든/VV+ETM
전신/NNG
##동학/NNG
장학/NNG
##전기차/NNP
##순/MM
##화웨이/NNP
출하/NNG
##NYMEX/SL
염증/NNG
##우수/NNG
이용도/NNP
##드라이브/NNG
표방/NNG
원활히/MAG
임영록/NNP
컬투쇼/NNP
감량/NNG
김태균/NNP
##나노/NNG
##군청/NNG
내역/NNG
이뤄지면/VV+EC
명동/NNG
##균/NNG
##수시로/MAG
부재/NNG
##게이츠/NNP
##넥스/NNP
##저런/MM
926/SN
송종욱/NNP
미스터/NNP
##꿈/NNG
##관입/NNG
##장권/NNG
NEW/SL
물꼬/NNG
밑거름/NNG
행암동/NNP
기유/NNG
##흑인/NNG
##유행/NNG
전입/NNG
불신/NNG
##콜라/NNG
모레/NNG
##나마/JX
수변/NNG
##용지/NNG
사퇴/NNG
연세/NNG
대박/NNG
##폰/NNG
주호영/NNP
휘발유/NNG
정만기/NNP
##소비세/NNG
벌금형/NNG
##한다/VX+EF
##핑크/NNG
이재정/NNP
##2600/SN
송연/NNG
탐지/NNG
##태종/NNP
##팬데/NNBC+VCP+EC
결속/NNG
학계/NNG
꼼수/NNG
부산대/NNP
핀테크/NNG
##가전/NNG
##다퉈/VV+EC
뽐내/VV
걸맞/VA
박해웅/NNP
##대응력/NNG
차/VA
의의/NNG
콜드/NNP
다가오/VV
##추경/NNG
나인/NNG
재산세/NNG
국립중앙도서관/NNP
명인/NNG
구단주/NNG
순손실/NNG
##스루/NNG
##국과/NNG
파라다/NNP
##BBQ/SL
전셋값/NNG
부대시설/NNG
2400/SN
##실로/NNG
##까진/JX+JX
합격/NNG
동문/NNG
##경영인/NNG
용서/NNG
##머/IC
소유자/NNG
포도/NNG
DGB/SL
드러낸/VV+ETM
도박/NNG
연출력/NNG
불러일으키/VV
##우의/NNG
만일/NNG
돌아올/VV+ETM
##상차림/NNG
상차림/NNG
군단/NNG
의기투합/NNG
산초/NNG
공교/XR
##으러/EC
##공화/NNG
햄버거/NNG
스티커/NNG
on/SL
최적화/NNG
냉전/NNG
##아빠/NNG
맛본/VV+ETM
본청/NNG
갈치/NNG
주어지/VV
기관장/NNG
김수현/NNP
日/NNG
韓/NNG
##채/NNBC
탈퇴/NNG
어긋나/VV
위안부/NNG
식물원/NNG
##특성/NNG
MICE/SL
##PM/SL
##GW/SL
##악화/NNG
##릉/NNG
조출/NNG
##생률/NNG
##세브/NNP
걷어찬/VV+ETM
김운용/NNP
##유발/NNG
##둘/NR
모드/NNG
충청북도/NNP
나빠/VA+EC
112/SN
##이용자/NNP
쌍방울/NNP
항생제/NNG
심/VV
필터/NNG
집중력/NNG
##세로/NNG
정파/NNG
가평군/NNG
업무상/NNP
치료법/NNG
##헝가리/NNP
서삼석/NNP
##량/XSN
손발/NNG
호조세/NNG
정립/NNG
##소위/NNG
일관/XR
열사/NNG
##싱가포르/NNP
##변경/NNG
##가게/NNG
유준/NNG
고기잡이배/NNG
딸/VV+ETM
턱턱/MAG
사귄/VV+ETM
덜컥/MAG
노/VV
속상했/VA+EP
말려도/VV+EC
떠나보냈/VV+EP
욱/NNG
발발/MAG
시약/NNG
김경수/NNP
##입맛/NNG
##1352/SN
##품주/NNG
##온도/NNG
안현모/NNP
가볍/VA
김성은/NNP
##잠수함/NNG
이광수/NNP
배우자/NNG
톤/NNG
공통점/NNG
신호등/NNG
우완/NNG
LTE/SL
란/NNG
스테이지/NNG
이광호/NNP
수박/NNG
탁족/NNG
왕세자/NNG
##방제/NNG
결산/NNG
간호/NNG
##㏊/SY
참사/NNG
토익/NNG
##대미/NNG
허락/NNG
김자인/NNP
##텍스/NNG
-“/SY
지파/NNG
##클래시/NNP
MRO/SL
위즈/NNP
##블레이저/NNP
##뚜/MAG
해서웨이/NNP
게이브/NNP
판소리/NNG
위스키/NNG
이혁/NNP
흡연/NNG
##티/VV
##프랜차이즈/NNG
함/VV+ETN
송가/NNG
활력소/NNG
벗어났/VV+EP
##드린/NNG
나와야/VV+EC
한다며/VV+EC
상수도/NNG
n/SL
##운동장/NNG
주위/NNG
##에게서/JKB
N/SL
##메드/NNP
##토막/NNG
힘겨운/VA+ETM
##건/EC
영세/NNG
##특허/NNG
달려든/VV+ETM
괴한/NNG
##레전드/NNP
사셨/VV+EP+EP
##내기/NNP
잔인/NNG
친해서/VA+EC
한화투자증권/NNP
##반영/NNG
따라야/VV+EC
공제/NNG
태백/NNG
##학관/NNG
진안/NNG
SM/SL
인삼/NNG
##9900/SN
1975/SN
##역강/NNG
GSK/SL
통지/NNP
군사분계선/NNP
##Hyperimmune/SL
globulin/SL
발매/NNP
에필로그/NNG
EPILOGUE/SL
Action/SL
Answer/SL
##FEVER/SL
##티니/NNP
##ATINY/SL
EDM/SL
꾼/NNG
온다며/VV+EC
##THANXX/SL
세바스찬/NNP
##그라시/NNP
##Gracias/SL
전주부/NNP
강해서/VA+EC
##청춘/NNG
##HOOK/SL
럽/NNP
파트와/NNP
아닐지/VCN+EF
재미나/VA
곡마/NNG
들으시는/VV+EP+ETM
new/SL
you/SL
듦과/UNKNOWN
##자면/EF
##마세요/VX+EP+EF
##내의/NNG
##휴업/NNG
파행/NNG
청장/NNG
저력/NNG
폐허/NNG
##sportsworldi/SL
시책/NNG
대치/NNG
궁전/NNG
더운/VA+ETM
벽/NNG
379/SN
모티/NNP
패치/NNG
사냥/NNG
어느덧/MAG
기할/VV+ETM
박병진/NNP
##폐쇄/NNG
##매우/MAG
##ZOOM/SL
##부에/NNG
지평/NNG
물결/NNG
공립/NNG
##비속/NNG
불법행위/NNP
관해서/VV+EC
적격/NNG
불참자/NNG
##병원장/NNG
필수품/NNG
##중학교/NNG
시제품/NNG
##수영장/NNG
진학/NNG
##연락망/NNG
매혹/NNG
걸려요/VV+EF
##상대/NNG
승문/NNG
##광학/NNG
타결/NNG
##스테이션/NNG
##아/EF
간다/VV+EF
경쾌/XR
##치과/NNG
참전/NNG
영국인/NNG
##도당/NNG
정경두/NNP
고집/NNG
2508/SN
뚝/NNG
민간인/NNG
##미사일/NNG
귀환/NNG
오토/NNG
우철/NNP
##아티스트/NNG
칠/NR
세계인/NNG
가로챈/VV+ETM
난다/VV+EF
걸린다/VV+EF
##보험금/NNG
##진로/NNG
##종료/NNG
##조의/NNG
경합/NNG
##%·/SY
##친구/NNG
타이드/NNG
LED/SL
클러스터/NNG
##촉식/NNG
처지/NNG
##DA/SL
미소/NNG
##新疆/NNG
역유/NNG
##놀이/NNG
왔으나/VV+EP+EC
124/SN
염원/NNG
##빌/NNP
##ddaily/SL
림팩/NNP
연안/NNG
막지/NNG
##1121/SN
##노/EC
##철저/NNG
영화사/NNG
베르/NNP
토론토/NNP
로스/NNG
##CT/SL
적시타/NNG
때려/VV+EC
##150/SN
타선/NNG
부상자/NNG
##대방건설/NNP
##바이든/NNP
단절/NNG
상상력/NNP
중의/NNG
##지구의/NNG
309/SN
서둘러/VV+EC
##3200/SN
세포독성/NNP
##시안/NNG
##125/SN
##포항/NNP
그리웠/VA+EP
##보이/VV
흐르/VV
##ㅣ/NNG
부스/NNG
##노무/NNG
성원/NNG
##fomos/SL
##긍정/NNG
공예/NNG
스코어/NNG
##차세대/NNG
천문학/NNG
엄태구/NNP
전여/NNG
뭘/NP+JKO
여객기/NNG
공공장소/NNG
##변동/NNG
미룰/VV+ETM
##신청서/NNG
정전/NNG
##지의/EC+JKG
대상지/NNG
폭우/NNG
흥/NNG
줄지/VV+EC
##유급/NNG
콘테/NNP
##비즈/NNG
발길/NNG
총수/NNG
이매뉴얼/NNP
##나가/VV
전혈/NNG
##마스크/IC
5200/SN
최소화/NNG
##충북/NNP
남긴/VV+ETM
주저/NNG
상한가/NNG
희비/NNG
에소/NNP
김치/NNG
가할/VV+ETM
##영/EC
전대/NNG
무섭/VA
싸늘/XR
습도/NNG
##부담/NNG
수출상/NNG
##펜/NNG
거듭나/VV
표출/NNG
##경재/NNG
근속/NNG
##여가/NNG
##한다는/VX+ETM
남지/NNG
KRX/SL
포지션/NNG
두려워/VA+EC
서유럽/NNP
##중교/NNG
1160/SN
##◇/SY
##블랙/NNG
##신한/NNP
석/MM
넘겨/VV+EC
케이스/NNG
이지예/NNP
사우나/NNP
다가가/VV
##공항세/NNG
##PSC/SL
##검색/NNG
불요불급/NNG
##KT/SL
내밀/VV
휴식/MAG
노린다/VV+EF
고해/VV+EC
##상도의/NNG
##응/NNG
##이행/NNG
직위/NNG
MAS/SL
구애/NNG
##착용/NNG
##2031/SN
실효/NNG
논평/NNG
##보고회/NNG
갑작스럽/VA
숨지/VV
조대엽/NNP
심했/VA+EP
그치/NP
##당원/NNG
##냐/VCP+EF
델라웨어주/NNP
Part/SL
위어/NNG
##2101/SN
소기업/NNG
대단히/MAG
일당/NNG
##입법/NNG
##요/VCP+EC
전현우/NNP
지급액/NNG
마찰/NNG
점심/NNG
털어놓/VV
##어르신/NNG
##셔야/EP+EC
가상현실/NNP
수목원/NNG
##쯤/NNB
바이에른/NNP
모듈러/NNG
끼/NNG
밀려/VV+EC
조빛나/NNP
##항공우주/NNP
스페이스/NNG
신발/NNG
##보존/NNG
##대외/NNG
막중/XR
sportal/SL
##sportalkorea/SL
진열/NNG
플래시/NNG
플로이드/NNP
##로수/NNP
저항/NNG
공도읍/NNP
한샘/NNP
##점사/NNG
##전투/NNG
광진구/NNP
타이밍/NNG
##유해/NNG
##06/SN
성인용/NNP
인민/NNG
목포/NNP
헤쳐/VV+EC
##드라마/NNG
##OTT/SL
##103/SN
##다인/NNG
##특강/NNG
##코레/NNG
견과/NNG
물티슈/NNG
대답/NNG
##향서/NNG
팩/MAG
국난/NNG
##북구/NNP
에스/NNG
꼴/NNG
##DLF/SL
들어선/VV+ETM
##다르/VA
세일즈/NNP
턱/NNG
잔치/NNG
##던/EC
##구/NNG
불매/NNG
도청/NNG
절정/NNG
본안/NNG
니나/NNG
데/NP
김명환/NNP
신촌/NNP
138/SN
##야당/NNG
엄히/MAG
검색어/NNG
무선/NNG
그러/XR
##다시피/EC
동국/NNG
##140/SN
의장단/NNG
외식업/NNG
##기본법/NNG
대부/NNG
초중/NNG
배관/NNG
이집트/NNP
데일리/NNP
##캠/NNG
##’./SY
민원실/NNG
듯하/VA
트/VV
포즈/NNG
##제철/NNG
##브릿지/NNP
##체가/NNG
##농촌/NNG
휴양지/NNG
봐서/VV+EC
##해운/NNG
##비전/NNG
210/SN
흔들림/VV+ETN
##다스/NNG
##버블/NNG
##향식/NNG
##각/MM
성장도/NNG
##칭한/VV+ETM
정의당/NNG
햇살/NNG
##성급/NNG
댈러스/NNP
밝혀졌/VV+EC+VX+EP
##日/NNG
최/NNG
함평/NNP
실증/NNG
##재해/NNG
플래그/NNG
대학교/NNG
뜻깊/VA
##정규/NNG
##kangwon/SL
##단/MM
1999/SN
##탈리/NNG
갱스터/NNP
기밀/NNG
스캔들/NNG
무리뉴/NNP
작정/NNG
신기/XR
올리브/NNG
##버레/NNG
자투리/NNG
##라디오/NNG
】/SY
##주주/NNG
응대/NNG
##트위터/NNP
##매트/NNG
피크닉/NNP
호이안/NNP
감사원/NNG
김도훈/NNP
보호자/NNG
격투기/NNG
##공/NR
떡/NNG
##셰프/NNP
파도/NNG
가져왔/VV+EP
본점/NNG
126/SN
뮤지컬/NNP
축산/NNG
바둑/NNG
커미셔너/NNG
##는데다/EC
##라든가/EC
김도윤/NNP
##王/NNG
동상/NNG
비축/NNG
##장인/NNG
산업별/NNG
##온누리/NNP
발코니/NNG
함유/NNG
면밀/XR
##샵/NNP
서점/NNG
##으므로/EC
블록/NNG
임명장/NNG
##디옹/NNP
분해/NNG
시야/NNG
이뤄져/VV+EC
##달통/NNG
손보사/NNP
양식업/NNG
최고점/NNG
비리/NNG
외산/NNG
연천/NNG
양말/NNG
외항선/NNG
이동의/NNP
인민일보/NNP
##용시/NNG
수매/NNG
##자급/NNG
업성/NNP
##저수지/NNG
풍선/NNG
980/SN
경호/NNG
##임차/NNG
좌우/NNG
월곶/NNP
지휘관/NNG
마크롱/NNP
##냉동선/NNG
변이/NNG
##하늘/NNG
##내린/VV+ETM
기쁨/NNG
아연/NNG
기점/NNG
닐슨/NNP
##진화/NNG
##모자/NNG
험한/VA+ETM
이모님/NNG
삐지/VV
맏형/NNG
용돈/NNG
테마주/NNP
하경민/NNP
##5777/SN
일찌감치/MAG
제철/NNG
엄태웅/NNP
##파워/NNG
공고문/NNG
딜러/NNG
창단/NNG
자연환경/NNG
##운/NNG
##대학원/NNG
납치/NNG
##양대/NNG
수력/NNG
서정/NNG
닛산/NNP
##인형/NNG
일일이/MAG
완수/NNG
보직/NNG
학점/NNG
##탄력/NNG
상의/NNG
연임/NNG
도시미쓰/NNP
##도구/NNG
워터/NNG
실비/NNG
세액/NNG
유니세프/NNP
전재수/NNP
##슈/EC
리복/NNP
##번호/NNG
1800/SN
세븐일레븐/NNP
##CCTV/SL
식탁/NNG
빈/VV+ETM
손질/NNG
리뉴/NNP
##마리오/NNP
쿠/MAG
임대인/NNG
박경민/NNP
노년층/NNG
##인의/NNP
크리스티안슨/NNP
##파리/NNG
##쌍용/NNP
남쪽/NNG
내무부/NNP
##피엠/NNG
인형극/NNG
벤지/NNP
타이어/NNG
apM/SL
요키치/NNP
퇴소/NNG
빵집/NNG
##본청/NNG
##품질/NNG
##처벌/NNG
여전/NNG
비위/NNG
##안병선/NNP
터진/VV+ETM
조세호/NNP
##조아/NNG
사우디아라비아/NNP
감산/NNG
더디/VA
차입/NNG
현수막/NNG
장의/NNG
강원랜드/NNP
750/SN
회차/NNG
##채권/NNG
광양/NNP
줄어든다/VV+EC
##분권/NNG
돌렸/VV+EP
퀘스트/NNP
중압감/NNG
교통수단/NNG
박동욱/NNP
##ATEEZ/SL
##렙/NNG
##가이/NNG
##던가/EF
something/SL
fresh/SL
little/SL
bit/SL
excited/SL
good/SL
release/SL
guys/SL
위기감/NNG
맨프레드/NNP
잇따른/VV+ETM
샛별/NNG
팀원/NNG
##해진다/XSA+EC+VX+EF
##차/XSN
비주얼/NNG
정재훈/NNP
귀가/NNG
동전/NNG
ETC/SL
##핀/NNG
과민성/NNG
##방광/NNG
##로라/NNG
음향/NNG
시가지/NNG
산체스/NNP
##코/XSV+EC
담아내/VV
##전달/NNG
접촉도/NNG
쌍방향/NNG
##작동/NNG
##하이드/NNP
1995/SN
##ESPN/SL
루이스/NNP
끝내/MAG
한숨/NNG
유망주/NNG
국내선/NNG
일관/NNG
사법/NNG
도산/NNG
사업주/NNG
##Stay/SL
Strong/SL
##상국/NNG
1888/SN
놓쳐/VV+EC
##진흥/NNP
##후속/NNG
아이파크/NNP
당첨자/NNG
##주경/NNG
풋/MAG
이해관계/NNG
##하하하/MAG
광산/NNG
##광주시/NNP
장터/NNG
보여준다/VV+EC+VX+EC
지낸/VV+ETM
##컬리/NNP
##넌/NP+JX
##대부분/NNG
트라우마/NNP
1950/SN
호소문/NNG
무너진/VV+ETM
2519/SN
3521/SN
##시한/NNG
시한/NNG
배후/NNG
거둬/VV+EC
##충당/NNG
##금이/NNG
열어/NNG
분위/NNG
품귀/NNG
수법/NNG
##공유/NNP
##공유/NNG
과실/NNG
들려주/VV
원론/NNG
자긍심/NNG
무척/MAG
기업가/NNG
그만두/VV
##AFC/SL
빠질/VV+ETM
##기도/NNG
소셜/NNP
마틴/NNP
##코오롱/NNP
##유틸리티/NNG
##SUV/SL
주행/NNG
##111/SN
##점자/NNG
고마움/NNG
크로/NNP
곤충/NNG
드물/VA
휴양/NNG
##MAS/SL
##위구르/NNP
##머/VCP+EC
풍미/NNG
김건우/NNP
##신영/NNG
고양시/NNP
##금회/NNG
##996/SN
##752/SN
아마도/MAG
IgM/SL
##IgG/SL
수안보/NNP
등락/NNG
151/SN
116/SN
해군/NNG
##몰이/NNG
보름/NNG
푸/VV
쿡/NNP
pbj/SL
공공재/NNG
##통언/NNG
업주/NNG
렌/NNG
묶/VV
당한/NNG
##버/NNP
콜린스/NNP
##이/VV
지킨/VV+ETM
##스트로스/NNP
디비전/NNG
쏟아졌/VV+EP
##출판/NNG
노희준/NNP
##과천/NNP
고분/NNG
##양가/NNG
##차익/NNG
지니/VV
##물리학/NNG
##한눈/NNG
성취/NNG
반짝/MAG
##동해/NNP
다가갔/VV+EP
프로페셔널/XR
주안점/NNG
괴로워/VA+EC
걸작/NNG
양이/NNG
##베테랑/NNG
대본/NNG
구함/NNG
##근거/NNG
339/SN
##학의/NNP
이해도/NNG
남짓/NNB
##전문점/NNG
상세/XR
##계절/NNG
##QR/SL
위구르/NNP
탄압/NNG
암울/NNG
맞닿/VV
##챗/NNG
쌓여/VV+EC
방한/NNG
게임기/NNG
통일/NNG
##만족/NNG
##해고/NNG
##여의/NNG
군산/NNP
##시흥/NNP
235/SN
##CHANNEL/SL
##ichannela/SL
##｜/SY
##리온/EC
세울/NNG+VCP+ETM
##지에/NNG
김재순/NNP
거제/NNG
기꺼이/MAG
합치/VV
녹지대/NNG
##소형/NNG
쇼크/NNG
향/NNG
##팟/NNG
WP/SL
강화군/NNG
민감/NNG
칠/NNG
뜨/VV
비법/NNG
제자/NNG
띄워/VV+EC
##활/NNG
대세/NNG
음모론/NNP
퍼질/VV+ETM
##다거나/EC
데밍스/NNP
is/SL
목격/NNG
##전월세/NNP
##세력/NNG
유념/NNG
2156/SN
아스널/NNP
##특산물/NNG
##전수/VV
찬/VA+ETM
##모더/NNP
##마드리드/NNP
페스타/NNP
##타임즈/NNP
##인사이트/NNP
공수/NNG
##드린다/VV+EF
##노사/NNG
132/SN
다졌/VV+EP
##고궁/NNG
사은품/NNG
원대/NNG
파나마/NNG
##젊/VA
##작의/NNG
뱅크/NNP
##금시장/NNG
해임/NNG
학문/NNG
우산/NNG
예배/NNG
행적/NNG
조별/NNG
##푸르지오/NNP
##정역/NNG
천안아산역/NNP
두정/NNG
##달러화/NNG
##골드/NNP
Index/SL
한몫/NNG
잡힌/VV+ETM
오하이오주/NNP
핫/NNG
코어/NNG
도이체/NNP
##과목/NNG
교장/NNG
##청정/NNG
트/NNG
현원/NNG
방만/XR
파이어/NNP
##신사업/NNG
올린다/VV+EF
##기아/NNP
현직/NNG
US/SL
##다자간/NNG
부정수/NNG
전주국/NNG
##이랜드/NNP
나뉜다/VV+EF
##PGA/SL
강민석/NNP
##3355/SN
광구/NNG
##테크놀로지/NNG
안간힘/NNG
진작/NNG
##플랜/NNG
자이언츠/NNP
무색/XR
##혜의/NNG
연이/NNG
기미/NNG
방대/XR
안동/NNG
서바이벌/NNP
진출권/NNG
퓨릭/NNP
대변/NNG
##트럼프/NNP
간사인/NNG
의안/NNG
##법사/NNG
##청와대/NNP
용적률/NNG
기용/NNG
레지/NNG
한적/XR
만끽/NNG
이분/NP
나눌/VV+ETM
##봉화/NNG
##백두대간/NNP
지참/NNG
막바지/NNG
이정호/NNP
##종합시험/NNG
##하이츠/NNP
모토/NNG
##이것/NP
##급식소/NNG
##81/SN
##모피/NNG
##셔/NNG
##완화/NNG
장학생/NNG
장학/NNP
빙그레/NNP
고등학생/NNG
##하이브리드/NNG
본격화/NNG
##항공사/NNG
1339/SN
##숨/NNG
우체국/NNG
불거진/VV+ETM
관영/NNG
곤란/NNG
이형진/NNP
##김태환/NNP
hjin/SL
KTB/SL
##방문/NNG
##옥스퍼드/NNP
이젠/NNG+JX
미성년자/NNG
##래/VCP+EC
##포유/NNG
실린/NNP
##부분/NNG
##deok/SL
브렌트/NNP
##감/NNG
가용/NNG
제자리/NNG
##고/XPN
볼/VV+ETM
##jiyeong/SL
483/SN
배급/NNG
웰/NNP
상영관/NNP
##244/SN
캐시/NNP
한발/NNG
##내와/VV+EC
##편집자/NNG
임차인/NNG
##정확/NNG
아날로그/NNP
##젤/MAG
상륙/NNG
극심/XR
##신/VV
페루/NNP
창저우/NNP
##기가/NNG
ESS/SL
산은/NNP
빌러/NNP
준/VV+ETM
##유흥주/NNP
154/SN
##부회장/NNG
띄/NNG
##합니다/VV+EF
대체재/NNG
##손해/NNG
##인도적/NNG
징수/NNG
##mbcplus/SL
탐방/NNG
##질서/NNG
##내외/NNG
##제출/NNG
##특례/NNG
##한법/NNG
김용환/NNP
속초시/NNP
뜰/NNG
##태양광/NNG
송현수/NNP
songh/SL
##초록/NNG
##건/NNB+JX
##도약/NNG
##수신/NNG
##검증/NNG
과외/NNG
##도매/NNG
슈판/NNP
과반/NNG
##웃음/NNG
기본소득/NNP
포석/NNG
##극/NNG
##네이처/NNP
재조합/NNG
##실시간/NNG
감봉/NNG
young/SL
편견/NNG
보복/NNG
여로/NNG
이란/NNP
–/SY
직종/NNG
안선영/NNP
##유연/XR
Net/SL
반기/NNG
미숙/XR
법규/NNG
##학점제/NNG
대학원/NNG
##털/NNG
원두/NNG
부패/NNG
##APAC/SL
Steel/SL
Outlook/SL
순수/NNG
최태원/NNP
승자/NNG
고열/NNG
수의/NNG
1400/SN
저널리즘/NNG
중국어/NNG
##미니/NNG
김형신/NNP
하향식/NNG
전교조/NNP
옮겼/VV+EP
##수급/NNG
Key/SL
ROOKIE/SL
##공화국/NNG
정상급/NNG
연주자/NNG
현대건설/NNP
왔으며/VV+EP+EC
ENM/SL
린다/NNP
호주가/NNG
##기념/NNG
음반/NNG
##효주/NNG
됐으며/VV+EP+EC
##실현/NNG
하단/NNG
다각도/NNG
##유아/NNG
예산안/NNG
기강/NNG
##잔/NNG
##이창섭/NNP
음주운전/NNP
제명/NNG
221/SN
로마/NNP
받아들었/VV+EP
알베르토/NNP
바르베라/NNP
기상청/NNG
트래픽/NNP
세련/XR
땜질/NNG
지용/NNP
jyjun/SL
##인제/NNG
연령층/NNG
##의미/NNG
##무용/NNG
강했/VA+EP
실권주/NNG
##지분/NNG
도르트문트/NNP
침낭/NNG
스테이크/NNG
김현수/NNP
교통편/NNG
##검찰/NNG
초안/NNG
차주/NNG
##녀의/NNG
역부족/NNG
##무사/NNG
##험자/NNG
엉덩이/NNG
멀미약/NNG
##맥스/NNP
##문약/NNG
##175/SN
##α/SL
파급/NNG
신보/NNG
예매처/NNG
생수/NNG
##스튜디오/NNP
FM/SL
성경/NNG
건지/NNB+VCP+EC
관용/NNG
할까요/VV+EF
##毅/SH
교과/NNG
소방대원/NNG
논설위원/NNG
중산/NNG
##장막성전/NNP
##기소/NNG
CM/SL
##풍력/NNG
##◀/SY
##용인/NNP
##쿱/NNP
##바/NNP
다투/VV
그래야/VA+EC
생육/NNG
##한반도/NNP
수량/NNG
김현태/NNP
텍스트/NNG
##도가/NNG
여수/NNG
스가/NNP
##비누/NNG
##소통/NNG
저감/NNG
검사장/NNG
Korea/SL
##큐어/NNP
입출/NNG
##스탠리/NNP
선풍기/NNG
오케스트라/NNG
##지휘/NNG
마술/NNG
톡톡히/MAG
##월북/NNG
##연극제/NNP
김하용/NNP
오름길/NNG
만신창/NNG
생고생/NNG
은인/NNG
속상함/VA+ETN
부전자전/NNG
##시와/NNP
호찌/NNG
##민시/NNG
##케미/NNP
대주주/NNG
아랍에미리트/NNP
공급량/NNG
##지산/NNG
간식/NNG
이휘경/NNP
크림/NNG
도래/NNG
##헌/XSV+ETM
##머/EC
부다페스트/NNP
농축산물/NNG
성도/NNG
##중복/NNG
##팬텀/NNG
##싱어/NNG
휠라/NNP
이기/VV
직주/NNG
##근접/NNG
Zones/SL
##펀/NNG
중남미/NNP
메르스/NNP
켄/NNP
리얼리티/NNG
독도/NNP
커쇼/NNP
연출가/NNG
노준철/NNP
소스/NNG
가리켜/VV+EC
공연계/NNG
##레온/NNP
한컴/NNP
김현식/NNP
까닭/NNG
고기연/NNP
.../SY
대극장/NNG
보도국/NNG
미미/XR
일기/NNG
동승자/NNG
야참/NNG
잡/NNP
정원석/NNP
고백/NNG
##닛케이/NNP
고독사/NNP
비하/NNG
교황/NNG
##주라/NNG
진보당/NNG
NVR/SL
양도/NNG
ANA/SL
##미칼/NNP
##완강기/NNG
리얼/NNG
가이던스/NNP
훔쳐/VV+EC
오로지/MAG
패시브/NNP
캐논/NNP
스탭/NNG
##언어/NNG
데이브레이크/NNP
##스티어/NNP
##플러그/NNG
식중독/NNG
##테니스/NNG
이창진/NNP
생/NNP
##生/XSN
한우/NNG
병역/NNG
목포역/NNP
청송/NNG
##응원/NNG
파크뷰/NNP
포천시/NNP
이건명/NNP
##머더/NNP
##발라드/NNP
강아정/NNP
AW/SL
##생/NNP
삐/MAG
아약스/NNG
##채빈/NNP
##서유기/NNG
임광현/NNP
##연회/NNG
곱창/NNG
이영록/NNP
숙련/NNG
유성훈/NNP
##사자상/NNG
경인/NNG
##단속/NNG
손상원/NNP
퀸/NNP
sangwon/SL
##DPA/SL
hypark/SL
##위해/VV+EC
폐가/NNG
은신/NNG
내후년/NNG
폭행/NNG
##발견/NNG
속보/NNG
비긴/NNG
##예전/NNG
바깥/NNG
내면/NNG
##듣/VV
통행/NNG
leejj/SL
##0537/SN
박력/NNG
##.."/SY
##별로/MAG
##수요일/NNG
그만/MAG
플레이어/NNG
##그럼에도/VA+ETN+JKB+JX
##네이션/NNP
ASL/SL
홍익표/NNP
저해/NNG
영농/NNG
지역인/NNG
이스트먼/NNP
모셔올/VV+EC+VX+ETM
##클라인/NNP
핏빛/NNG
희망찬/VA+ETM
##모스크바/NNP
##개성/NNG
속의/NNG
##반납/NNG
노동조합/NNG
열흘/NNG
가령/MAG
거창/XR
이어받/VV
라리/NNP
치러야/VV+EC
감추/VV
##챔피/NNP
대한/NNP
북유럽/NNP
##박자/NNG
풍광/NNG
시현/NNG
##항암제/NNG
코미/NNP
코미디언/NNG
대략/NNG
##추세/NNG
이관/NNG
벌인/VV+ETM
페드로/NNP
박병석/NNP
농도/NNG
##밋/NNG
오가/VV
2100/SN
따라붙/VV
##양/NNG
연구개발/NNP
##단지/NNBC
남향/NNG
##Bay/SL
알파/NNG
##104/SN
##랲은/UNKNOWN
##방침/NNG
위배/NNG
목요일/NNG
한상희/NNP
angela/SL
##0204/SN
##구상/NNG
애잔/XR
떠돌/VV
mkculture/SL
##님의/NNP
##;(/SY
곁/NNG
거쳤/VV+EP
일으켜/VV+EC
##4294/SN
##6813/SN
끊기/VV
침/NNG
진권/NNG
예쁘/VA
빅스/NNP
엑소/NNP
빌린/VV+ETM
승차/NNG
나선다는/VV+ETM
##NBA/SL
문답/NNG
접경/NNG
온갖/MM
##주제/NNG
따/VV
##한다는/VV+ETM
##101/SN
살릴/VV+ETM
외롭/VA
8500/SN
FnC/SL
##Only/SL
월등/MAG
놓이/VV
##풍산/NNG
스트로크/NNG
##출전/NNG
1958/SN
거르/VV
소화기/NNG
##외과/NNG
미모/NNG
##족의/NNG
바캉스/NNG
##여러/MM
##엘/NNG
##슈/VCP+EF
##소/XPN
##황/NNG
##윤리/NNG
알약/NNG
나타났으며/VV+EP+EC
경상북도/NNP
면했/VV+EP
##그것/NP
##1990/SN
백암/NNP
설악/NNP
난관/NNG
##오/EF
##송출/NNG
장희구/NNP
맛보/VV
##맥주/NNG
수혜자/NNG
##인데다/VCP+EC
115/SN
빌리/NNP
北/NNG
야망/NNG
공모자/NNG
##1601/SN
##1259/SN
themoon/SL
##외부/NNG
이브닝/NNG
호이/NNP
카일/NNP
픽업/NNG
내주/VV
역전/NNG
만루/NNG
친/NNG
무사/NNG
##자책/NNG
번의/NNG
##루타/NNG
##자책점/NNG
버디/NNG
플/NNG
숙였/VV+EP
해온/VV+EC+VX+ETM
받아들였/VV+EP
1980/SN
1984/SN
##승률/NNG
##현직/NNG
신인왕/NNG
이소영/NNP
최혜진/NNP
미닛메이드/NNP
클리어링/NNP
파기/NNG
英/NNG
선뜻/MAG
##..”/SY
비로소/MAG
가산/NNG
합한/VV+ETM
##영등포/NNP
##마포/NNG
##동작/NNG
##노원/NNG
##성북/NNG
##매가/NNG
##충격/NNG
화학합성/NNP
하계/NNG
홍원찬/NNP
요르단/NNP
##천만/NNG
갉아먹/VV
##김인남/NNP
가져서/VV+EC
민폐/NNG
남달랐/VA+EP
지극히/MAG
##주의자/NNG
594/SN
##행해/NNG
##간다/VV+EF
섞인/VV+ETM
##해선/XSV+EC+JX
2932/SN
헤/IC
239/SN
라이언즈/NNP
은사자상/NNP
슈퍼볼/NNP
입소문/NNG
알린/VV+EC
내게/NP+JKB
##측근/NNG
둘러싸/VV
##가을/NNG
박종훈/NNP
김상현/NNP
한중/NNG
전기료/NNG
##취소/NNG
##선축/NNG
조식/NNG
통찰/NNG
##수력/NNG
##앤드/NNP
490/SN
김지운/NNP
주축/NNG
채로/NNG
주현종/NNP
빈자리/NNG
##해왔으나/XSV+EC+VX+EP+EC
사증/NNG
조류/NNG
작업자/NNG
총동원/NNG
##물류/NNP
##캡스/NNP
수천만/NR
##반대/NNG
##서장/NNG
도왔/VV+EP
응급실/NNG
이노/NNP
시화전/NNG
##상작/NNG
463/SN
##적금/NNG
신풍/NNG
##289/SN
깨닫/VV
이럴/VA+ETM
##재활/NNG
저변/NNG
배/NNP
명과/NNG
겨울철/NNG
미정/NNG
색/NNG
톰/NNG
##강제/NNG
속옷/NNG
##신체/NNG
##증후군/NNG
##시티투어/NNP
크레인/NNG
짜릿/XR
풋볼/NNG
##한의/NNG
##식물원/NNG
김영섭/NNP
##개시/NNG
##유예/NNG
화분/NNG
프랑스와/NNP
도저히/MAG
##구입/NNG
##시세/NNG
움직였/VV+EP
암호/NNG
##기판/NNG
캐리/NNP
370/SN
상공/NNG
##120/SN
압수수색/NNP
##Camp/SL
액셀/NNG
426/SN
의식주/NNG
329/SN
##초/MAG
##정동/NNG
김윤지/NNP
##66/SN
##아워/NNG
3218/SN
##득의/NNG
다우/NNG
전미/NNG
4400/SN
시연회/NNG
맡겼/VV+EP
##동대/NNG
사료/NNG
##납부금/NNG
##인국/NNG
##문화원/NNG
어플리케이션/NNG
어려워졌/VA+EC+VX+EP
진정서/NNG
앤드루/NNP
쿠오모/NNP
##공중/NNG
단편/NNG
비거리/NNG
스트리밍/NNP
##다가/JX
마침내/MAG
##페루/NNP
장벽/NNG
##都/NNG
khkkim/SL
사직/NNG
예보/NNG
가져야/VV+EC
오류/NNG
##영어/NNG
글씨/NNG
단서/NNG
친절/NNG
##경색/NNG
우원식/NNP
법인세/NNG
구원/NNG
3360/SN
##감도/NNG
취합/NNG
##경정/NNG
주사/NNG
합병증/NNG
비례/NNG
넘어간/VV+ETM
##발주자/NNG
##당장/NNG
차바위/NNP
민원인/NNG
라면/NNG
교육비/NNG
##식물/NNG
하메스/NNP
리버풀/NNP
전술/NNG
경향신문/NNP
##360/SN
##사와/EC
방금/NNG
##저희/NP
배식/NNG
급식소/NNG
가만히/MAG
이어가기/NNG
##니까/VCP+EC
##국방부/NNG
##고가/NNG
판매액/NNG
##픽/NNG
방증/NNG
금전/NNG
##㎝/SY
동명/NNG
보훈/NNG
신형/NNP
증거금/NNG
생소/XR
##예탁/NNG
IBK/SL
기본급/NNG
##국번/NNG
ungaungae/SL
안성시/NNP
##성시/NNG
9200/SN
상파울루주/NNP
시노/NNP
3213/SN
##그래도/VV+EC
재조명/NNG
##타이틀/NNG
규범/NNG
메시/NNG
그물망/NNG
##434/SN
우상/NNG
##NEJM/SL
보폭/NNG
##창구/NNG
##예의/NNG
park/SL
시멘트/NNG
##여럿/NNG
테헤란/NNP
##수탁/NNG
##드림/NNG
두드러진/VA+ETM
기류/NNG
운임/NNG
부천/NNP
들여다보/VV
집안/NNG
헌팅/NNP
SBSCNBC/SL
수개월/NNG
황기선/NNP
juanito/SL
㎡/SY
##ACL/SL
전락/NNG
지켜본/VV+ETM
여섯/NR
JP/SL
팬더/NNP
##지/NNG
##택시/NNG
##반/XPN
제작비/NNG
##닉스/NNG
오프/NNG
발표회/NNG
ELB/SL
상담원/NNG
##총리/NNG
취항/NNG
430/SN
수신/NNG
##LED/SL
OEM/SL
##디스커버리/NNP
##실태/NNG
한창/MAG
##판매업/NNG
닮/VV
##된다/VV+EF
천산갑/NNG
총영사/NNG
Inc/SL
일조/NNG
핵보유국/NNG
사립대/NNG
##분리/NNG
김선순/NNP
##짓/VV
##'./SY
증감/NNG
##돼지/NNG
##high/SL
아르셀/NNP
##Negative/SL
용산구/NNP
원피스/NNG
##휴가철/NNG
##기인/NNG
종합부동산세/NNP
##촌의/NNG
##레저/NNG
연구회/NNG
빨라질/VA+EC+VX+ETM
##마련/NNG
##보증금/NNG
보증금/NNG
##손영래/NNP
몰릴/VV+ETM
이념/NNG
##항원/NNG
뽐냈/VV+EP
레이놀즈/NNP
법치주의/NNG
우정/NNG
반감/NNG
민속/NNG
현대산업개발/NNP
작곡가/NNG
결성/NNG
소나타/NNG
##서진/NNG
기장군/NNG
가결/NNG
##융자/NNG
세제/NNG
이민혁/NNP
임현식/NNP
포상/NNG
동학/NNG
숙제/NNG
차승원/NNP
집필/NNG
스튜디오/NNP
##트래픽/NNP
토종/NNG
##아가/NNG
260/SN
##인포/NNP
출판인/NNG
은행나무/NNG
말살/NNG
##노래방/NNG
중산층/NNG
↑/SY
개막이/NNG
늦춰/VV+EC
삼척/NNG
스핀/NNG
승점/NNG
##승점/NNG
화력/NNG
##단둥/NNP
매달리/VV
첼시/NNG
##산악자전거/NNG
응하/VV
데이/NNG
##탁자/NNG
알전구/NNG
##어게인/NNG
덮밥/NNG
닭꼬치/NNP
##BMW/SL
철처히/MAG
흔들/VV
충실히/MAG
##불/NNG
육류/NNG
김도형/NNP
떼/NNG
도매상/NNG
은행장/NNG
대열/NNG
롤/NNG
##연속/NNG
영광/NNP
근간/NNG
##대만/NNP
##GS/SL
##정책금융/NNP
NIM/SL
관망세/NNG
##갤러리/NNG
평면/NNG
##이스/NNP
ACE/SL
##丹東/NNG
##117/SN
심문/NNG
풍력/NNG
경쟁자/NNG
##쇄나/NNG
##곤/VCP+EC
금은방/NNG
넘보/VV
리얼미터/NNP
##수행/NNG
이글스/NNP
mtkht/SL
클로/NNP
##병의/NNG
치닫/VV
##지급/NNG
##愛/NNG
CNS/SL
1983/SN
##777/SN
소홀히/MAG
고진/NNG
소시/NNG
튼튼/XR
##시향/NNG
##표준/NNG
##큐브/NNP
##라이브/NNP
시사회/NNG
맞물리/VV
연예/NNG
숭실대/NNP
태영/NNP
##다지만/EC
##정예/NNG
##핑/NNG
신라/NNP
고용부/NNP
##욱/NNG
합/NNG
##･/SY
벤투/NNP
##고요/VCP+EF
##팔불출/NNG
##둥이/NNG
부자간/NNG
삐걱대/VV
남승/NNG
##가간/NNG
옛날/NNG
묶여/VV+EC
탕정/NNG
##티켓/NNG
워킹/NNG
꾀하/VV
8344/SN
젤/NNG
신학/NNG
신앙/NNG
근데/MAJ
##객석/NNG
보이콧/NNG
한국남/NNP
##동발/NNG
##추/NNG
##발열/NNG
##트레이닝/NNG
##이슈/NNG
기업공개/NNP
##분담/NNG
들어서/VV
들려준다/VV+EC+VX+EF
침입/NNG
디테일/NNG
억만장자/NNG
##동산/NNG
정시/NNG
영도구/NNP
##가칭/NNG
마포/NNG
##금은/NNG
##씻/VV
6400/SN
검경/NNG
정읍/NNG
##데/NNP
반송/NNG
센스/NNG
##움/EC
jinny/SL
교육용/NNP
##가슴살/NNG
##상은/NNG
파라다이스/NNG
링크/NNG
객원/NNG
재생/NNG
댜오위다오/NNP
##기타/NNG
##소상/NNG
텡/NNP
##Z/SL
메가/NNP
##재고/NNG
동궁/NNG
무서운/VA+ETM
굴곡/NNG
##공업/NNG
레고랜드/NNP
##강원/NNP
##춘천/NNP
복식/NNG
정선군/NNG
김종호/NNP
##실직/XR
IRP/SL
경찰서/NNG
연주/NNP
##찐/VV+ETM
머신/NNG
##ytnplus/SL
##아티/NNP
##출처/NNG
권명숙/NNP
버라이어티/NNP
감귤/NNG
스토리텔링/NNP
##기안/NNP
수질/NNG
##권리/NNG
-‘/SY
거실/NNG
겁/NNG
##분류/NNG
원외/NNG
이동률/NNP
이정/NNP
##증명/NNG
공설/NNG
달서/NNG
지문/NNG
목욕탕/NNG
##국악/NNG
종자/NNG
폐/XPN
임진/NNG
##티/NNP
장군/NNG
워/NNG
두류/NNG
캠핑카/NNG
넥/NNP
##클리닝/NNG
하빕/NNP
이주민/NNP
심포니/NNG
햄스터/NNG
마차도/NNP
허약/NNG
안강현/NNP
##국립대/NNG
국민은행/NNP
파프리카/NNG
금천구/NNP
##치/NNG
##외식/NNG
##원스/NNP
확고/XR
외형/NNG
잎새/NNG
##구와/NNG
떨어졌었/VV+EP
##씨도/NNG
궁극/NNG
중재/NNG
취해/VV+EC
조급/XR
펼쳐진/VV+ETM
##퀴즈/NNG
변해/VV+EC
자가용/NNG
226/SN
##파마/NNP
##종류/NNBC
일제/NNG
채취/NNG
한양대/NNP
##신다고/EP+EF
친하/VA
휴장/NNG
냉동/NNG
선적/NNG
142/SN
농산어촌/NNG
##학/MAG
버/NNP
##락소/NNP
##스미스/NNP
교착/NNG
포항시/NNP
##연수원/NNG
이형권/NNP
지양/NNG
터졌/VV+EP
##바/NNG
##닭/NNG
1989/SN
##탕/NNG
우대/NNG
##스러움/XSA+ETN
자축/XR
굳건히/MAG
지금껏/MAG
##순/NNG
198/SN
…/SE
##피/VV
코드/NNG
수감/NNG
케미/NNP
끝낸/VV+ETM
##리아/EC
가스터/NNP
##일동/NNG
##8010/SN
##5207/SN
##동등/NNG
##Pilot/SL
BE/SL
유쾌/XR
힙합/NNG
쏙/NNG
##라고/EF
매너/NNG
넘어온/VV+ETM
어민/NNG
북송/NNG
한지연/NNP
판매로/NNG
김보겸/NNP
텔레/NNP
내보내/VV
법상/NNG
부적격/NNG
##파우/NNG
유현석/NNP
##네오/NNP
파이프라인/NNG
윌리엄스/NNP
##했으나/XSA+EP+EC
바스켓/NNG
고발장/NNG
순례/NNG
##돼왔/XSV+EC+VX+EP
##넨/XPN+JX
중소형/NNG
##과열/NNG
##캠퍼스/NNG
##수수료/NNG
##코퍼레이션/NNG
##자회/NNG
##069/SN
불러올/VV+ETM
빈민가/NNG
##LH/SL
잠식/NNG
##취/NNP
##우울/NNG
모스크바/NNP
##군위/NNG
##결의/NNG
##건자재/NNG
##130/SN
3747/SN
##1947/SN
##1729/SN
##1701/SN
##1486/SN
##1428/SN
##1049/SN
##셜/NNP
쌓았/VV+EP
yccho/SL
조용철/NNP
휘/NNG
가사도/NNG
팸/NNG
##벨벳/NNG
##피고인/NNG
##워크/NNG
##미스트/NNP
쏠렸/VV+EP
의지/NNP
마냥/NNG
입성/NNG
와이드/NNG
##포스코/NNP
##고와/VA+EC
##종신/NNG
실속/NNG
##어온/NNG
##수정/NNG
##리스크/NNG
속해/VV+EC
한국경제연구원/NNP
##IoT/SL
##증하/VA
##노종/NNG
##순간/NNG
##JTBC/SL
##3880/SN
정읍시/NNP
##143/SN
연휴/NNG
사회주의/NNG
##입/VV
##워터/NNG
입맛/NNG
한정판/NNG
hjk/SL
경구/NNG
##산단/NNG
##소송/NNG
분과/NNG
유망/XR
##CareStart/SL
인디애나/NNP
##국지연/NNP
혈액형/NNG
##집니다/VX+EF
머지않/VA
##페인트/NNG
##기초/NNG
트랙터/NNG
145/SN
남조선/NNP
호/IC
##아무리/MAG
##감시자/NNG
##항이/NNP
맡겨/VV+EC
맡길/VV+ETM
변성완/NNP
##스터/NNP
보태/VV
##입학/NNG
##미생물학/NNG
안타/NNG
복귀전/NNG
클리블랜드/NNP
로비/NNP
##269/SN
캔자스시티/NNP
##삼진/NNG
까다로운/VA+ETM
##클/NNG
##롤/JKB
골라/VV+EC
##레어/NNP
##선우/NNG
맹활약/NNG
레드삭스/NNP
부활/NNP
버락/NNP
인도적/NNG
##노선/NNG
##옛/EC
##카가/NNP
속도전/NNG
##양천/NNG
##용산/NNP
##광진/NNP
##보증서/NNG
##단백/NNG
질량/NNG
피서객/NNG
꺼리/NNG
시퀀스/NNG
##아무래도/MAG
##하드보일드/NNG
채워야/VV+EC
유대/NNG
체크인/NNG
##나오/VV
##주요/NNG
1150/SN
##애니/NNP
##관광업/NNG
분주/NNG
하늘길/NNG
##부를/VV+ETM
443/SN
##언의/NNG
위정현/NNP
살펴봤/VV+EP
당사/NNG
##통일부/NNG
##퇴직금/NNG
##절감/NNG
적힌/VV+ETM
김영철/NNP
재개봉/NNG
열띤/VA+ETM
의하/VV
내비치/VV
175/SN
##%↑/SY
##상파울루/NNP
fidelis/SL
내려졌/VV+EP
##ㆍ충남/UNKNOWN
##수목원/NNG
##4200/SN
준/XPN
##으려/EC
##사회단체/NNG
한/NNG
태화강/NNP
##백로/NNG
억누르/VV
지루/XR
##체크카드/NNG
기하/VV
초보/NNG
살림/NNG
카테고리/NNG
##강원/NNG
원할/VV+ETM
##국내외/NNG
##경우/NNG
##아니/VCN
카멀/NNP
계승/NNG
##혈의/NNP
고취/NNG
Front/SL
일반석/NNG
1135/SN
##％)/SY
##김유진/NNP
하차/NNG
##패의/NNG
장금/NNG
영예/NNG
##점/NNB
##학당/NNG
목돈/NNG
매치/NNG
##수영/NNG
진/NNP
##선진/NNG
##보급/NNG
잭슨빌/NNP
##직업/NNG
##시도/NNG
개미/NNG
푼/NNP
권위/NNG
07/SN
##관/NNBC
빛/VV
##관광객/NNG
기업어음/NNP
텐데요/NNB+VCP+EF
숨기/VV
벌/NNG
##불교/NNG
8400/SN
찬반/NNG
장기근속/NNG
신원/NNG
##국적/NNG
##대금/NNG
실리/VV
김진희/NNP
##희망자/NNG
허브/NNG
김종민/NNP
닷컴/NNP
김홍일/NNP
디캠프/NNP
이진성/NNP
##QMIT/SL
레이지/NNP
엘/NNP
1748/SN
7010/SN
948/SN
4815/SN
##지주사/NNG
다각화/NNG
여신/NNG
장갑/NNG
복장/NNG
##스팟/NNG
##트리트/NNP
경제학자/NNG
엉뚱/XR
우연히/MAG
발단/NNG
새삼/MAG
흘러/VV+EC
핀셋/NNG
##평상시/NNG
##사용료/NNG
문화원/NNG
##에듀/NNP
무리수/NNG
안다/VV+EF
행안/NNP
영등포/NNP
272/SN
수송/NNG
##루키/NNP
커리어/NNP
누르/VV
##세인트/NNP
달콤/XR
장도/NNG
##부정수/NNG
##급대/NNG
##보류/NNG
##세운/NNG
##맛있/VA
##캐리어/NNG
미안/NNG
서대/NNG
감염원/NNG
인비/NNG
##막/VV
도도/NNG
##府/NNG
사립/NNG
458/SN
##신문협회/NNP
호찌민/NNP
결혼식장/NNG
다이노스/NNP
스트리트/NNP
##웨어/NNP
보이스/NNP
두렵/VA
##국정/NNG
물러서/VV
지지층/NNG
##캐피털/NNG
##종과/NNG
앨리/NNG
넘버/NNG
이동한/NNP
헤엄쳐/VV+EC
##줄/NNG
##록의/NNG
재건/NNG
성토/NNG
##추천/NNG
이대헌/NNP
좀처럼/MAG
아쉬웠/VA+EP
엔지니어/NNG
##검진/NNG
감내/NNG
##디아스/NNP
부티크/NNG
투숙객/NNG
풀어냈/VV+EP
##기부/NNG
##재배/NNG
행선지/NNG
엘리먼/NNP
##인분/NNG
벌인다/VV+EF
##이사의/NNP
##존속/NNG
데리/VV
바닷가/NNG
##역부/NNG
상당산성/NNP
UAE/SL
아랍/NNP
##탐사선/NNG
따라잡/VV
모험/NNG
##투자가/NNG
kwon/SL
길거리/NNG
변했/VV+EP
재단법인/NNP
고성장/NNG
커/VA+EF
##며/VCP+EC
##180/SN
##인경/NNG
씨앗/NNG
##방글라데시/NNP
##kona/SL
나간다는/VV+ETM
권영미/NNP
##견과/NNG
낸다/VV+EF
주점/NNG
원거리/NNG
역류/NNG
고위급/NNG
판매사/NNG
겹쳤/VV+EP
코엑스몰/NNP
##故/SH
##면사무소/NNG
##실에/NNG
인피니티/NNP
##레/NNP
##노마/NNP
이의/NNG
요약/NNG
이명박/NNP
본다면/VV+EC
원안/NNG
##3100/SN
##한국은행/NNP
고르/VV
지주사/NNG
시공사/NNP
하도급/NNG
##산지/NNG
맛과/NNG
임재영/NNP
사거리/NNG
곤지/NNG
##암읍/NNG
맹대환/NNP
송갑석/NNP
2150/SN
##리라/EC
##오피스/NNP
노벨/NNP
로버트/NNP
맨해튼/NNP
사무소/NNG
##이웃/NNG
걸치/VV
##전용/NNG
백두대간/NNP
##협곡/NNG
박찬근/NNP
##geun/SL
이단/NNG
끌/NNG
##밀접/NNG
콜라/NNG
##환기/NNG
##김동언/NNP
##kde/SL
탈피/NNG
차종/NNG
##차/VV
혼합형/NNG
도보/NNP
민노총/NNP
강경파/NNG
간주/NNG
안내문/NNG
공실률/NNG
반문/NNG
그다지/MAG
##산/VV+ETM
##옥/NNG
머물/VV+ETM
장애물/NNG
임했/VV+EP
##개년/NNBC
##걷/VV
토론자/NNG
커다란/VA+ETM
##진작/MAG
##월보/NNG
골고루/MAG
신장위/NNP
벗어난/VV+ETM
자질/NNG
##성훈/NNG
##응급처치/NNP
핸드/NNP
##사채/NNG
가져갈/VV+ETM
##지난달/NNG
해결책/NNG
##양양/NNG
플라/NNP
##시/XSN
중추/NNG
##업자/NNG
##캅/NNP
굴기/NNG
축전/NNG
신예/NNG
돌연/MAG
고비/NNG
대치동/NNP
##신호/NNG
##틱/NNG
##플란트/NNP
메디/NNP
##MJ/SL
LPG/SL
막혀/VV+EC
외쳐/VV+EC
##승현/NNP
key/SL
창립식/NNG
정혜신/NNP
심폐/NNG
##으로선/JKB+JX
##역학/NNG
재임/NNG
COLOR/SL
착용감/NNG
수전/NNG
166/SN
##反/NNG
의석/NNG
##사상/NNG
##드가/NNP
김민수/NNP
##수렴/NNG
대동/NNG
##클러스터/NNG
최승근/NNP
##csk/SL
##3480/SN
##순차/NNG
Debt/SL
EBITDA/SL
박성제/NNP
##선사/NNG
psj/SL
##미래형/NNG
동대문구/NNP
장인/NNG
에티오피아/NNP
문화유산/NNG
##레일/NNG
개리/NNG
동아리/NNG
장이/NNG
##드렸/VV+EP
228/SN
##구글/NNG
김민/NNP
루마니아/NNP
정문호/NNP
브라운/NNP
시사점/NNG
부제/NNG
정소영/NNP
wjsry/SL
##emd/SL
직급/NNG
끼칠/VV+ETM
##ND/SL
Flu/SL
##지/VV
##ITU/SL
조력/NNG
##91/SN
앙상블/NNG
캘리/NNP
출자/NNG
##건설기계/NNP
어떻게/MAG
하버드대/NNP
협연/NNG
권오현/NNP
구상도/NNG
고군분투/NNG
상급/NNG
동결/NNP
전지/NNG
정일훈/NNP
방점/NNG
##감사관/NNG
##심판/NNG
당위/NNG
유안/NNG
##스튜디오/NNG
친근/XR
분석가/NNG
퍼블리싱/NNG
##강연/NNG
IoT/SL
임의/NNG
##배구/NNG
순조/NNG
수지/NNG
하천/NNG
sewonlee/SL
불려/VV+EC
##육회/NNG
아메리칸/NNG
이웃들이/NNG+XSN+JKS
남기/NNG
다용도/NNG
냉동선/NNG
##바둑/NNG
향했/VV+EP
폭풍/NNG
부득이/MAG
유상/NNP
##가요/NNG
망신/NNG
##박용/NNG
##대대/NNG
이면/NNG
장악/NNG
한겨레/NNG
시연/NNP
##강요/NNG
라이트급/NNG
상환/NNG
팁/NNG
휴대용/NNG
쭉/MAG
##106/SN
##잡이/NNG
반갑/VA
미스터리/NNG
##농기계/NNG
내려오/VV
라오스/NNP
수익금/NNG
맑/VA
만점/NNG
##변의/NNG
##령/NNBC
##해석/NNG
##라든가/VCP+EC
본질/NNG
그건/NP+JX
##노근리/NNP
##번지/NNG
##영원/NNG
푯말/NNG
##무역투자진흥공사/NNP
##민주/NNG
무난히/MAG
2200/SN
포맷/NNG
##밀/VV
초음파/NNG
도정/NNG
제과점/NNG
sun/SL
자차/NNG
은은/XR
윤여일/NNP
일감/NNG
SCOAP/SL
abc/SL
몸동작/NNG
##Q/SL
완벽히/MAG
콘리/NNP
1592/SN
##大阪/NNG
요시히데/NNP
##유소년/NNG
##타/VV+EC
빚어질/VV+ETM
양수/NNG
##청약/NNG
##쓰레기/NNG
##"(/SY
힘쓸/VV+ETM
##PE/SL
##BG/SL
방산/NNG
모신/NNG
부결/NNG
피어스/NNP
위함/VV+ETN
##社/NNG
들어섰/VV+EP
박찬호/NNP
##ST/SL
허성무/NNP
##양수산/NNP
##브라더스/NNP
##양제/NNG
이상현/NNP
판상/NNG
##광과/NNG
##운지/NNG
피트/NNG
##ZSS/SL
##ZCS/SL
##푸른/VA+ETM
##집계/NNG
##캔/NNG
##앨범/NNG
##권고/NNG
##선강/NNG
반증/NNG
덮어씌우/VV
귀순/NNG
##리라/NNBC
##서원/NNG
4251/SN
249/SN
적절히/MAG
공고/XR
##이상배/NNP
김태환/NNP
김학범/NNP
부의장/NNG
##토요일/NNG
##공기/NNG
옥탑방/NNG
##세에/NNG
##베이비/NNP
민영규/NNP
가라오케/NNG
다녀갔/VV+EP
youngkyu/SL
신림역/NNP
##아마존/NNP
초록/NNG
지역구/NNG
달서구/NNP
이곡/NNG
죽이/VV
머스트/NNG
##따로/MAG
##대호/NNG
##KOEN/SL
##진단/EC+VX+ETM
김사무엘/NNP
액티비티/NNG
임용/NNG
##호/NNP
훔친/VV+ETM
징/NNG
113/SN
공정거래위/NNP
##착한/NNG
지리/NNG
금강/NNP
System/SL
정담회/NNG
##가람/NNG
##LIVE/SL
넓혔/VV+EP
주무/NNG
2270/SN
##담/NNG
다뤘/VV+EP
럭셔리/XR
넨/XPN+JX
##특조/NNG
##신선/NNG
도안/NNG
첨부/NNG
학년/NNG
참맛/NNG
이전인/NNP
웨인라이트/NNP
허드슨/NNP
내려진/VV+EC+VX+ETM
WTA/SL
제천/NNG
KOVO/SL
##SE/SL
천춘/NNG
벌일/VV+ETM
모였/VV+EP
시공미디어/NNP
엘시티/NNG
BNK/SL
진원/NNG
##궁중/NNG
단연/NNG
##국자생/NNG
초연/NNG
개교/NNG
시크릿/NNG
빅토리아/NNP
2350/SN
낭독/NNG
궁/NNG
남녘/NNG
얼룩진/VV+ETM
##우/VCP+EC
##선과/NNG
##하위/NNG
##GMP/SL
핀/NNG
대통령상/NNG
피겨/NNG
##아보/NNG
표창식/NNG
소음/NNG
##의대/NNG
슬롯/NNG
젊은이/NNG
우드워드/NNP
환영사/NNG
어치/NNG
낮춰야/VV+EC
앤트워프/NNP
##화상/NNG
첫선/NNG
##리/NNBC
지켜줄/VV+EC+VX+ETM
##225/SN
징계권/NNG
자존심/NNG
잘츠부르크/NNP
각본/NNG
##아이/IC
##촌/NNG
맥코넬/NNP
##정리/NNG
##실행/NNG
감정평가/NNP
검열/NNG
임영웅/NNP
판매자/NNG
##지문/NNG
##화제/NNG
일본군/NNP
##유식/NNG
강근주/NNP
테라스/NNG
##W/SL
##보전/NNG
엄선/NNG
##랄라/NNP
##바베큐/NNG
조도/NNG
셀렉/NNP
해즈브로/NNP
09/SN
##마을문고/NNG
보배/NNG
##걸/NNB+JKO
이윤정/NNP
레온/NNP
##한전/NNP
가변/NNG
의협/NNG
ITER/SL
##숙씨/NNG
##픽셀/NNG
의견서/NNG
송도/NNP
장발/NNG
##신범철/NNP
##에코/NNP
##출장/NNG
군포시/NNP
염태영/NNP
##리드/NNP
청렴/NNG
콜드/NNG
이승헌/NNP
##원내대표/NNP
장어/NNG
##【/SY
##처방/NNG
박선욱/NNP
조사원/NNG
##행태/NNG
불륜/NNG
##토탈/NNP
꾀할/VV+ETM
##칭하/VV
거래처/NNG
유치/XR
특산품/NNG
원조/NNG
##엽/NNG
활/NNG
과태료/NNG
##중독/NNG
203/SN
콘티넨자/NNP
##가로/NNG
##일까요/VCP+EF
구좌읍/NNP
터져/VV+EC
꺼냈/VV+EP
어긴/VV+ETM
이재우/NNP
남구/NNG
무분별/NNG
##592/SN
1002/SN
마당/NNG
##견/NNG
##변/NNG
전태양/NNP
인터랙티브/NNG
풀뿌리/NNG
##맛/NNG
자명/XR
##전부/MAG
융자/NNG
##페어/NNG
김민지/NNP
재회/NNG
크리스마스/NNP
##평양/NNP
유철종/NNP
의료기/NNG
##겸/NNB
##나마/VX+EC
끔찍/XR
일과/NNG
##봉작/NNG
##Refresh/SL
##구속/NNG
떠난다/VV+EF
절로/NNG
삼가/VV
박일경/NNP
##무좀/NNG
파킨슨병/NNG
##9805/SN
##4501/SN
박성호/NNP
안구/NNG
포문/NNG
막강/NNG
멘토/NNP
인하/VV
인당/NNG
325/SN
##고속/NNG
새로워/VA+EC
김지혜/NNP
항변/NNG
풍자/NNG
희생양/NNG
쎌/VA+ETM
##퓨/NNP
주요/XR
##가드/NNG
##사정/NNG
##은결/NNG
메카/NNP
##교육부/NNG
뒤처지/VV
##주기/NNG
139/SN
##통장/NNG
무주택/NNG
유닛/NNG
##용자/NNG
##감성/NNG
##고려/NNG
##랲/UNKNOWN
이진우/NNP
신정원/NNP
##맘/NNG
##상영/NNG
김광수/NNP
##한금/NNG
별것/NNG
체화/NNG
구인/NNG
##외로움/NNG
##해진다/XSA+EC+VX+EC
##군인/NNG
##시킨다/XSV+EF
##관광협회/NNP
이철우/NNP
영외/NNG
김영만/NNP
소보/NNG
##주근/NNG
##큐/MAG
hoya/SL
끊긴/VV+ETM
관료/NNG
##매니아/NNP
어스/NNG
##트리니/NNP
##잣/NNG
샤이니/NNP
NCT/SL
##코로나/NNG
죄책/NNG
우버/NNP
철수/NNG
사활/NNG
갈림길/NNG
절약/NNG
난무/NNG
교양/NNG
리튬/NNG
##근영/NNG
chogy/SL
학과/NNG
이중고/NNG
처했/VV+EP
가정의/NNG
스케줄/NNG
##국은/NNG
점쳐/VV+EC
박양우/NNP
##위기/VV
빨라졌/VA+EC+VX+EP
##종기/NNG
표기/NNG
우동명/NNP
그제/NNG
홍순상/NNP
명승부/NNG
##형민/NNG
넓힌다는/VV+ETM
##Asset/SL
Backed/SL
유익/XR
자라/VV
부쩍/MAG
퍼뜨리/VV
##烏/NNG
##魯/SH
##齊/NNG
지린/NNP
##福/NNG
섞/VV
취향/NNG
시연/NNG
김현주/NNP
덕양구/NNP
파주/NNG
간곡히/MAG
수순/NNG
진/NNG
##주사/NNG
교란/NNG
##반부/NNG
##6379/SN
##이날/NNG
1190/SN
자연재해/NNG
##증세/NNG
##인력난/NNG
시급/NNG
Rh/SL
비어/NNG
##한다면서/XSV+EC
규탄/NNG
##상인/NNG
##899/SN
##598/SN
##3130/SN
##성서/NNG
관례/NNG
가로막/VV
로즈/NNG
##알림/VV+ETN
##적립/NNG
에인절스/NNP
초구/NNG
넘어갔/VV+EP
플래허티/NNP
제구/NNG
맥스/NNP
스티븐/NNP
##타자/NNG
##350/SN
결장/NNG
데려온/VV+ETM
##라테/NNG
##리/EP
OPS/SL
센/VA+ETM
제패/NNG
장하나/NNP
시비/NNG
##the/SL
##서점/NNG
펜데/NNG
포드/NNP
##강동/MAG
##서대문/NNG
##CBO/SL
##대구경북/NNP
고순/NNP
상수/NNG
##이해/NNG
따라다닌다/VV+EF
##이상의/NNP
인성/NNG
품고/NNG
수그러들/VV
##기조/NNG
이뤄낸/VV+EC+VX+ETM
##수주/NNG
##스톱/NNG
##성공/NNG
알릴/NNG
##자라/VV
명절/NNG
상기/NNG
할까/VV+EF
##다발/NNG
##백스/NNG
##부럽/VA
185/SN
콘솔/NNG
##무단/NNG
##유엔/NNP
##발행/NNG
122/SN
382/SN
##인형극/NNG
철원/NNG
재검토/NNG
##로울/XSA+ETM
확연히/MAG
써니/NNP
##옵티컬/NNP
항/NNP
##셍/NNP
##각국/NNG
높인다/VV+EF
농작물/NNG
스튜디오/NNG
어떨까/VA+EF
##피플/NNP
##툴/NNP
좌충우돌/NNG
난감/XR
공공성/NNG
울산시/NNP
##관찰/NNG
##신장/NNG
##살리/VV
##강릉/NNP
##침수/NNG
주세페/NNP
윤형/NNG
ADT/SL
벤치마킹/NNG
이지은/NNP
민첩/XR
best/SL
##보딩/NNG
처치/NNG
쓰러진/VV+ETM
군대/NNG
자필/NNG
미친다/VV+EF
##지/NNB
허점/NNG
재입국/NNG
##평균치/NNG
벌어질/VV+ETM
가닥/NNG
199/SN
##동반/NNG
혈압/NNG
##응의/NNG
수중/NNG
안전사고/NNG
생중/NNG
김미경/NNP
배울/VV+ETM
개조/NNG
##팔/VV
##라프/NNG
입맞춤/NNG
전한/NNG
##피해자/NNG
##SPA/SL
걸림돌/NNG
##치유/NNG
##증급/NNG
##기상/NNG
약한/VA+ETM
차입금/NNG
인내/NNG
##의결/NNG
휴학/NNG
일대/MM
##그랜드/NNP
앞장서/VV+EC
##축의/NNG
수백/NNG
폐장/NNG
개수/NNG
152/SN
검역관/NNG
저축/NNG
##1900/SN
1640/SN
##매도/NNG
희생자/NNG
##방문자/NNG
##SCMP/SL
홍역/NNG
##명단/NNG
##O/SL
##BARDA/SL
##5500/SN
스테판/NNP
##국민은행/NNP
##테일/NNG
과제물/NNG
##부총장/NNG
고글/NNG
무장/NNG
##이라고/JKQ
순탄/XR
특권/NNG
메인스/NNP
##실러/NNP
케빈/NNP
##배출/NNG
할증료/NNG
Smart/SL
오승록/NNP
노원/NNG
출/VV+ETM
넬리/NNP
성패/NNG
##용/NNG
##키움/VV+ETN
제주특별자치도/NNP
전주/NNG
일곱/NR
형제/NNG
##실내/NNG
요건/NP+JX
찾아보기/NNG
HSBC/SL
##셔/EP+EC
말미/NNG
##스런/XSA+ETM
준다고/VV+EC
재정난/NNG
##스리/NNG
단가/NNG
##아이이/NNG
연달/VV
여수시/NNP
미증/NNG
상단/NNG
이성/NNG
신도림/NNP
등대/NNG
##머리/NNG
찾아갔/VV+EP
##냄/VX+ETN
당내/NNG
withwit/SL
##절/NNG
부속/NNG
##천과/NNG
##대선/NNG
일한/NNG
이재갑/NNP
##9890/SN
##6860/SN
##캐나다/NNP
##자전거/NNG
함양/NNG
분계선/NNG
인출/NNG
전동/NNG
##수소/NNG
윌밍턴/NNP
세월/NNG
동조/NNG
野/NNG
착오/NNG
속수무책/NNG
취득세/NNG
##구미/NNG
##관광지/NNG
부른다/VV+EF
한잔/NNG
열쇠/NNG
##2128/SN
잠/NNG
결별/NNG
쿠티뉴/NNP
단우/NNP
늙/VV
##해/XSA+EF
살폈/VV+EP
주임/NNG
가난/NNG
큐/MAG
##레잇/NNP
챙겼/VV+EP
번호/NNG
항공우주국/NNP
고온/NNG
맥/NNG
자연히/MAG
이미경/NNP
갈취/NNG
웃돌/VV+ETM
멘/NNG
백범/NNP
##김구/NNP
##기념사업/NNG
##본토/NNG
##시킨다는/XSV+ETM
##소셜/NNG
##타/MM
##승연/NNG
변제/NNG
컴포넌트/NNG
꾸/VV
##파키스탄/NNP
영웅/NNG
한진/NNP
##4252/SN
나아지/VV
진압/NNG
부추겼/VV+EP
##Out/SL
##기에/XSA+ETN+JKB
우선주의/NNG
기틀/NNG
김효진/NNP
##빅/NNP
##거래법/NNG
##점시/NNG
브로슈어/NNG
경희대/NNP
좁히/VV
##뉴노/NNP
트럭/NNG
##원자재/NNG
업력/NNG
스위트/NNG
켜/VV
취/NNG
##journalist/SL
##장에/NNG
탄소/NNG
탈/NNG
틔워/VV+EC
무너졌/VV+EP
##츄/NNP
서대석/NNP
##943/SN
##피싱/NNP
ATM/SL
기술보증기금/NNP
##탕/NNBC
누렸/VV+EP
광명시/NNP
##아칸소/NNP
##오리건/NNP
##몬태나주/NNP
펜실베이니아주/NNP
##749/SN
전공의/NNG
로드/NNG
그리/VV
김태현/NNP
진행형/NNG
어려워진다/VA+EC+VX+EF
작/NNG
##유사/NNG
##138/SN
##샌프란시스코/NNP
##여파/NNG
장세/NNG
##요/EF
공정성/NNG
지면/NNG
요식업/NNG
풀렸/VV+EP
##제자/NNG
##HDC/SL
##시킴/XSV+ETN
##난/VV+ETM
##슬/NNG
보임/NNG
화성시/NNP
고성군/NNG
##대폭/NNG
##주류/NNG
##렌터카/NNG
##결혼/NNG
법조/NNG
이루어진/VV+ETM
데/VV
특단/NNG
소금/NNG
낡/VA
깨지/VV
비달/NNP
뗐/VV+EP
##적정/NNG
##위축/NNG
지하상가/NNG
놀랍/VA
자평/NNG
##구르/NNG
마라톤/NNG
조희연/NNP
이석문/NNP
##부턴/JX+JX
355/SN
##컬러/NNG
최정우/NNP
후인/NNG
유진/NNG
##마이크/NNG
가리키/VV
올라와/VV+EC
로페즈/NNP
매직/NNG
윤화섭/NNP
명심/NNG
2900/SN
##文/NNG
공제조합/NNP
물러났/VV+EP
내민/VV+ETM
##뷰/NNP
척추/NNG
##원료비/NNG
##청취/NNG
##1442/SN
##0623/SN
안상현/NNP
접견/NNG
심리학/NNG
거나/NNP
##CJ/SL
1969/SN
비협조/NNG
맞췄/VV+EP
핵무기/NNG
남수/NNG
내각/NNG
##미일/NNG
##모인/NNG
외의/NNG
신흥/NNG
개국/NNG
명맥/NNG
조건부/NNG
강타/NNG
##174/SN
##주거비/NNG
내려앉/VV
소회/NNG
##수실/NNG
알림/VV+ETN
코리/NNP
Stable/SL
##서식/NNG
##검/VA
육상/NNG
번진/NNG
##2025/SN
김기덕/NNP
##박정희/NNP
대응력/NNG
##해지지/XSA+EC
브리티시/NNG
협력체/NNG
##곳/NNB
전문지/NNG
##동아리/NNG
혁/NNG
##sisajournal/SL
인위/NNG
##Go/SL
제각각/NNG
##東/NNG
##도널드/NNP
지르/VV
알라바/NNP
매장이/NNG
김승룡/NNP
srkim/SL
##먼저/MAG
##중개사/NNG
편향/NNG
##답변/NNG
구별/NNG
##여름철/NNG
##고급/NNG
##더블/NNG
권위주의/NNG
##GSMA/SL
##출자/NNG
##악기/NNG
관람석/NNG
돌려받/VV
The/SL
공산당/NNG
ZTE/SL
##코프/NNP
##고문/NNG
##형식/NNG
##매입/NNG
다녀와야/VV+EC
##계곡/NNG
불시/NNG
##예산안/NNG
미복/NNG
##체전/NNG
스트라이크/NNG
##도박/NNG
빙상/NNG
오르내리/VV
##탈취/NNG
##전선/NNG
다운/NNG
##때문/NNB
하순/NNG
어필/NNG
##로스/NNP
초읽기/NNG
본머스/NNP
##에이/NNG
윤봉우/NNP
이세원/NNP
접대/NNG
김위수/NNP
집사/NNG
설아/NNP
애묘/NNG
영업기/NNG
##쉬/VV
##승부/NNG
##섭/NNG
박상진/NNP
우승컵/NNG
가린다/VV+EF
신/NNP
테/NNG
모회사/NNG
##장사/NNG
로프/NNG
등반/NNG
##라라/NNG
몰/NNG
두꺼운/VA+ETM
##역할/NNG
버팀목/NNG
한국일보/NNP
위헌/NNG
##무형문화재/NNP
전승/NNG
켜졌/VV+EP
고질/NNG
드러나/VV+EC
챙겨/VV+EC
##링크/NNG
##096770/SN
창문/NNG
전통문화/NNG
##학교의/NNG
몰려들/VV
산지/NNG
standard/SL
고난/NNG
동해/VV+EC
must/SL
go/SL
윤홍선/NNP
前/NNG
웨/NNG
슬로건/NNG
제한/VV+ETM
##시드/NNG
롭/NNP
##넷플릭스/NNP
##인데도/VCP+EC
##점인/NNG
욕설/NNG
앞날/NNG
맹비난/NNG
협박/NNG
##별도/NNG
입체/NNG
정수/NNG
헤드셋/NNP
관세/NNG
##홀로/MAG
손상/NNG
돈의/NNP
비준/NNG
클리닉/NNG
풍산/NNG
1050/SN
욘/NNP
요동치/VV
집행부/NNG
8929/SN
##124/SN
##수확/NNG
seo/SL
국보/NNG
천연/NNG
부드러운/VA+ETM
##이렇/VA
경증/NNG
트레/NNP
고흥군/NNG
농업용수/NNG
웨스트브룩/NNP
야투/NNG
국정원/NNG
급상승/NNG
##늘/MAG
KIC/SL
굵직/XR
타진/NNG
##쿠팡/NNP
MIT/SL
정황/NNG
##보완/NNG
고지서/NNG
하종민/NNP
광진/NNP
넓힐/VV+ETM
##성추행/NNG
진술서/NNG
루소/NNP
##여척/NNG
smj/SL
레이디스/NNP
패드/NNG
##수자원/NNG
##매출액/NNG
훔쳤/VV+EP
##플라이/NNP
모건/NNG
##입찰/NNG
PE/SL
##압도/NNG
##합성/NNG
갱/NNG
NIH/SL
BNT/SL
##테네시/NNP
충주/NNP
이뤄지도록/VV+EC
분/NNP
가려/VV+EC
##지청/NNG
OSP/SL
##깅효과로/UNKNOWN
목표물/NNG
##동월/NNG
스카이라/NNP
##준다는/VX+ETM
##단체상/NNG
##마사지/NNP
다로/NNG
CVC/SL
복안/NNG
##국유/NNG
김형민/NNP
단/NNG
##벨/NNP
루트/NNG
문명/NNG
퇴보/NNG
인제군/NNG
##당사/NNG
##관서/NNG
유현/NNG
##면장/NNG
##분쟁/NNG
##으니까요/EF
192/SN
마라/NNG
##8100/SN
##5360/SN
##3045/SN
가까웠/VA+EP
응원가/NNG
항셍지수/NNP
이온/NNG
##콩대/NNG
선관위/NNG
정쟁/NNG
##군산/NNG
##석표/NNG
##보환/NNG
##누리/VV
다방면/NNG
##218/SN
법의/NNG
호우/NNG
##귀국/NNG
처장/NNG
##추/VV
##주관/NNG
단언/NNG
##성금/NNG
##군사/NNG
##보유량/NNG
남동/NNG
파주시/NNP
미/NNP
##톡스/NNP
수다/NNG
사행/NNG
경마장/NNG
응용/NNG
선택지/NNG
들어선다/VV+EF
##인터내셔널/NNG
박지훈/NNP
손봉석/NNP
paulsohn/SL
##성능/NNG
±/SY
##양재/NNP
반독점/NNG
##교과/NNG
handbrother/SL
##애인/NNG
줘야/VV+EC
항해/NNG
기름/NNG
빛냈/VV+EP
내걸렸/VV+EP
스탠/NNP
쏘/NNP
고소/XR
닭고기/NNG
펀딩/NNP
김창룡/NNP
수평/NNG
보유량/NNG
순항/NNG
##늙/VV
전망대/NNG
서식/NNG
주소지/NNG
더군다나/MAJ
##WTO/SL
온기/NNG
##자나/NNG
회장단/NNG
##열도/NNG
##활동가/NNG
##145/SN
수십만/NR
##토스/NNG
교습소/NNG
한대희/NNP
Data/SL
아쿠아리움/NNP
##재/VV+EC
##신대/NNG
나아질/VV+ETM
유신/NNG
시노/NNG
225/SN
비보/NNG
##궁/NNG
##능/NNG
##업인/NNG
교통량/NNG
실직자/NNG
외모/NNG
##+’/SY
리도/NNP
돋보인/VV+ETM
감병/NNG
##진실/NNG
그거/NP
##평론가/NNG
##화장품/NNG
##세정제/NNG
##정선/NNP
##1506/SN
##특수/NNG
좌담회/NNG
##약속/NNG
성모상/NNG
판촉/NNG
문항/NNG
NES/SL
공주/NNG
종신/NNG
지휘자/NNG
페트렌코/NNP
##의제/NNG
놓/NNG
대책위/NNP
탐조/NNG
노래극/NNG
추모/NNG
개발자/NNG
##해상/NNG
##담당관/NNG
호박/NNG
##당은/NNP+JX
로하스/NNP
개연/NNG
태미/NNP
##우드/NNG
JB/SL
##노병/NNG
탐사선/NNG
내딛/VV
담임/NNG
조계종/NNG
##사업장/NNG
##최소/NNG
##우려/NNG
들으며/VV+EC
##밀/NNBC
밀폐/NNG+JX
박민/NNG
Star/SL
##이달/NNG
체벌/NNG
나들이/NNG
사고나/NNP
춘천시/NNP
##기설/NNG
출구/NNG
가오/NNP
슬랙스/NNG
쪽/MAG
탈바꿈/NNG
##원료/NNG
어제/MAG
크라운/NNG
Act/SL
해안/NNG
육수/NNG
'#/SY
##문화제/NNP
##매장/NNG
##접촉자/NNG
##동장/NNG
##보양/NNG
##든/JX
귀여운/VA+ETM
구경/NNG
강릉시/NNP
HP/SL
해이/NNP
오프라/NNP
Future/SL
트래버스/NNG
학습지/NNG
한울/NNP
빨간색/NNG
##쏠/NNG
##유적지/NNG
입담/NNG
##설사/MAG
##엔딩/NNG
##차관/NNG
##젤리/NNG
전인지/NNP
○/SY
pompom/SL
정명진/NNP
전기레인지/NNP
강경/XR
프로세스/NNG
탄도/NNG
벗어날/VV+ETM
봉오동/NNP
##스쿨링/NNG
이격/NNG
##탠/NNP
##다드/NNP
##재조합/NNG
##마루/NNG
센토사섬/NNP
팬덤/NNP
페리시치/NNP
##타입/NNG
##배민/NNG
탄자니아/NNP
하비/NNG
이광연/NNP
##러버/NNG
아이언/NNG
김성환/NNP
##소가/NNG
다니엘레/NNP
루케/NNP
##편식/NNG
월등히/MAG
##구이/NNG
수족관/NNG
박혜연/NNP
##API/SL
헤어졌/VV+EP
##현안/NNG
감찰/NNG
유충/NNG
대의/NNG
7733/SN
##이스트/NNP
255/SN
무관용/NNP
##230/SN
##%↓/SY
##곡선/NNG
황성원/NNP
광복/NNG
신혼집/NNG
마쳤으며/VV+EP+EC
##동상이몽/NNG
148/SN
##│/SY
##성향/NNG
##선승/NNG
엘리미/NNP
콜로세움/NNG
채정원/NNP
고기/NNG
아시안/NNG
슈퍼마켓/NNG
##학급/NNG
조태용/NNP
특/UNKNOWN
##용작/NNG
맡/NNG
활로/NNG
페어/NNG
##네바/NNP
이랜드/NNP
##농장/NNG
##폭탄/NNG
미워했/VA+EC+VX+EP
증평/NNP
##주재/NNG
만경대/NNP
##다면서/EF
1356/SN
##지와/NNG
감행/NNG
박성환/NNP
생산자/NNG
로스터/NNG
##조절/NNG
후지필름/NNP
향토/NNG
Y/SL
골머리/NNG
곤두세우/VV
스타디움/NNG
포르투갈/NNP
##구립/NNG
보이지/NNP
인멸/NNG
김경민/NNP
##네/MM
손발톱/NNG
##블/VV
스티렌/NNG
##1241/SN
채워진다/VV+EC+VX+EF
##찾/VV
견주/VV
드립/NNG
향연/NNP
스탠드업/NNP
##회당/NNG
##유감/NNG
##친/NNG
기념행사/NNG
##급변/NNG
브라질리아/NNP
##4649/SN
권위자/NNG
혹평/NNG
나노/NNG
이재승/NNP
꾸릴/VV+ETM
쉐/NNG
193/SN
올랜/NNP
결국/MAG
인파/NNG
내몬/VV+ETM
페이퍼/NNP
아이콘/NNG
하다/NNG
##이상규/NNP
boyondal/SL
##DFC/SL
의거/NNG
##의약/NNG
디지털카메라/NNG
지원사/NNG
양성광/NNP
지웠/VV+EP
김수정/NNP
##블록/NNG
마감재/NNG
목동야구장/NNP
탁구장/NNG
658/SN
##랲의/UNKNOWN
##승의/NNG
박준배/NNP
nofatejb/SL
##농업기술센터/NNP
토토/NNP
뉴델리/NNP
김인경/NNP
닷/NR
##새간/NNG
김정태/NNP
석학/NNG
드리웠/VV+EP
이재윤/NNP
##연락/NNG
외로움/NNG
붉/VA
난민/NNG
착석/NNG
열망/NNG
관통/NNG
##아/VV
##880/SN
##비어/NNG
큽니다/VA+EF
##대구시/NNP
원점/NNG
##중재/NNG
##진짜/NNG
609/SN
서적/NNG
MZMC/SL
합해/VV+EC
##먼저/NNG
사기죄/NNG
##히트/NNG
##게임즈/NNP
##서울대/NNP
펠리/NNP
##컨스/NNP
##선생/NNG
전이/NNG
석사/NNG
##총국/NNG
유례/NNG
##해졌/XSV+EC+VX+EP
##F/SL
따를/VV+ETM
바꿔야/VV+EC
##弗/SH
##974/SN
##플레이스/NNP
금의/NNG
##경력자/NNG
##최다/NNG
운전자/NNG
아이오/NNG
##2004/SN
##핀셋/NNG
최첨단/NNG
봉착/NNG
계약서/NNG
##무관용/NNP
컨트리클럽/NNG
연을/NNG
대표인/NNG
##정읍/NNG
원주민/NNG
지붕/NNG
달째/NNG
태우/VV
좌파/NNG
박상/NNG
##슈/NNP
##칩/NNG
에어/NNP
윤병인/NNP
##될/VV+ETM
냉철/XR
jsh/SL
129/SN
외관/NNG
##소수/NNG
나타낼/VV+ETM
정말로/MAG
김철현/NNP
소아암/NNG
##슬기/NNG
문경/NNG
##필터/NNG
환한/VA+ETM
폴라리스/NNG
경영자/NNG
제조업체인/NNG+VCP+ETM
##전적/NNG
쳐/VV+EC
하와이/NNP
태평양/NNP
1988/SN
##패닉/NNG
##1800/SN
##1153/SN
일용직/NNG
문창석/NNP
dympna/SL
송경재/NNP
##파리바/NNP
##스러웠/XSA+EP
힘겹/VA
광고비/NNG
커/NNP
돌아간다/VV+EF
피칭/NNG
##133/SN
##할/NNBC
이닝/NNG
드래프트/NNG
##+)/SY
쳤/VV+EP
불렸/VV+EP
벨/NNG
데릭/NNG
넥센/NNP
##리온/NNP
지켜볼/VV+ETM
##353/SN
알렉산더/NNP
뒤집/VV
##건/VCP+EC
시즈/NNP
##놀/VV
울/VV
합창/NNG
##휴스턴/NNP
신경전/NNG
혀/NNG
쏟아져/VV+EC
##배치/NNG
##디자이너/NNG
꼼꼼히/MAG
##독감/NNG
급하/VA
수백/NR
##랑/JC
##강서/NNG
##은평/NNP
신반포/NNP
새달/NNG
난이도/NNG
##영동/NNG
폐암/NNG
##미동/NNG
영덕/NNP
울진/NNP
통감/NNG
##와도/VV+EC
쏠려/VV+EC
##각종/NNG
적기/NNP
실상/NNG
##up/SL
##합니다/VX+EF
##미터/NNG
명대/NNP
엽/NNG
##소/EC
버텨/VV+EC
해변/NNG
귀엽/VA
권고사직/NNG
안내서/NNG
##음악제/NNG
원전/NNG
불행/NNG
##까/VCP+EC
테이크아웃/NNP
비결/NNG
##7200/SN
영위/NNG
황시영/NNP
제때/NNG
제너럴/NNG
경제부/NNP
남중/NNG
##국해/NNG
내세웠/VV+EP
yes/SL
pcs/SL
교통안전/NNG
김홍기/NNP
부끄러운/VA+ETM
피리/NNG
우천/NNG
##박수/NNG
흥겨운/VA+ETM
##어촌/NNP
F/SL
##평/NNG
커진다/VA+EC+VX+EC
나왔으며/VV+EP+EC
김한근/NNP
루/NNG
##로마/NNP
EPA/SL
내주/NNG
##교체/NNG
라틴/NNP
##슬라이딩/NNG
number/SL
이승현/NNP
World/SL
##Korean/SL
flight/SL
##Back/SL
##Zone/SL
Boarding/SL
573/SN
장담/NNG
서기/NNG
자취/NNG
기동/NNG
청주시/NNP
##증평/NNP
종일/NNG
##게이츠재단/NNP
아틀레/NNP
##티코/NNP
##엥/IC
황혜진/NNP
제어/NNG
김현철/NNP
honestly/SL
##마지막/NNG
##역원/NNG
퍼졌/VV+EP
실렸/VV+EP
대형주/NNG
지나친/VA+ETM
PER/SL
##빛/NNG
##로터/NNG
##치진/NNG
금호/NNP
사라질/VV+ETM
##밀양/NNP
둘러볼/VV+ETM
설렘/VV+ETN
##뱅킹/NNG
##mint/SL
숙수/NNG
신세/NNG
셧다운/NNP
템플스테이/NNP
##평창/NNP
해남/NNP
둬/VV+EC
학우/NNG
답례품/NNG
##정권/NNG
죄송/XR
치밀/XR
과밀화/NNG
생리/NNG
왕실/NNG
살라미나/NNP
##스호/NNP
마쳐/VV+EC
무제한/NNG
탐구/NNG
사회부/NNG
위계/NNG
김서연/NNP
고베/NNP
##soccerbest/SL
##besteleven/SL
베스트/NNP
##일레븐/NNP
##마이닝/NNP
상장지수/NNP
##입시/NNG
371/SN
##탈의/NNG
대회장/NNG
굴종/NNG
570/SN
피해야/VV+EC
##7366/SN
하소연/NNG
필자/NNG
##왔/VV+EP
dpa/SL
리처드/NNP
##팔/NNG
##뒤/NNG
3400/SN
##고등학생/NNG
##송파구/NNP
##지향/NNG
떨어진다/VV+EF
편취/NNG
틈타/VV+EC
잠깐/MAG
##했으니/XSV+EP+EC
##쾌감/NNG
##세이프/NNP
포커스/NNG
전편/NNG
곱/NNG
퀄리티/NNP
344/SN
썬/VV+ETM
##차일/NNG
노린/NNP
##사이버/NNG
Normal/SL
밀려났/VV+EP
메모리얼/NNP
TPC/SL
WGC/SL
133/SN
##액도/NNG
단결/NNG
실어/NNG
교역/NNG
##선언/NNG
휴교/NNG
국공립/NNG
집세/NNG
달아난/VV+ETM
권오봉/NNP
##진다/XSV+EF
ʹ/SY
##ʹ/SY
구운/VV+ETM
임유정/NNP
##irene/SL
출입구/NNG
##의류/NNG
실용/NNG
안타까운/VA+ETM
##'"/SY
휴게/NNG
##으리라는/ETM
대리점/NNG
겹친/VV+ETM
누군가의/NP+JKS+EC+JKG
기념품/NNG
##순회/NNG
균등/NNG
유세/NNG
##경담/NNG
##5470/SN
1650/SN
##4170/SN
미시간주/NNP
##힐스/NNP
앞지르/VV
##연기/NNG
째/VV+EC
각인/NNG
후회/NNG
지난번/NNG
##다는데/EC
##벨/NNG
열매/NNG
디럭스/NNP
##증대/NNG
##한지숙/NNP
미착용/NNG
jshan/SL
입장료/NNG
커서/VV+EC
##조제/NNG
비접/NNG
##놨다/VX+EP+EF
뮌헨/NNP
간판/NNG
##서부동/NNP
두세/NNP
시계/NNG
걸어가/VV
##정기/NNG
해내/VV
##게끔/EC
##레이터/NNP
##직감/NNG
다날/NNP
##이브/NNG
숙달/NNP
##집교/NNG
##NASA/SL
산업체/NNG
##권한쟁의심판/NNP
일탈/NNG
권지예/NNP
##뒀/VX+EP
금융채/NNG
##거리/XSV
##크리에이터/NNP
멘/VV+ETM
김호연/NNP
저장고/NNG
##승장/NNG
시동/NNG
에스원/NNP
놔두/VV
##의존도/NNG
숨통/NNG
펼쳐왔/VV+EC+VX+EP
바빠서/VA+EC
##야말로/JX
##창고/NNG
##콜카타/NNP
서벵골주/NNP
콜카타/NNP
##5335/SN
citizenk/SL
##구형/NNG
##장려상/NNG
감싸/VV
외국어/NNG
발기부전/NNP
##식도염/NNG
##에소/NNP
조약/NNG
지지부진/NNG
정신병/NNG
알렉산드르/NNG
동유럽/NNP
게을리/MAG
##왔으나/VX+EP+EC
청취자/NNG
보드/NNP
포레스트/NNP
떠/VV+EC
##위탁/NNG
##봤/VV+EP
##할지/VX+EC
니켈/NNG
##자세/XR
##컴퓨터/NNG
##아영/NNG
찍/NNG
발제/NNG
목표치/NNG
hong/SL
변비약/NNG
##똥/NNG
정장제/NNG
정현진/NNP
꺼내/VV
##213/SN
##203/SN
245/SN
합산/NNG
##로우/NNP
치안/NNG
##의료비/NNG
환급/NNG
점원/NNG
919/SN
##밀의/NNG
껑충/MAG
오리지널/NNG
하안동/NNP
##에/IC
잡/XPN
석권/NNG
##NEW/SL
누그러진/VV+ETM
호응도/NNG
##LABCCIN/SL
##원식/NNG
##빌딩/NNG
납득/NNG
퍼시픽/NNG
견줘/VV+EC
##가지/VX
##판의/NNP
kimpro/SL
##7777/SN
##329/SN
##깅/UNKNOWN
천정부지/NNG
실리콘밸리/NNP
써도/VV+EC
살필/VV+ETM
##160/SN
뒷/MM
cho/SL
LINC/SL
##발매/NNG
정의선/NNP
##휘/NNG
광기/NNG
입안자/NNG
##였으며/VCP+EP+EC
찾아올/VV+ETM
원단/NNG
건도/NNG
서쪽/NNG
일절/NNG
##6600/SN
##렉스/NNP
거치/NNG
한림/NNG
##렬/UNKNOWN
내자/NNP
국도/NNG
김종인/NNP
##위한/VV+ETM
##공과/NNG
##본드/NNG
부평역/NNP
유물/NNG
반도/NNG
한솔/NNP
지린성/NNP
##4060/SN
2884/SN
##결/NNG
제막식/NNG
나온다/VV+EC
##등교/NNG
부설/NNG
##리어드/NNP
동부/NNP
앞섰/VV+EP
##자동/NNG
##Seoul/SL
탱고/NNG
나눠서/VV+EC
찬사/NNG
##가가/NNG
박희재/NNP
이뤄지기/VV+ETN
지주회사/NNP
소매업/NNG
속마음/NNG
##녹/NNG
##소생/NNG
교보문고/NNP
##당한/XSV+ETM
##암살자/NNG
거슬러/VV+EC
##정장/NNG
고품질/NNG
드립니다/VV+EF
##중헌/VA+ETM
##오렌지/NNG
퍼뜨린/VV+ETM
탐/NNG
소관/NNG
박진/NNG
납/NNG
두드러지/VA
망/NNG
바뀐다/VV+EF
##프리랜서/NNG
##영농/NNG
강당/NNG
농작업/NNG
##안심/NNG
##은지/EC
##포용/NNG
##현재/MAG
##135/SN
김덕준/NNP
casiopea/SL
##solid/SL
structure/SL
financial/SL
flexibility/SL
##미탈/NNP
벼랑/NNG
합숙/NNG
##IDT/SL
##협동조합/NNG
바리스타/NNP
##집값/NNG
동양/NNG
김흥순/NNP
##・/SL
단단/XR
해운업/NNG
##죽/VV
생태학/NNG
양평군/NNG
팔린/VV+ETM
고속/NNG
겸임/NNG
정할/NNG
김은비/NNP
차이점/NNG
##京都/NNG
조각/NNG
회부/NNG
사직야구장/NNP
@/SY
옳/VA
##소방청/NNP
고액/NNG
모일/NNG
##숫자/NNG
스타벅/NNP
지중해/NNP
리비아/NNP
1352/SN
2029/SN
##활력/NNG
비비/MAG
##비비/MAG
##키친/NNP
##점포/NNG
마포구/NNP
한스/NNP
##페이먼/NNP
##복판/NNG
오찬/NNG
다뤄졌/VV+EC+VX+EP
해로운/VA+ETM
##틀/NNG
일깨웠/VV+EP
##합/NNG
김은별/NNP
평창동/NNP
##그라피/NNG
대우/NNP
일거리/NNG
요새/NNG
이정란/NNP
##고등/NNG
잃어버린/VV+ETM
용인/NNG
##머스켓/NNP
##함평군/NNG
##4883/SN
##경계/NNG
##빚/NNG
##U/SL
출장비/NNG
직고/NNG
박영선/NNP
탄핵/NNG
어둡/VA
##출판사/NNG
대행사/NNP
황금/NNG
sky/SL
포지셔닝/NNG
끝냈/VV+EP
배구/NNG
환산/NNG
헛스윙/NNG
듭니다/UNKNOWN
조금/MAG
##현수/NNG
배의/NNG
##유업/NNG
잠적/NNG
송치/NNG
##안무/NNP
극히/MAG
tsl/SL
##남수/NNG
##줄기/NNG
아바타/NNP
맞출/VV+ETM
##One/SL
##thec/SL
##루스/NNP
7500/SN
##백서/NNG
##KF/SL
##노동조합원/NNG
보건의료노조/NNP
##체불/NNG
superdoo/SL
척/NNG
소리쳤/VV+EP
파이터/NNP
##걸작/NNG
##떡볶이/NNG
멀미/NNG
미용실/NNG
냉정/NNG
단지로/NNP
피엠/NNG
송승환/NNP
신시/NNP
박명성/NNP
설도/NNG
오디/NNG
신춘수/NNP
장우재/NNP
##홍현/NNP
##주열/NNG
##비크/NNP
열람/NNG
##사당/NNG
후의/NNG
##토요/NNG
감천/NNP
##한류/NNG
191/SN
강등/NNG
동급/NNG
피치/VV+EC
##재조사/NNG
수직/NNG
왜곡/NNG
을/JKO
교인/NNG
##잖아요/EF
봐요/VV+EF
넘겨졌/VV+EC+VX+EP
라브/NNP
수시/NNG
##컴/NNP
##제/MM
5060/SN
종영/NNG
속죄/NNG
오감/NNG
거래소/NNG
News/SL
강민수/NNP
챙길/VV+ETM
##무기/NNG
##National/SL
Institute/SL
##너/VV
해답/NNG
스코틀랜드/NNP
헤드/NNG
##할까/XSV+EC
##김훈남/NNP
조사망/NNG
축산물/NNG
대권/NNG
##버린/VX+ETM
##믿/VV
건넸/VV+EP
대천/NNG
피켓/NNG
이동훈/NNP
도배/NNG
녹/NNG
##빠/NNP
##백자/NNG
허지웅/NNP
##초기/NNG
외양/NNG
늦출/VV+ETM
이와테현/NNP
##知/NNG
CIC/SL
이희영/NNP
307/SN
##대법원/NNG
쓰러지/VV
244/SN
문인/NNG
##화성/NNG
##렘/NNP
보류/NNG
반나절/NNG
넘쳐/VV+EC
Use/SL
##미라클/NNP
##날씨/NNG
##영과/NNG
##국시/NNG
탈취/NNG
차분/XR
송하진/NNP
델타/NNG
명명/NNG
군필/NNG
##인벤/NNP
백로/NNG
브라이언/NNP
##뿌리/NNG
가축/NNG
예찰/NNG
군데/NNG+VCP+EC
콩쿠르/NNG
수형자/NNG
피험자/NNG
##대조/NNG
단회/NNG
우루/NNG
정성호/NNP
##동남/NNG
입행/NNG
##오로/NNG
##펭/NNG
강국/NNG
##딥/NNG
##농수산/NNG
##작물/NNG
##박정민/NNP
태어나/VV
##율/NNG
소홀/NNG
상품성/NNG
##넝쿨/NNG
테이핑/NNG
##그래서/MAJ
경영계/NNG
##진지/NNG
##COP/SL
##하구/JC
▼/SY
##헤엄/NNG
맵/NNG
세균/NNG
##이음/NNG
안테나/NNG
##관리비/NNG
##원자/NNG
강인/NNG
##호조/NNG
##금속/NNG
##지방행정/NNP
정촌/NNP
탑승자/NNG
olive/SL
카본/NNG
▽/SY
부딪히/VV
##일제/NNG
온정/NNG
부국/NNG
##4750/SN
##보단/JKB+JX
미취학/NNG
메가폰/NNG
http/SL
룩셈부르크/NNP
올라간/VV+ETM
높여야/VV+EC
##베리/VV
국군/NNG
##정유진/NNP
동화/NNG
부평/NNG
월요/NNG
여비/NNG
##고도/VCP+EC
SSG/SL
아름답/VA
AS/SL
윤리/NNG
부흥/NNG
##하루/NNG
팩/NNG
앞장섰/VV+EP
썸머/NNP
출연자/NNP
172/SN
스티브/NNP
세무/NNG
필기/NNG
##여론/NNG
##일지/VCP+EC
##원회/NNG
##그때/NNG
월명/NNG
##주거지/NNG
코스트코/NNP
흩어져/VV+EC
AOK/SL
비타/NNP
블루투스/NNP
지영호/NNP
##접종/NNG
라/NNG
##내국인/NNG
변이형/NNG
##오히려/MAJ
크리스토퍼/NNP
놀런/NNP
대표작/NNG
초고/NNG
비철/NNG
정우/NNG
느티나무/NNG
##면접/NNG
손형주/NNP
비장/NNG
차출/NNG
##LNG/SL
필요시/NNG
견디/VV
잔류/NNG
로또/NNP
앞서/MAG
##사지/NNG
---/SY
돋보였/VV+EP
##제일제당/NNP
##식량/NNG
머니/NNP
##자민/NNG
##나간다는/VX+ETM
jcpark/SL
##우편/NNG
임하/VV
입건/NNG
##알리/NNG
##싹/NNG
반쪽/NNG
##공단역/NNP
박기호/NNP
##옵티머스/NNP
goodday/SL
교계/NNG
김효/NNP
##AUSMIN/SL
##일과/NNG
##부산항/NNP
고란/NNG
태권도/NNG
허석/NNP
비디오/NNG
##ON/SL
미용/NNG
기아/NNP
세계무역기구/NNP
다자/NNG
사용법/NNG
딜레마/NNG
전직/NNG
십/NR
##한경/NNG
##쯔양/NNP
하방/NNG
피지컬/NNP
스타일링/NNG
##가공업/NNG
##GOOD/SL
참조/NNG
##태양/NNG
737/SN
346/SN
지구인/NNP
얼라이언스/NNP
DDR/SL
##박인비/NNP
어른/NNG
ITCC/SL
괴산/NNG
유족/NNG
해건/NNP
케인/NNP
##병과/NNG
안쪽/NNG
##유적/NNG
##이직/NNG
병해충/NNG
농경지/NNG
##☎/SY
다코타/NNG
##레이크/NNP
어찌/MAG
구/VA
##필/NNBC
조동찬/NNP
범죄자/NNG
##학부모/NNG
방성훈/NNP
##보/NNP
##9174/SN
초량/NNG
촛불/NNG
전임/NNG
단양/NNG
식구/NNG
스타터/NNG
원작/NNG
클리어/NNP
##캐릭터/NNG
어빙/NNP
##단원/NNG
깔린/VV+ETM
##연봉/NNG
대화방/NNG
말라/NNP
##레이트/NNG
##공동대책위/NNP
##응체/NNG
백종원/NNP
두터운/VA+ETM
294/SN
탐지견/NNG
진경/NNG
히트/NNG
차트/NNG
느리/VA
##폐기물/NNG
받아들인/VV+ETM
##호에/NNG
바르/VA
여론전/NNG
버킷/NNG
##갈취/NNG
약점/NNG
IOTG/SL
툴킷/NNP
##공갈/NNG
##부담금/NNG
danieloh/SL
##화베이/NNP
쥐/VV
간직/NNG
##전날/NNG
##㎜/SY
##독점/NNG
충격파/NNG
패/NNP
정육/NNG
##민감/NNG
##재탁/NNG
수천억/NR
기자단/NNG
1987/SN
##칼로리/NNG
리쿠/NNP
최소치/NNG
송철호/NNP
ℓ/SY
승마/NNG
##체/IC
자본주의/NNG
인수자/NNG
yulnetphoto/SL
##브러더스/NNP
논산/NNP
친권/NNG
##찬의/NNG
노멀/NNG
강지은/NNP
##김현/NNP
구해/VV+EC
##그냥/MAG
최정/NNP
귀추/NNG
##니버/NNP
1932/SN
알려질/VV+EC+VX+ETM
어딘가/NP+VCP+EC
##교육법/NNG
전문점/NNG
##요청/NNG
야권/NNG
될까요/VV+EF
##단가/NNG+VCP+EC
엘리베이터/NNG
##침해/NNG
##소닉/NNG
파시즘/NNG
진료비/NNG
아닙니까/VCN+EF
노원구/NNP
상벌/NNG
의해서/VV+EC
##국채/NNG
##공산/NNG
침대/NNG
##FBI/SL
의심증/NNG
연제/NNG
##숯불/NNG
근육통/NNG
브루어스/NNP
##시마/NNG
##위즈/NNP
습관/NNG
묶인/VV+ETM
##편한/VA+ETM
솔/NNG
##상습/NNG
덧붙이/NNG
포스터/NNG
훌/NNP
##버세/NNG
지주/NNG
연주회/NNG
지연주/NNP
이종섭/NNP
읍내/NNG
행장/NNG
파란색/NNG
파이/NNG
어가/NNG
##갤럭시/NNP
##심도/NNG
##브라이트/NNP
조/NNP
되살리/VV
인덕션/NNP
##〉,/SY
##똘똘한/VA+ETM
에이블/NNP
##셀렉/NNP
##성남시/NNP
특사/NNG
독립군/NNG
저작물/NNG
NPL/SL
##365/SN
##139/SN
2885/SN
아찔/XR
##롤러코스터/NNG
폭소탄/NNG
##거용/NNG
##치매/NNG
바지/NNG
냉감/NNG
난방/NNG
##보복/NNG
##평가서/NNG
울트라/NNG
골키퍼/NNG
놀/VV+ETM
선선/NNG
탐라/NNP
##청송/NNG
백일홍/NNG
##펀딩/NNP
자이언/NNP
SKE/SL
고창/NNG
##류재/NNG
##제서/NNG
##연령층/NNG
##TS/SL
##후레쉬/NNP
황사/NNG
##통통/MAG
##cool/SL
교동/NNG
감일/NNP
보철/NNG
##참가율/NNG
회화/NNG
무사증/NNG
막대풍선/NNG
##플라스틱/NNG
##바운드/NNG
##사이다/NNG
신림동/NNP
진동/NNG
##네/EC
유상대/NNP
아티/NNP
##토사/NNG
모노레일/NNG
PCS/SL
##리호/NNG
잔지바르/NNP
앤써니/NNP
뱀/NNG
##필/VV+ETM
김양수/NNP
##복주산/NNP
##통고산/NNP
##운문산/NNP
##운장산/NNP
##고운/VA+ETM
금천/NNG
척도/NNG
hgo/SL
참관/NNG
##리식/NNG
불렀/VV+EP
가까스로/MAG
근/NP+JX
불법체류/NNP
##문정/NNG
##FA/SL
사령탑/NNG
##161/SN
##선도/NNG
1092/SN
상습/NNG
자진/NNG
##불법/NNG
도내/NNG
##학위/NNG
이인철/NNP
BSL/SL
와도/VV+EC
##전원/NNG
##업장/NNG
일평균/NNG
넘길/VV+ETM
##TY/SL
##핫식스/NNP
##해비타트/NNP
해비타트/NNP
해산물/NNG
##프리/NNG
살펴/VV+EC
##함정/NNG
##그러/VV
늘어난다/VV+EF
##농어촌/NNG
##치/IC
물자/NNG
되돌리/VV
투사/NNG
##저소득층/NNG
테마파크/NNG
이월드/NNP
신조어/NNG
썩이/VV
##싸움/NNG
##모르/VV
##우호/NNG
##건도/NNG
trdk/SL
##0114/SN
##김민정/NNP
복리/NNG
나빠졌/VA+EC+VX+EP
미주리/NNP
위스콘신/NNP
아랑곳/NNG
##소매업/NNG
1986/SN
출렁다리/NNG
하드웨어/NNG
촉각/NNG
치러진다/VV+EC+VX+EF
꽂혀/VV+EC
##흥행/NNG
열연/NNG
##신문고/NNG
김용섭/NNP
소원/NNG
그로트/NNP
##Placebo/SL
##BICF/SL
##사/EC
##변기/NNG
##봉인/NNG
요들송/NNG
요들/NNG
##뽕/NNG
##이리오/NNP
##쑈/NNG
류근지/NNP
서태훈/NNP
##돌과/NNG
꿀리/VV
쇼와/NNG
##잇츠/NNP
센세이션/NNP
애드리브/NNG
스푼/NNG
삼박자/NNG
헤이븐/NNG
##스탠드업/NNP
번뜩이/VV
분장/NNG
관공서/NNG
방심/NNG
##라스베이거스/NNP
마요르카/NNP
본지/NNG
매해/NNG
이근영/NNP
##단순/NNG
##팅가/NNP
##8634/SN
빠져나갔/VV+EP
##자율/NNG
##융의/NNG
흘러갈/VV+ETM
백악/NNG
##CoV/SL
선천성/NNG
##편성/NNG
부인과/NNG
『/SY
##』/SY
웬만/XR
채비/NNG
##이상직/NNP
##고발장/NNG
##사실/MAG
##무급/NNG
변모/NNG
##자/VV
##연을/NNG
##열기/NNG
걸어서/VV+EC
도보/NNG
본사가/NNG
채광/NNG
드레스/NNG
상세/NNG
nohsm/SL
축구장/NNG
흘리/VV
##일단/MAG
##귀금속/NNG
토마토/NNG
뭄바이/NNP
붙여/VV+EC
식재/NNG
떠났으나/VV+EP+EC
1299/SN
터놓/VV
김소영/NNP
##교포/NNG
##조지아/NNP
##행/NNP
##승적/NNG
세워줄/VV+EC+VX+ETM
##102/SN
##519/SN
##428/SN
##뚝/NNG
학자/NNG
##군위군/NNG
대리/NNG
모아진/VV+EC+VX+ETM
##키/XSV+ETN
##Rahmania/SL
Astrini/SL
##Aizat/SL
Amdan/SL
##Chillies/SL
##PAAM/SL
랩퍼/NNP
##Quest/SL
삽니다/VV+EC
우량/XR
겨우/MAG
온다/VV+EC
본래/NNG
##시사/NNG
치러질/VV+EC+VX+ETM
뉴올리언스/NNP
어웨이/NNG
컴플렉스/NNP
마지노선/NNG
남미/NP
중일/NNG
태어났/VV+EP
돌려준다/VV+EF
됨/VV+ETN
##플랫폼/NNG
##멘/VV+ETM
윤진서/NNP
유권/NNG
##butter/SL
One/SL
시트/NNG
코나/NNG
##선택과/NNG
나노/NNP
##후강사/NNG
감춘/NNG
##116/SN
드문/VA+ETM
##일요일/NNG
##미선/NNG
##遼/SH
##寧/SH
pse/SL
##0212/SN
모디/NNG
샘/NNP
꿀/NNG
##볼/VV+ETM
##십시오/EP+EF
흘린/VV+ETM
민사/NNG
은폐/NNG
##미숙/XR
sms/SL
일라이/NNP
##전염/NNG
2681/SN
위장/NNG
##플라/NNP
##견이/NNG
##마감/NNG
역외/NNG
UCLG/SL
폭등세/NNG
완만/XR
##허가제/NNG
낯설/VA
147/SN
가꾸/VV
국익/NNG
건자재/NNG
##769/SN
##알엘/NNP
불거져/VV+EC
BNP/SL
##맨/NNG
이용빈/NNP
##원법/NNG
브룩스/NNP
티모시/NNP
##스퍼/NNG
펼쳐질/VV+EC
대니/NNP
워커/NNG
후안/NNG
올리버/NNP
김혜경/NNP
##스탬프/NNP
##존경/NNG
스탬프/NNP
김인철/NNP
재수생/NNG
베어스/NNP
##양키스/NNP
##진에/NNG
내준/VV+ETM
카/IC
사수/NNG
호세/NNG
외야/NNG
조던/NNG
신시내티/NNP
이어간/NNG
162/SN
131/SN
##베/NNG
##227/SN
히어로즈/NNP
세이브/NNG
디트로이트/NNP
땅볼/NNG
토미/NNP
내셔널/NNG
놓쳤/VV+EP
##304/SN
터뜨렸/VV+EP
##375/SN
##980/SN
ISPS/SL
##여제/NNG
존재감/NNG
이보미/NNP
브랜틀리/NNP
켈/NNP
해체/NNG
##즉각/MAG
##리더십/NNG
##그래퍼/NNP
##보트/NNG
##1222/SN
창궐/NNG
##한지/XSV+EC
가져오/VV
##가심/NNG
##로또/NNP
기술원/NNG
장단점/NNG
##열역학/NNG
건너/VV+EC
##885/SN
이동호/NNP
##문주/NNG
체험학습/NNP
솔직히/MAG
애니/NNP
##소자본/NNG
남이섬/NNP
##난타/NNG
울타리/NNG
##무늬/NNG
##사이/NNG
##는커녕/JX
자국민/NNG
오만/NNG
그래프/NNG
리핑/NNP
즈음/NNB
자처/NNG
웨스트/NNP
##윙/NNG
펜스/NNG
노바/NNG
hanajjang/SL
##브/VX
닌텐도/NNP
##모여/VV+EC
홍콩인/NNP
나온다고/VV+EC
나기/NNG
##문체/NNG
##게이머/NNP
정산/NNG
끼친/VV+ETM
##타로/NNG
시흥시/NNP
##사이클링/NNG
역주행/NNG
귀한/VA+ETM
##호기/NNG
가져온/VV+ETM
비추/VV
김강일/NNP
제안서/NNG
스피드/NNG
이은정/NNP
##eu/SL
##영작/NNG
들여오/VV
##모터스/NNP
##식/XSN
양주시/NNP
거제시/NNP
##연설/NNG
승부수/NNG
일별/NNG
##대형트럭/NNP
발원/NNG
렛츠/NNP
김영인/NNP
kimyi/SL
배지/NNG
##방문객/NNG
서장원/NNP
superpower/SL
감격/NNG
##댈/XSV+ETM
##야구장/NNG
장묘/NNG
쿡/MAG
최상위/NNG
##문자/NNG
사라져/VV+EC
요양원/NNG
몰랐다/VV+EP
외계인/NNG
##togo/SL
##Amazing/SL
comfort/SL
service/SL
##시절/NNG
기준점/NNG
##추방/NNG
국방위원회/NNP
nghj/SL
절제/NNG
되돌아보/VV
날려/VV+EC
##마/VX+EC
방출/NNG
몸싸움/NNG
떠날/VV+ETM
이청룡/NNP
##몰/VV
##개척/NNG
내장/NNG
덥/VA
김장성/NNP
##격/NNB
외주/NNG
만지/NNG
끌기/NNG
혜안/NNG
##≫/SY
내용증명/NNP
종결/NNG
통지/NNG
##식설/NNG
남반구/NNG
##920/SN
##경/NNBC
##잔액/NNG
어려워져/VA+EC+VX+EC
##아주/MAG
##뉴스투데이/NNP
게티/NNP
편이/NNG
임종명/NNP
##해변/NNG
##읍성/NNG
##정당/NNG
빠를/VA+ETM
김주남/NNP
소동/NNG
테네시주/NNP
올라오/VV
##하/VX
채색/NNG
쌍/NNG
카이로/NNP
##비행기/NNG
수월/XR
##저금리/NNG
속전속결/NNG
##반환/NNG
##시위/NNG
##항기/NNG
기체/NNG
환입/NNG
##일치/NNG
sy/SL
소지자/NNG
##BNPP/SL
##클래스/NNP
부딪혔/VV+EP
이나영/NNP
촉박/XR
##로직/NNG
스타쉽/NNP
군부/NNG
##벨레/NNP
##자식/NNG
로비/NNG
김동현/NNP
지하철역/NNG
코다/NNG
렉시/NNP
동맹국/NNG
강서/NNG
##원도/NNG
##징역/NNG
##두산/NNP
동승/NNG
##부인/NNG
꾸리/VV
사우스햄턴/NNP
채웠/VV+EP
##영화관/NNG
##그녀/NP
##시네마/NNG
##움/NNG
##해소/NNG
##곱/NNG
약정/NNG
메탈/NNG
kwj/SL
김하성/NNP
##최소한/NNG
856/SN
##증상/NNG
로리/NNG
##WGC/SL
빼앗/VV
페덱스/NNP
##해/XSV+EF
역효과/NNG
대항/NNG
##道/NNG
##등록금/NNG
강해/VA+EC
밀어내기/NNG
##병동/NNG
지어/NNG
싸인/VV+ETM
234/SN
향수/NNG
모호/XR
맞물린/VV+ETM
문장/NNG
##통운/NNG
충원/NNG
##릴/NNG
##운의/NNG
##계약서/NNG
간과/NNG
버틸/VV+ETM
##지가/NNG
##단순히/MAG
판가름/NNG
엇갈렸/VV+EP
완충/NNG
북동부/NNP
절대로/MAG
저리/MAG
##차일드/NNP
##베리/NNG
TOO/SL
전자서명/NNP
김지선/NNP
##시니어/NNP
경륜/NNG
##크로스/NNG
독주/NNG
##글씨/NNG
버렸/VV+EP
##청문회/NNG
노릇/NNG
주어진/VV+ETM
newsinfo/SL
##청결/NNG
##무료/NNG
310/SN
계셨/VV+EP
프런트/NNG
##스트리트/NNP
베란다/NNG
야생화/NNG
좁혀/VV+EC
대도/NNG
##낼지/VX+EC
208/SN
##바틀/NNP
수술실/NNG
yunew/SL
녹아들/VV
##만유/NNG
##에즈/NNP
친정/NNG
김남희/NNP
가뜩이나/MAG
와/IC
##할머니/NNG
##얼굴/NNG
##몇/MM
어차피/MAG
##tvN/SL
복주산/NNP
통고산/NNP
운문산/NNP
운장산/NNP
사이언/NNP
##".../SY
##입출/NNG
##떼/NNG
쌓이/VV
들끓/VV
뷔페/NNG
case/SL
힘써왔/VV+EC+VX+EP
##PBR/SL
##2015/SN
##촹반/UNKNOWN
##科/NNG
행각/NNG
칩/NNG
##장단/NNG
당정/NNG
USA/SL
절망/NNG
##주간경향/NNP
피로/NNG
고용량/NNG
##편리/NNG
측근/NNG
찾아볼/VV+ETM
그쳤으며/VV+EP+EC
##용액/NNG
씹/VV
츄/NNP
##키스/NNG
해리/NNP
##정안/NNG
금융업/NNG
##2529/SN
미시령/NNP
놀라움/NNG
##리/NNG
413/SN
페트/NNP
##1200/SN
##nm/SL
##잠정/NNG
son/SL
데이터베이스/NNG
##816/SN
921/SN
##185/SN
강신욱/NNP
비워/VV+EC
기프트/NNP
한성/NNP
##에프아이/NNG
편집국/NNG
간략/XR
기울였/VV+EP
드러낼/VV+ETM
이유진/NNP
##매창/NNP
##3600/SN
jhj/SL
##932/SN
##발굴/NNG
##유휴/NNG
순이자/NNG
흥행작/NNG
왓/NNP
##마크/NNG
##만을/NNG+JX+JKO
186/SN
오클라호마주/NNP
434/SN
양의지/NNP
김남수/NNP
##애경/NNP
##해상/NNP
##셰어/NNG
##얼라이언스/NNP
##운항/NNG
##국산/NNG
연연/NNG
##서구/NNG
조오섭/NNP
ARS/SL
칠판/NNG
손꼽힌다/VV+EF
김상돈/NNP
##580/SN
트랜드/NNG
민트/NNG
##CDC/SL
잣대/NNG
##급난/NNG
차장/NNG
엇갈린/VV+ETM
##파/VV
##증설/NNG
로베르트코흐/NNP
거꾸로/MAG
##Off/SL
단란/XR
위중/NNG
내륙/NNG
honey/SL
LS/SL
##전무/NNG
신동빈/NNP
소주/NNG
펜션/NNG
##계좌/NNG
이수한/NNP
##광화문/NNG
경시/NNG
에디터/NNG
보컬리스트/NNG
최강/NNG
천연가스/NNG
##몸/NNG
신바람/NNG
##체육공원/NNG
나폴리/NNP
##원정/NNG
##소속/NNG
##모건/NNG
낮춘/VV+ETM
콜롬비아/NNP
##코스닥/NNG
채운/NNG
합계/NNG
풀기/NNG
체온계/NNG
묵살/NNG
미끼/NNG
엿볼/VV+ETM
증권업/NNG
앞세운/VV+ETM
467/SN
입문/NNG
민병희/NNP
풍산/NNP
서남/NNG
##kimkey/SL
이동전/NNG
373/SN
멜린다/NNP
글자/NNG
밀폐/NNG
털리/NNG
##뉴올리언스/NNP
##데토/NNP
##쿤/NNP
페이스/NNG
잡혀/VV+EC
조정훈/NNP
찬스/NNG
슬림/XR
5600/SN
##충청/NNP
제소/NNG
진원지/NNG
saint/SL
판독/NNG
정량/NNG
무안/NNG
hwangtae/SL
옌스/NNP
##업/VV
머물러/VV+EC
##어느/MM
##x/SL
##인문학/NNG
에어부산/NNP
섬유/NNG
신축성/NNG
걸어왔/VV+EP
속내/NNG
패스트/NNP
##처의/NNG
헌정/NNG
쾌거/NNG
yej/SL
##베클/NNG
##506/SN
##실직/NNG
##한시/NNG
나돌/VV
##배양/NNG
##탁식/NNG
##110/SN
오빠/NNG
해프닝/NNG
후생/NNG
기다릴/VV+ETM
645/SN
Ba/SL
##기재/NNG
8590/SN
Z/SL
제의/NNG
노동계/NNG
양주성/NNP
깎/VV
재발견/NNG
##℃/SY
김명섭/NNP
전시장/NNG
스포츠카/NNG
보유자/NNG
중저가/NNG
##문헌/NNG
윤지/NNG
Travel/SL
##레/JKS
차라리/MAG
초빙/NNG
##부패/NNG
그곳/NP
앞뒤/NNG
수비력/NNG
##적설/NNG
tuney/SL
##LeYN/SL
##yonhap/SL
##graphics/SL
지정학/NNG
다뤄/VV+EC
##인구/VCP+EC
우즈/NNP
각계/NNG
Kitchen/SL
##강력/XR
석탄/NNG
##동물농장/NNP
##크루/NNP
##계장/NNG
##전체주의/NNG
##지적/NNG
##494/SN
##시장법/NNG
##용법/NNG
카세트/NNG
##RT/SL
##징기스/NNP
뚜껑/NNG
시드/NNG
##인대/NNG
Player/SL
우군/NNG
남아프리카/NNP
연사/NNG
실리/NNG
모바일게임/NNP
로드리고/NNP
희소식/NNG
인기몰이/NNG
동석/NNG
계획표/NNG
사이먼/NNP
발발/NNG
잇따랐/VV+EP
누/NP
##주변/NNG
지배력/NNG
제프리/NNP
샤인/NNP
당도/NNG
##ha/SL
##도정/NNG
다녀올/VV+ETM
임상은/NNP
선봉/NNG
독/NNG
##생계/NNG
##민생/NNG
편광판/NNG
##다이오드/NNG
한국장학재단/NNP
전창/NNG
결격/NNG
##트레이너/NNG
대한빙상경기연맹/NNP
기권/NNG
커진다/VV+EF
이한승/NNP
불공정/NNG
##안시성/NNG
이기영/NNP
에디/NNP
제국/NNG
겨루/VV
케/IC
못지않/VA
의외/NNG
고작/MAG
승격/NNG
긴급사/NNG
##태가/NNG
##편/NNG
##광구/NNG
분사/NNG
충청남도/NNP
따른다/VV+EF
##플러그인/NNP
문민/NNG
##민준/NNP
앵/NNG
##커멘트/NNG
베르너/NNP
##살/NNG
정동원/NNP
##증자/NNP
##운동가/NNG
그릴리/NNP
에비/IC
광학/NNG
취침/NNG
물씬/MAG
##역한/NNG
버추얼/NNG
농번기/NNG
##AD/SL
##배분/NNG
준다는/VV+ETM
애써/VV+EC
##이랑/JKB
철폐/NNG
남용/NNG
김성훈/NNP
ROAD/SL
익스프레스/NNP
##갈치/NNG
##으시/EP
##919/SN
##%./SY
##봅니다/VX+EF
낭만/NNG
반값/NNG
EMK/SL
적잖/VA
개헌/NNP
##집무실/NNG
등서/NNG
준다/VV+EC
바라본/VV+ETM
동등/NNG
교리/NNG
##다기/ETN
죄/NNG
##테/NNG+VCP
저질렀/VV+EP
계세요/VV+EF
##심각/XR
자아내/VV
적나라/XR
출발점/NNG
공평/NNG
##또한/MAJ
원한다/VV+EC
수정안/NNG
학력/NNG
##대교/NNG
##민설/NNG
##한우/NNG
##최종/NNG
3040/SN
##세후/NNG
##순이자/NNG
##박싱/NNP
박명림/NNP
정종태/NNP
초석/NNG
EUA/SL
Cancer/SL
한아름/NNP
플랜트/NNG
가드/NNG
테니스/NNG
김보경/NNP
##매/NNG
지각/NNG
건축물/NNG
마다/NNG
수입액/NNG
##신발/NNG
광교/NNG
##ml/SL
##right/SL
보령시/NNP
##그나마/MAG
##내년도/NNG
이종희/NNP
랭크/NNG
##출발/NNG
##아요/EC
##미/VV
##않/VX
SOC/SL
니/MM
과반수/NNG
교재/NNG
##질수록/VX+EC
다도/NNG
##교가/NNG
##J/SL
청산/NNG
이용철/NNP
##평택항/NNP
영친왕/NNP
도자/NNG
기술자/NNG
보그다노비치/NNP
까다롭/VA
##김정현/NNP
장마철/NNG
##호항/NNG
##파트너/NNG
자본력/NNG
급물살/NNG
##콰라/NNP
##라이프/NNP
오렌지/NNG
##아트홀/NNP
671/SN
발전량/NNG
원화/NNG
##맞/VV
##소시/NNG
AIG/SL
박재현/NNP
압축/NNG
육성재/NNP
##지휘부/NNG
##평의/NNG
##박재구/NNP
##오일/NNG
##IATA/SL
##항공업/NNG
##였음에도/EP+ETN+JKB+JX
이탈로/NNP
##감시단/NNG
##투입/NNG
##런/NNP
번역/NNG
들어간다고/VV+EC
조정관/NNG
김윤기/NNP
의창/NNG
##창원시/NNP
요리사/NNG
##산학/NNG
##4900/SN
우범기/NNP
나타낸다/VV+EF
##명령/NNG
이정민/NNP
##일국/NNG
##달째/NNG
##너리/NNG
환노위/NNP
극도/NNG
김계수/NNP
임용식/NNP
목욕/NNG
##외전/NNG
##웅조/NNG
파일/NNG
옮긴/VV+ETM
##부로/NNG
귀신/NNG
삼척항/NNP
불문율/NNG
통감/NNP
에마뉘엘/NNP
대릉원/NNG
##안동/NNG
관리도/NNG
미약/XR
입힌/VV+ETM
삼성카드/NNP
크리스티/NNP
##만들/VV
보험업법/NNG
##xylitol/SL
익산시/NNP
##치인/NNG
프린세스/NNP
논하/VV
소아병/NNG
각의/NNG
빈국/NNG
call/SL
##비르가/NNP
##역과/NNG
유제/NNG
낙동강/NNP
알루미늄/NNG
##東京/NNG
강제력/NNG
산이/NNG
##현은/NNG
##매니저/NNG
##겨루기/NNG
위문품/NNG
##표현/NNG
갑작스런/VA+ETM
급한/VA+ETM
물의/NNG
비치/VV
##야르/NNP
신용카드/NNP
##서가/NNG
규/NNG
낙후/NNG
청순/XR
##사도/NNG
##금감원/NNP
##구제/NNG
부원장/NNG
618/SN
##379/SN
소중히/MAG
몸통/NNG
##이사회/NNG
보루/NNG
아웃도어/NNG
선명/NNG
벌여/VV+EC
##617/SN
급급/XR
gttsw/SL
남궁/NNP
##헌혈/NNG
##핵심/NNG
갖춰져/VV+EC+VX+EC
WIdO/SL
##재충전/NNG
고택/NNG
져야/VV+EC
##도내/NNP
평창군/NNG
##대리/NNG
미생물학/NNG
Ly/SL
수지상/NNG
간염/NNG
RUH/SL
슈테/NNP
##파니/NNG
펜더/NNG
KDI/SL
강연자/NNG
##페이스/NNG
##종로/NNP
나이트/NNP
##메멘토/NNP
범인/NNG
##센서/NNG
코카/NNG
그런가/VA+EC
쿠데타/NNG
돼/VV+EF
첩보/NNG
##어쩌/VV
##측정기/NNG
베르나르/NNP
부의/NNG
##포천/NNG
##문항/NNG
원영/NNG
##어선/NNG
페트리/NNG
##UN/SL
성북/NNG
도지사/NNP
민정/NNG
잦아들/VV
어려웠을/VA+EP+ETM
부랴부랴/MAG
wayne/SL
##국을/NNG
##114/SN
금방/MAG
##전망대/NNG
도핑/NNG
##빨강/NNG
##검경/NNG
값진/VA+ETM
묶였/VV+EP
김창성/NNP
solrali/SL
적합/NNG
##비와/NNG
##005930/SN
군정/NNG
##동영상/NNG
스테디셀러/NNG
자선/NNG
##교양/NNG
클러치/NNG
사라진다/VV+EF
공짜/NNG
일몰/NNG
##파이브/NNG
아이즈/NNP
##비드/NNP
##안동/NNP
화병/NNG
##회전/NNG
유지관리/NNP
MD/SL
영양실조/NNG
유명희/NNP
##세일/NNG
이재은/NNP
##접점/NNG
맞댄다/VV+EF
##FAO/SL
?/SF
Corona/SL
비유/NNG
극우/NNG
##사적/NNG
퓨처/NNP
일본어/NNG
노숙/NNG
##내자/NNP
흔들릴/VV+ETM
스탠다드/NNP
스니커즈/NNP
##尖/NNG
##閣/XSN
##전라남도/NNP
GSL/SL
##서강/NNP
성찰/NNG
지시/VV
##Business/SL
Survey/SL
##나이키/NNG
알링턴/NNP
김재호/NNP
greatnemo/SL
##칸타타/NNG
##언더/NNG
##퇴원/NNG
신규수/NNP
##아이폰/NNP
전각/NNG
##재현/NNG
곶감/NNG
세자빈/NNG
##연애/NNG
이맘때/NNG
커서/NNG
머/IC
sisa/SL
##외교관/NNG
제온/NNP
객체/NNG
##코리/NNP
국어/NNG
겁니까/NNB+VCP+EF
궁/NNP
양의/NNG
##요리/NNG
완제/NNG
연못/NNG
550/SN
##모으/VV
##배수/NNG
##만일/NNG
##고시원/NNP
##오토/NNG
지하차도/NNP
윤슬/NNG
##생과/NNG
세정제/NNG
철갑상어/NNG
LCD/SL
확장팩/NNP
연락도/NNG
리허설/NNG
나가라/NNP
##도전/NNG
정해졌/VV+EC+VX+EP
윤상원/NNP
지워/VV+EC
##빌려/VV+EC
동기간/NNG
SSD/SL
빙자/NNG
##신재/NNG
가했/VV+EP
##신개/NNG
공시지가/NNP
물러나/VV
##크워스/NNP
자라/VV+EC
앤트/NNP
수적/NNG
쓰임새/NNG
안내도/NNG
족욕/NNG
편백/NNG
유출량/NNG
##㎘/SY
##해경청/NNG
##개세/NNG
나사/NNG
기정사실/NNG
완납/NNG
##△/SY
##조선일보/NNP
모닝/NNP
이정훈/NNP
달린/VV+ETM
부경/NNP
##KSPO/SL
빌게이츠/NNP
이수지/NNP
엑스/NNG
생산비/NNG
##환전/NNG
리사/NNP
맛볼/VV+ETM
##行/NNG
##禁/XR
타협/NNG
##안내/NNG
김학도/NNP
hoonjs/SL
속편/NNG
##장년층/NNG
의료인/NNG
##동국/NNG
##라이프치히/NNP
개발비/NNG
인제/MAG
연기력/NNG
아저씨/NNG
##선수협/NNP
##고수/NNG
만족감/NNG
도대체/MAG
572/SN
법무/NNG
빙엄/NNP
##어워드/NNP
콘/NNG
북한이탈주민/NNP
들어줄/VV+ETM
##락/VCP+EC
##증강현실/NNP
지낼/VV+ETM
##레코드/NNG
HEALS/SL
##ppm/SL
##발현/NNG
##상가/NNP
캘리포니아주/NNP
HBO/SL
돌아설/VV+ETM
##실록/NNG
특산물/NNG
영사관/NNG
##개최/NNG
남발/NNG
##임직원/NNG
##분자/NNG
숙원/NNG
##땐/NNG+JX
비룡/NNG
##지원사/NNG
양자/NNG
장기화/NNG
##횟수/NNG
과징금/NNG
묵직/XR
##예술제/NNG
책의/NNG
##편한/NNG
RPA/SL
막말/NNG
분분/XR
앳/NNP
스피커/NNG
##기치/NNG
여왕/NNG
KAIT/SL
##탭/NNG
현관/NNG
꼴찌/NNG
탁구/NNG
박준현/NNP
연료비/NNG
##동동/NNG
정연우/NNP
##민방위/NNG
##콘서트홀/NNG
생고기/NNG
장례식/NNG
공군/NNG
장애인/NNG
복직/NNG
영천향교/NNP
##엔진/NNG
##목포/NNP
##도리/NNG
##봄/NNG
카운터/NNP
오션/NNP
KCC/SL
##카/VV
##동력차/NNG
##산소/NNG
오피스텔/NNG
##재웅/NNG
위례/NNG
원목/NNG
서귀포/NNG
인쇄/NNG
와이즈/NNP
원/NR
##웨일/NNP
대디/NNP
이춘재/NNP
김성현/NNP
##재미/NNG
##팡웨이/NNP
킬러/NNG
영양소/NNG
송무/NNG
##1500/SN
옥/NNG
##EMS/SL
제스트/NNP
주치의/NNG
학회/NNG
포천/NNG
##내장/NNG
탈모/NNG
##정고/NNG
공유림/NNG
##노/VV
##현대판/NNG
넥슨/NNP
쪽지/NNG
##규격/NNG
서울랜드/NNP
보첼리/NNP
푸르/NNP
민자/NNG
도수/NNG
APT/SL
##오랑/NNG
SBR/SL
KAI/SL
리히텐슈타인/NNP
패혈증/NNG
보충/NNG
정견/NNG
##청렴/NNG
제이준/NNP
알칸타라/NNP
젝/NNP
##시오/NNG
덕수/NNG
##foresttrip/SL
유병/NNG
##체중/NNG
##황금/NNG
마녀/NNG
최영윤/NNP
##freeyaw/SL
옮겨졌/VV+EC+VX+EP
대지/NNG
구급대/NNG
수돗물/NNG
##외고/NNG
##교원/NNG
moon/SL
대한축구협회/NNP
강팀/NNG
##계속/NNG
##7773/SN
오간/NNG
기술료/NNG
성재준/NNP
##오파/NNG
##HL/SL
jjsung/SL
##깜깜/MAG
##내격/NNG
옮길/VV+ETM
산유국/NNG
##깨끗/XR
한독/NNG
183/SN
김미희/NNP
이지현/NNP
##대신/NNG
카지노/NNG
VIP/SL
앞당겨진/VV+EC+VX+ETM
##미트/NNG
미트/NNG
한국식/NNP
##해물/NNG
떠안/VV
가배/NNG
신웅/NNP
phonalist/SL
365/SN
분권/NNG
##농민/NNG
##고령화/NNG
##리/VCP+EC
전성기/NNG
발명/NNG
프린트/NNG
garden/SL
##정세균/NNP
##한가/XSA+EC
점령/NNG
터널/NNG
버거/NNG
담아낸/VV+ETM
자서전/NNG
##악산/NNG
경의/NNG
녹십자/NNG
pdw/SL
##1201/SN
##물놀이/NNG
입상/NNG
요령/NNG
##후생/NNG
팽배/XR
파고/NNG
돌아와서/VV+EC
##州/NNG
노스다코타/NNP
이튿날/NNG
초가집/NNG
현판식/NNG
##경력/NNG
매콤/XR
해물/NNG
뜻밖/NNG
안경달/NNP
gunners/SL
거침없/VA
##판권/NNG
##hoony/SL
친필/NNG
##곡동/NNG
지병/NNG
빌/VV
대장정/NNG
##이노/NNP
적응증/NNG
##자가/NNG
##대변인/NNG
고삐/NNG
##요구/NNG
손꼽히/VV
##ECDC/SL
##문법/NNG
##브라질리아/NNP
복원력/NNG
가계부/NNG
##실수/NNG
##마/NNG
##신/NNP
체당금/NNG
통해서라도/VV+EC
이현주/NNP
##순례/NNG
는/JX
구정모/NNP
##만료/NNG
인쇄기/NNG
pseudojm/SL
##유치에/NNP
##지하/NNG
캐슬/NNP
영통/NNG
사생활/NNG
수납공간/NNG
동호인/NNG
미착/NNG
연락처/NNG
##오랜만/NNG
##오랜/MM
##오랫동안/NNG
원재료/NNG
##옥스/NNP
SMC/SL
광주광역시장/NNP
문막/NNP
##거주/NNG
이영훈/NNP
조용병/NNP
저술/NNG
##구직/NNG
사람인/NNG
##힘들/VA+ETM
느낀다고/VV+EC
##폐/XPN
##2010/SN
매회/NNG
yonglae/SL
##북통/NNG
##합신/MAG
김진상/NNP
박/VV
물거품/NNG
뽑혔/VV+EP
##701/SN
##486/SN
##259/SN
김두용/NNP
의성군/NNG
##쉽/VA
##소아암/NNG
##말레이시아/NNP
판다고/VV+EC
정완/NNP
올려놓/VV
3737/SN
6700/SN
계약금/NNG
떠올려/VV+EC
폼/NNG
이원만/NNP
이하일/NNP
김형로/NNP
##상무/NNG
김경희/NNP
khn/SL
##5029/SN
##구체/NNG
##철우/NNG
##진학/NNG
##소개서/NNG
요가/NNG
매트/NNG
주채/NNG
무너질/VV+ETM
##광/NNG
김선엽/NNP
##9149/SN
가전제품/NNG
##개학/NNG
결손/NNG
무방비/NNG
비상구/NNG
##기편/NNG
탈주/NNG
##950/SN
재무제표/NNG
##곤충/NNG
유진섭/NNP
사막/NNG
##자/NNB
##학자/NNG
##吉林/NNG
##黑龍/NNG
##江/NNG
##建/SH
기호/NNG
##머/NP
토닉/NNG
깔/VV
##센스/NNG
IRB/SL
오노/NNG
jai/SL
후폭풍/NNG
##단일/NNG
##클론/NNP
건너뛰/VV
카피/NNG
부도덕/NNG
이윤화/NNP
##로얄/NNP
##다연/NNG
호가/NNG
##원화/NNG
테네시/NNP
##국지/NNG
##연과/NNG
##보조/NNG
##듬/NNG
ATV/SL
장난감/NNG
227/SN
모터/NNG
떠들/VV
##상합/NNG
##동훈련/NNG
환태평양/NNG
침략/NNG
뚜렷이/MAG
##대/VX
##남조선/NNP
적대시/NNG
하소연/NNP
숙명/NNG
조사단/NNG
진위/NNG
유보/NNG
팽팽/XR
밝혀왔/VV+EC+VX+EP
##구본혁/NNP
nbgkoo/SL
1931/SN
기폭제/NNG
##산갑/NNG
피에르/NNP
##에밀/NNP
##사우스/NNP
카스타/NNP
얀/NNP
유로파/NNG
세르주/NNP
유니온/NNP
##bsnews/SL
##RDIF/SL
빼어난/VA+ETM
깨졌/VV+EP
조시/NNG
최지만/NNP
출루/NNG
##도어/NNG
##트리플/NNG
146/SN
테일러/NNP
우/IC
승률/NNG
타일러/VV+EC
##333/SN
##예상/NNG
리드/NNP
##636/SN
장타율/NNG
##진다면/VX+EC
##슨/VV+ETM
##이/NNB
호르헤/NNP
어시스트/NNG
무실점/NNG
로젠탈/NNP
라이벌/NNG
##409/SN
1991/SN
##432/SN
##4500/SN
데/MAJ
##린/NNG
##캐스터/NNG
김선우/NNP
격돌/NNG
##좌승/NNG
##프라이즈/NNP
jpen/SL
언쟁/NNG
긁/VV
살짝/NNG
초동/NNG
에볼라/NNP
취해온/VV+EC+VX+ETM
슬로/NNG
ktkim/SL
##매년/NNG
##스웨덴/NNP
나와도/VV+EC
##gurazip/SL
##재건축/NNG
##HUG/SL
##시내/NNG
##우량/NNG
##AA/SL
##담보부/NNG
급팽창/NNG
열역학/NNG
PEP/SL
고래/MAG
##캐스팅/NNP
돈키호테/NNG
문영일/NNP
방명록/NNG
##기행/NNG
##삼/VV
##통화량/NNG
##스페셜/NNP
안정준/NNP
##마거릿/NNP
근거지/NNG
춰라/VV+EF
##사춤/NNG
##페인터/NNP
##통망/NNG
##해온/XSA+EC+VX+ETM
내정/NNP
끊겨/VV+EC
##단다/EF
교정/NNG
매몰/NNG
딛/VV
모아야/VV+EC
매/VV
3200/SN
꼼꼼/XR
별칭/NNG
##현진/NNG
##게임학/NNP
우수근/NNP
##치가/XSV+EC+JKS
960/SN
양해/NNG
권재희/NNP
631/SN
최민우/NNP
4016/SN
##박준환/NNP
끌어내/VV
뜨거웠/VA+EP
##당사자/NNG
백지/NNG
##할수록/VV+EC
소신/NNG
##자동화/NNG
##RPA/SL
유니콘/NNG
##심천/NNG
과창/NNG
곽정/NNP
kwak/SL
펜/NNG
##카에/NNP
행정절차/NNP
##행/XSN
이주현/NNP
jhjh/SL
변희/NNG
##NGO/SL
오애리/NNP
##처음/NNG
##363/SN
돌발/NNG
박찬수/NNP
구금/NNG
각/NNG
리먼/NNP
연도/NNG
##전반/NNG
아이패드/NNP
고프/NNP
오즈/NNP
콤/NNG
KRBC/SL
##포스터/NNG
기프/NNP
##음악회/NNG
##²/SY
대숲/NNG
맞춰서/VV+EC
설렌다/VV+EF
##험객/NNG
##팁/NNG
진수/NNG
##강/NNP
지장/NNG
##SOS/SL
이소현/NNP
파문/NNG
정액/NNG
안용수/NNP
##구로/NNG
세워야/VV+EC
휘트/NNP
aayyss/SL
봅슬레이/NNG
슬라이딩/NNG
##숙소/NNG
전병용/NNP
yong/SL
##126/SN
##％(/SY
##♥/SY
단추/NNG
##블의/NNG
##부러우/VA
##치였/VV+EP
한고은/NNP
##자씨/NNG
익혔/VV+EP
신일/NNG
##두지/NNG
전언/NNG
##하림/NNG
##민욱/NNP
##매수세/NNG
##2800/SN
##8600/SN
##PER/SL
##아레나/NNG
진성/NNG
##광의/NNG
##bloter/SL
##음/NNG
귓속말/NNG
≪/SY
SPA/SL
현산/NNP
재협의/NNG
부근/NNG
나왔었/VV+EP
밀양시/NNP
신비/NNG
##이재명/NNP
격고/NNG
번지/VV
##한다고/VX+EC
눈빛/NNG
선대/NNG
독식/NNG
##가비/NNG
##학지/NNG
##흡연/NNG
##1300/SN
앗/VV
##수성/NNG
난임/NNG
이준기/NNP
수교/NNG
수납/NNG
상자/NNG
놓친/VV+ETM
##폭도/NNG
순식간/NNG
##교대/NNG
##내/NP+JKG
##밀레/NNP
장신구/NNG
##2200/SN
찰코/NNG
테리/NNP
창립자/NNG
묶/NNG
##표가/NNG
기지/NNG
##재건/NNG
임수정/NNP
##소비재/NNG
옴니/NNP
##1498/SN
or/SL
뱅킹/NNG
##출시/NNG
##ny/SL
##4030/SN
튜/NNP
##루리/NNP
발끝/NNG
Golf/SL
GOLF/SL
견해차/NNG
플로리/NNP
##해/VV+EF
##정신병/NNG
보드카/NNG
중간고사/NNG
곤혹/NNG
정직/NNG
반세기/NNG
바랐/VV+EP
##트릴/NNG
바이트/NNP
집약/NNG
##롬/NNG
##진다/EC+EF
자료실/NNG
스캔/NNP
입실/NNG
이혜원/NNP
##남/EC
##중구/NNG
강동/MAG
강동구/NNP
곱한/VV+ETM
##투/NNB
접전/NNG
##고르/VA
향방/NNG
##방송사/NNG
##사우스햄턴/NNP
##스모/NNG
빽빽이/NNG
##토리/NNP
##개장/NNG
이익금/NNG
##김원준/NNP
##공급자/NNG
억/NR
##5797/SN
김원준/NNP
##서대/NNG
##고지/NNG
597/SN
##운/EC
릭/NNG
스크램블/NNG
##윈드/NNP
추월/NNG
설훈/NNP
민간단체/NNG
재신다/NNP
임상용/NNP
세입/NNG
차미례/NNP
PA/SL
파/VV
선결/NNG
턴/VV+ETM
##라운드/NNP
강변/NNG
외출/MAG
##침의/NNG
부주의/NNG
##쳐/VV+EC
가르/VV
jun/SL
##손상/NNG
##소아/NNG
토퍼/NNG
야심/XR
##차/VA
##데스크/NNG
오더/NNG
##수술/NNG
부지런/NNG
테/NNB+VCP
적기/NNG
##김부겸/NNP
될까/VV+EC
설전/NNG
다방/NNG
저절로/MAG
damdam/SL
펜타곤/NNG
김성규/NNP
##혼인/NNG
##비루스/NNG
월남/NNG
도주자/NNG
고준/NNG
뛰어들/VV+ETM
조차/NNP
수십억/NR
##상원/NNG
품지/NNG
##인종/NNG
뾰족/MAG
##릿/NNB
멍/MAG
아닌데/VCN+EC
안전도/NNG
##레지/NNP
룸서비스/NNG
##본명/NNG
박정원/NNP
##장충/NNG
언덕/NNG
가든/NNG
증빙/NNG
이종건/NNP
##군데/NNBC
지형/NNG
가레스/NNP
장난치/VV
세리/NNG
주급/NNG
851/SN
##셨잖아요/EP+EP+EC+VX+EF
앞마당/NNG
휘/VV
꺼낸/VV+ETM
심심/XR
전철/NNG
건네/VV
빠듯/XR
채울/VV+ETM
김무연/NNP
연애/NNG
오키나와/NNP
유경상/NNP
##궁극/NNG
##정거장/NNG
##기본소득/NNP
##정운/NNG
##고와/NNG
3800/SN
나빠질/VA+EC
2060/SN
광의/NNG
479/SN
##373/SN
세수/NNG
##＆/SY
화장/NNG
김구/NNP
소비재/NNG
ADR/SL
돌릴/VV+ETM
금보/NNP
감수성/NNG
나이팅게일/NNG
네/NP
바쁘/VA
대놓/VV
갓/MAG
혹시나/MAG
##편지/NNG
액티브/NNG
##논리/NNG
특기/NNG
##Inside/SL
##Small/SL
##Through/SL
##Alternative/SL
##Closer/SL
이지윤/NNP
광란/NNG
##충전/NNG
##권한/NNG
##홍연우/NNP
차려/IC
YB/SL
##DJ/SL
##고개/NNG
식단/NNG
하신/NNG
정수기/NNG
윤재준/NNP
##2500/SN
##AMD/SL
##장병/NNG
##유한/VV+ETM
간다/VV+EC
마실/NNG
닫힌/VV+ETM
담/NNG
노우/NNG
하이/IC
대유/NNG
최송현/NNP
빈도/NNG
속이/NNG
##으리라/EC
##카인즈/NNP
재벌/NNG
##제로/NR
퍼/VV+EC
##최대한/NNG
김재영/NNP
선이/NNG
##연춘/NNP
##156/SN
머무를/VV+ETM
##중앙은행/NNG
##커뮤니티/NNG
##RNA/SL
경시청/NNG
##범의/NNG
##챠/NNP
##서진우/NNP
##경총/NNG
##특화/NNG
행정소송/NNP
늦춰진/VV+EC+VX+ETM
##977/SN
##384/SN
##홍보가/NNP
간호학/NNG
中企/NNG
영진/NNG
##승객/NNG
##'[/SY
이지스/NNP
랜드마크/NNP
혼동/NNG
의아/NNG
원만/XR
민형배/NNP
변함/VV+ETN
김승남/NNP
감투싸움/NNG
##005380/SN
구심점/NNG
쾌척/NNG
실러/NNP
##푸/MAG
##중요/NNG
##여력/NNG
마스터/NNG
꾸렸/VV+EP
근/MM
##전입/NNG
김미영/NNP
##대중교통/NNG
##일행/NNG
부산역/NNP
##쇼크/NNP
##발사/NNG
배웠/VV+EP
이삭/NNG
이학렬/NNP
물음/NNG
로타/NNP
##플립/NNP
##유흥/NNG
3955/SN
##항/XSA+ETM
320/SN
자아낸다/VV+EF
무학/NNP
##1980/SN
호의/NNG
##청계/NNG
##서연/NNP
minsy/SL
온통/MAG
패션쇼/NNG
유투/NNP
##민노총/NNP
##강자/NNG
##0203/SN
안산시장/NNP
##시정/NNG
호수/NNG
치악산/NNP
소용이/NNG
조목조목/NNG
정크/NNG
경질/NNG
설상가상/NNG
##우리나라/NNG
이상아/NNP
##장기간/NNG
중임/NNG
##부성/NNG
##bss/SL
적/XSN
똑똑/XR
런/NNG
교육학/NNG
##컷/NNG
##통계청/NNG
##차인/NNG
##작곡/NNG
##였으나/VCP+EP+EC
박문희/NNP
##밍/NNG
##워시/NNP
목적지/NNG
헌장/NNG
보여줘/VV+EC+VX+EC
##비행/NNG
원투/NNG
##펀치/NNG
슛/NNG
##표로/NNG
마련/NNB
##WICOP/SL
##주문자/NNG
이부영/NNP
기획사/NNP
##전라/NNP
경력자/NNG
최보근/NNP
##주간/NNG
##원빈/NNG
어떤지/VA+EC
##다면서요/EF
징검다리/NNG
##옌스/NNP
##ksyoo/SL
칸막이/NNG
##여름휴가/NNG
덧붙이/VV
전할/NNG
가본/NNG
김소형/NNP
compact/SL
##산과의/NNG
##주립/NNG
윈난성/NNP
중형/NNG
자란/NNG
움직일/VV+ETM
##건강보험공단/NNP
파스퇴르/NNP
##김지혜/NNP
휩쓸/VV
883/SN
##강도/NNG
접견실/NNG
##공청회/NNG
이지/NNP
전자책/NNG
아사히/NNP
덮/VV
바에/NNP
감종/NNG
케익/NNG
랜덤/NNG
셋/NR
지경/NNB
여럿/NNG
##드래곤/NNP
유덕열/NNP
통칭/NNG
명장/NNG
##3592/SN
##황이/NNG
##무더위/NNG
박정희/NNP
코로나도/NNP
##BBB/SL
일본제/NNG
성실히/MAG
icef/SL
##추후/NNG
##191/SN
##다이제스트/NNG
##재인/NNG
##역사관/NNG
##비로/NNG
IBM/SL
##패턴/NNG
터치/NNG
장충식/NNP
실종/NNG
##최우영/NNP
##영진/NNG
##벤츠/NNP
시속/NNG
5400/SN
반격/NNG
마니아/NNG
원년/NNG
Asia/SL
효용/NNG
##yjy/SL
##茂/SH
분과회/NNG
먹구름/NNG
유죄/NNG
영미/NNG
재배치/NNG
흥분/NNG
##대국/NNG
##주당/NNG
영업시간/NNG
터키/NNG
##down/SL
##주방/NNG
##설이/NNG
전문직/NNG
##란/NNG
##KTX/SL
흑임자/NNG
오웰/NNP
권했/VV+EP
##연초/NNG
탈진/NNG
샌드박스/NNP
##인플루엔자/NNG
올겨울/NNG
자구책/NNG
##bubble/SL
피닉스/NNP
Issue/SL
커리/NNP
포르/NNP
리바운드/NNG
rookiemagazine/SL
보낸다/VV+EC
해칠/VV+ETM
##ECTA/SL
##CAICT/SL
##ECO/SL
김은경/NNP
덜미/NNG
우린/NP+JX
성악/NNG
다가온다/VV+EF
되풀이/NNG
##에오스/NNG
##유청/NNG
우방/NNG
암초/NNG
CCP/SL
주실/NNG
리사이틀/NNG
##예고/NNG
첼로/NNG
##Mb/SL
강호성/NNP
임영호/NNP
##1700/SN
감이/NNG
비서/NNG
중공업/NNG
##자간/NNG
이어질지/VV+EC
##드립니다/VX+EF
##750/SN
끌어올릴/VV+ETM
##함평/NNP
##당도/NNG
##쉴/VV+ETM
내심/NNG
따랐/VV+EP
돌아간/VV+ETM
르노삼성/NNP
양은/NNG
##발광/NNG
##OLED/SL
jeonch/SL
##료/NNG
도마/NNG
관리관/NNG
허가제/NNG
운동부/NNG
금년도/NNG
로고/NNG
조용석/NNP
##제어/NNG
고석용/NNP
790/SN
##조/NNP
##붐/NNG
##펫/NNP
제반/NNG
##진다고/VX+EC
신효/NNG
##서민/NNG
1589/SN
돈세탁/NNG
##과잉/NNG
##동량/NNG
##렐라/NNP
##가리/VV
##엄/NNG
##샤/NNG
##위저드/NNP
##빛/VV
##채식주의자/NNG
##구운몽/NNG
번/VV+ETM
##역서/NNG
창비/NNP
##이적/NNG
##포가/NNG
자판기/NNG
컴/NNP
##매경/NNP
##128940/SN
흥국생명/NNP
대개/NNG
1982/SN
튀/VV
쓰일/VV+ETM
##.."]/SY
부담금/NNG
팔짱/NNG
시체/NNG
SKIET/SL
189/SN
박진회/NNP
##춤/NNG
##무/NNBC
##만엔/NNP
분/VV+ETM
몰아치/VV
스냅/NNG
청계산/NNP
뭔데/NP+VCP+EC
박차/VV
유상신/NNP
살바토레/NNP
빌라/NNP
체포/NNP
리셉션/NNG
예방법/NNG
대한의사협회/NNP
재앙/NNG
자위/NNG
##코가/NNP
##앤서니/NNP
불어나/VV
마셨/VV+EP
##으세요/EC
교감/NNG
##별의/NNG
생선/NNG
##쉬/NNG
##격투기/NNG
파이팅/IC
격투/NNG
충실/XR
##per/SL
편히/MAG
김관태/NNP
정경규/NNP
##중급/NNG
##NIM/SL
다지기/NNG
보증서/NNG
옮겨져/VV+EC+VX+EC
포스코건설/NNP
꾸려진/VV+EC+VX+ETM
본데/VV+EC
##종교/NNG
프라이버시/NNG
활기리/NNP
나간다면/VV+EC
고품/NNG
직행/NNG
모여서/VV+EC
##미/NNP
내고/NNP
불어났/VV+EP
##나머지/NNG
제/MM
불러온/VV+ETM
##편의점/NNG
이승로/NNP
며/EC
평가서/NNG
재연/NNG
고해상도/NNG
퀴어/NNP
예수/NNP
개신교/NNG
모셨/VV+EP
사랑과/NNP
난리/NNG
선동/NNG
가요/NNG
판시/NNG
르/NNG
##앙/EC
무지막지/XR
##설정/NNG
단체교섭/NNP
하계휴가/NNG
굿리치/NNP
빨랐/VA+EP
2263/SN
한지/NNG
##한데다/XSV+EC
##상장지수/NNP
신흥/NNP
##MICE/SL
##HD/SL
분발/NNG
군용기/NNG
##Olive/SL
노보/NNG
몬테로/NNP
아라곤/NNP
##다며/EF
가정용품/NNG
##불경기/NNG
불분명/XR
김민정/NNP
##휴게/NNG
##옥외/NNG
##소음/NNG
내려지/VV
##송주현/NNP
정은혜/NNP
##그간/NNG
잡아내/VV
마/NNG
##문화엑스포/NNP
이순용/NNP
##바람/NNG
##진작/NNG
KESLI/SL
협동/NNG
##래/NNP
##는다며/EC
이모/NNG
완도/NNP
##함영훈/NNP
배고픔/NNG
샌안토니오/NNP
스몰/NNP
고든/NNP
##2009/SN
진용/NNP
나설지/VV+EC
황혜경/NNP
국정원/NNP
흑/IC
##만대/NNG
##라고도/JKQ+JX
저택/NNG
몰수/NNG
연고지/NNG
미담/NNG
##허지웅/NNP
고국/NNG
박지환/NNP
##분과/NNG
##라이더/NNG
##국민체육진흥공단/NNP
121/SN
##건당/NNG
##착한/VA+ETM
460/SN
##偉/SH
세미/NNG
포진/NNG
##Consumer/SL
Electronics/SL
사피로/NNP
뭉치/VV
412/SN
중앙아시아/NNP
피아우이주/NNP
중서부/NNP
마투/NNG
아우/IC
룰라/NNP
두지/NNG
불식/NNG
채현/NNP
비단/MAG
##파가/NNG
##박사/NNG
##텐데/NNB+VCP+EC
##김경택/NNP
kissmaycry/SL
hjlee/SL
열의/NNG
For/SL
Only/SL
Republic/SL
Redistribution/SL
Prohibited/SL
rodongphoto/SL
##우/NNG
연단/NNG
신민재/NNP
##보안/NNP
##kim/SL
김정현/NNP
##645/SN
##공부/NNG
책상/NNG
##테리어/NNG
내림/NNP
##PPP/SL
진앙/NNG
유언비어/NNG
##투시/NNP
유압/NNG
하이테크/NNG
홍수/NNG
수해/NNG
##소와/NNG
한상길/NNP
##양파/NNG
##봐요/VX+EF
수려/XR
##전방/NNG
앞장설/VV+ETM
변함없이/MAG
##편당/NNG
##금형/NNG
##무선/NNG
골밑/NNG
사양/NNG
처럼/JKB
##교향악단/NNG
아크릴/NNG
노동력/NNG
##허위/NNG
유포/NNG
##한계/NNG
프랜시스/NNP
##생성/NNG
##무치/NNG
##인디애나/NNP
##켄터키/NNG
##명사/NNG
##초청/NNG
최대열/NNP
##형제/NNG
성균관/NNP
seaman/SL
성남아트센터/NNP
소믈리에/NNG
팝업/NNG
##2900/SN
광안리/NNP
##분산/NNG
##산농/NNG
##자급률/NNG
##무안/NNG
##할지/XSA+EC
김민주/NNP
문화공간/NNP
집착/NNG
김상용/NNP
##차체/NNG
1015/SN
교도/NNG
살아난/VV+ETM
##피터/NNP
리우/NNP
##북미/NNP
##중남미/NNP
교토/NNP
##2007/SN
위클리/NNP
사옥/NNG
즉석/NNG
##이야말로/JX
불길/NNG
교무/NNG
##조선호텔/NNP
spa/SL
##모씨/NNP
방파/NNG
소아/NNG
코믹/NNG
브레이스/NNP
##MLCC/SL
##ASP/SL
가나가와현/NNP
ppark/SL
천천히/MAG
명백히/MAG
##BUY/SL
박병모/NNP
스피릿/NNP
min/SL
##설계사/NNG
약관/NNG
호출/NNG
내서/NNP
##최기영/NNP
오토바이/NNG
적당/XR
712/SN
뉴트/NNP
##친/XPN
##9500/SN
##전후좌우/NNG
전후좌우/NNG
##상식/NNG
##193/SN
##안건희/NNP
루이/NNP
떴/VV+EP
진공/NNG
ddehg/SL
##島/XSN
##크림/NNG
##기림/NNG
동맹체/NNG
##칭이/NNG
DPA/SL
##상담소/NNG
차려/VV+EC
엄기두/NNP
최규식/NNP
##감리회/NNG
해방/NNG
깨달/VV
예금보험공사/NNP
##어린이집/NNG
##출소/NNG
##수형자/NNG
##횡/NNG
나태주/NNP
##피스/NNG
##오랜/MAG+JX
자부담/NNG
##비리/NNG
##나우/NNP
코칭스태프/NNG
##837/SN
##아일랜드/NNP
파국/NNG
빠뜨릴/VV+ETM
뒤쪽/NNG
청주/NNG
##형진/NNG
##김명룡/NNP
박형주/NNP
대주/NNG
Clean/SL
##소개/NNG
구스타보/NNP
##야간/NNG
##IP/SL
##삼척/NNP
##기프트/NNP
충성/NNG
지에/NNG
##낭과/NNG
임재희/NNP
##외곽/NNG
김은지/NNP
##씨/VA
2267/SN
##위주/NNG
부추길/VV+ETM
김동규/NNP
살펴본다/VV+EF
이동우/NNP
SF/SL
##부작/NNG
오차/NNG
##보사/NNG
채굴/NNG
분단국가/NNG
그린다/VV+EF
날리/VV
조은희/NNP
베조스/NNP
부호/NNG
##김해/NNP
허성/NNG
권기준/NNP
이겨냈/VV+EC+VX+EP
미뤄진/VV+EC+VX+ETM
띄운다/VV+EF
시뮬레이터/NNG
조선소/NNG
유역/NNG
##변국/NNG
##All/SL
##Digital/SL
장려상/NNG
##드림/NNP
반가운/VA+ETM
성악가/NNG
##모아/VV+EC
자화상/NNG
철광석/NNG
580/SN
염색/NNG
340/SN
모시/VV
그릇/NNG
##이랑/JC
여운/NNG
협동조합/NNG
떨어뜨리/VV
모티브/NNG
##탈시/NNP
힉스/NNP
외동/NNG
씩/NNG
##였으나/EP+EC
3102/SN
##게시판/NNG
rok/SL
##지킴이/NNG
##스테이지/NNG
Fair/SL
서약/NNG
유성온천역/NNP
러시아어/NNP
주어졌/VV+EP
연루/NNG
실체/NNG
흔드/VV
독과점/NNG
뷰어/NNG
##조영신/NNP
강압/NNG
합친/VV+ETM
밝힐/VV+ETM
김현정/NNP
##ssik/SL
kky/SL
##형용/NNG
##노수/NNG
김현아/NNP
중진국/NNG
모델링/NNG
식지/NNG
히로토/NNP
미츠/NNP
등록비/NNG
##래빗/NNG
##오디오/NNG
퇴조/NNG
딴/MM
재화/NNG
##갱생/NNG
비견/NNG
##예/IC
##엄중/XR
##진다/VX+EC
몰라/VV+EC
유병철/NNP
현금화/NNG
트러스트/NNG
##;)/SY
비등/NNG
삽입/NNG
IR/SL
##불/NNBC
##김정은/NNP
##무형/NNG
조중혁/NNP
조성호/NNP
김대엽/NNP
원이삭/NNP
박수호/NNP
판매고/NNG
웨이스트/NNP
##Zero/SL
픽셀/NNG
인문/NNG
이승진/NNP
드린다/VV+EF
퇴임/NNG
림프구/NNG
샤오미/NNP
##도한/NNG
##시그/NNP
##IBM/SL
안경/NNG
산학연/NNG
##슬/VV
##인자/NNG
4634/SN
##Integrated/SL
Train/SL
Testing/SL
Centre/SL
##ARS/SL
막막/XR
이건기/NNP
탕/NNG
효자/NNG
오포/NNG
김국현/NNP
##다과/NNG
수라간/NNG
상궁/NNG
##전기수/NNP
##쓸/VV+ETM
플라시보/NNP
함안/NNP
##경영비/NNG
프린터/NNG
뒷문/NNG
이민우/NNP
##박훈정/NNP
##여고/NNG
연극제/NNP
아폴로/NNP
kej/SL
궁궐/NNG
선조/NNG
왕의/NNG
서늘/XR
옥션/NNP
먹방/NNG
신선도/NNG
장바구니/NNG
쓱/MAG
173/SN
에버랜드/NNP
소나무/NNG
##애니멀/NNP
##유럽연합/NNP
바/NNB
미네소타주/NNP
새기/VV
자급률/NNG
여인/NNG
연재/NNG
##재원/NNG
##인출/NNG
엄격히/MAG
fact/SL
##더라면/EC
사설/NNG
유래/NNG
무주택자/NNG
하초/NNG
후임/NNG
절대/MAG
엔/NNP
온/NNG
sgkk/SL
함영구/NNP
물고기/NNG
##서/NNG
스킬/NNG
고토/NNG
래틀/NNG
##소셜/NNP
319/SN
에미/NNG
서대문/NNG
##방역대/NNG
##안과/NNG
##종별/NNG
##배드민턴/NNG
종별/NNG
배드민턴/NNG
##주지/NNG
##민회/NNG
김정훈/NNP
컴투스/NNP
속성/NNG
##6220/SN
HDD/SL
##점해/VV+EC
##주액/NNG
교과서/NNG
##등록증/NNG
##희종/NNG
##차기/NNG
엘리자베스/NNP
##용인시/NNP
툴/NNP
##감위/NNG
보호법/NNP
이동은/NNP
한의사/NNG
##통영/NNG
생산직/NNG
부다가야/NNG
설계도/NNG
분황사/NNG
마하/NNG
##보디/NNG
깨달음/NNG
로마켓/NNP
물음표/NNG
보험계약/NNP
다임러/NNP
강주헌/NNP
불어/NNG
버튼/NNG
덜기/NNG
금팔찌/NNG
좇/VV
장연/NNG
네타냐후/NNP
##참가/NNG
삭스/NNP
##분이/NNG
박동민/NNP
##에다가/JKB
파리/VV
센강/NNP
그늘막/NNG
연신/NNG
##본인/NNG
##나노미터/NNBC
서귀포시/NNP
숲길/NNG
의귀리/NNP
한남리/NNP
하효/IC
##체급/NNG
##최영남/NNP
##cyn/SL
##44550/SN
##밀폐/NNG+JX
어우러져/VV+EC
시그널/NNG
인가/VCP+EC
281/SN
##티지/NNP
알코올/NNG
앞세우/VV
##타/NNG
카스/NNP
강민구/NNP
coddy/SL
##병정/NNG
후평동/NNP
##페트로/NNP
##인우/NNG
차관보/NNG
검사기/NNG
떨어진다는/VV+ETM
뉴스쇼/NNG
반란/NNG
남북한/NNG
택했/VV+EP
동자동/NNP
양동/NNG
다크호스/NNG
뒤집힐/VV+ETM
변호인/NNG
funE/SL
##독전/NNG
악역/NNG
##엄태구/NNP
뒷모습/NNG
##페스타/NNP
##풍선/NNG
##이름/NNG
##와이프/NNG
사무기기/NNG
강경화/NNP
ICE/SL
상연/NNG
##현창민/NNP
##pressianjeju/SL
ahn/SL
조정래/NNP
핀업/NNP
##변호사/NNG
##한/NNB
정반/NNG
##출력/NNG
제이크/NNP
우드/NNP
이국/NNG
오락가락/MAG
##형강/NNG
크/IC
매드니스/NNP
##심위/NNG
설득력/NNG
##미치/NNG
2050/SN
대장경/NNG
부생/NNG
맥주/NNG
##베일리/NNG
신진호/NNP
횡보/NNG
##무장/NNG
시재/NNG
##연상/NNG
##매력/NNG
불러왔/VA+EC+VX+EP
##혐오/NNG
바른/VA+ETM
굽/VV
##해했/XSA+EC+VX+EP
이용수/NNP
##시범/NNG
맞선/VV+ETM
##해로운/VA+ETM
마리스/NNP
##해결/NNG
##보쌈/NNG
##족발/NNG
티아라/NNP
절단/NNG
연방수사국/NNP
느낌/MAG
봉화군/NNG
반두/NNG
콘테스트/NNG
에지/NNG
김아름/NNP
1003/SN
##법률안/NNG
김창렬/NNP
샌/NNG
조상호/NNP
달라/VA+EF
kkjoo/SL
##0912/SN
교구/NNG
##포메이션/NNG
명예훼손/NNP
맞고소/NNG
아라리/NNP
##복구/NNG
박영주/NNP
##정례/NNG
##CPU/SL
##호실/NNG
##계발/NNG
##핫/NNG
##다움/XSA+ETN
지음/NNG
돋보인다/VV+EF
##Seeds/SL
트레일러/NNG
도레이/NNG
임정우/NNP
솔/NNP
5700/SN
천재/NNG
솔비/NNG
##↑…/SY
##대양주/NNP
##직급/NNG
##리셔/NNP
오세중/NNP
845/SN
빨간불이/VA+ETM+NNG+JKS
##구족/NNG
사우샘프턴/NNP
##모카/NNP
자막/NNG
계룡산/NNP
통영시/NNP
파종/NNG
생겨서/VV+EC
밀려난/VV+ETM
디우프/NNP
러츠/NNP
이브/NNG
##고자/VCP+EC
##9800/SN
시달렸/VV+EP
날개/NNG
웨이브/NNP
쇠고기/NNG
##민속/NNG
바닷길/NNG
##운림/NNG
##산방/NNG
창유항/NNP
##하조/NNG
##썸/NNG
거리의/NNP
##촌지/NNG
##digital/SL
매출채권/NNP
##생/XPN
목공/NNG
리온/NNP
소모임/NNG
시지/NNG
박성철/NNP
##국당/NNP
##시흥/NNG
랭걸/NNP
##국무총리/NNG
SBI/SL
최종윤/NNP
퓨전/NNG
소노/NNG
##뒀/VV+EP
##분당/NNP
CT/SL
##이낙연/NNP
##담의/NNG
##%)·/SY
##코르/NNG
##샤론/NNP
##경산/NNG
합당/XR
등단/NNG
신념/NNG
##여신/NNG
플라스마/NNG
##포/NNBC
리빙/NNG
들어와서/VV+EC
##치우/VX
##살벌/NNG
##훈훈/XR
##코믹/NNG
칸타/NNP
두각/NNG
##지하철/NNG
잦아지/VV
세무사/NNG
무신/MM
하이엔드/NNP
##사양/NNG
##텐트/NNG
중량/NNG
##모티브/NNG
##강수계/NNG
요키/NNP
김민철/NNP
KAMA/SL
##돌리/NNP
##메트리/NNG
PSG/SL
살균력/NNG
##향상/NNG
이경호/NNP
##초시/NNG
##­/SY
노닐/VV
##삽시다/VV+EF
##401/SN
##로썬/JKB+JX
폭주/NNG
옌칭/NNP
##%↓)/SY
조상/NNG
##고요/NNG
청각/NNG
##사막/NNG
UFC/SL
##장학생/NNG
이종일/NNP
##명예/NNG
##스타즈/NNP
정옥주/NNP
##학기금/NNG
##바트/NNP
패트리/NNP
##시급/NNG
세이프넷/NNP
네안데르탈/NNG
##빙그레/NNP
보험업/NNG
창작품/NNG
##벤/VV+ETM
국영화/NNG
에이/IC
##이콜/NNG
##서인/NNG
##마차/NNG
박남춘/NNP
##권고문/NNG
소각/NNG
MAU/SL
시칠리아/NNP
830/SN
식목/NNG
카터/NNP
##변호/NNG
낙상/NNG
대공/NNG
##선행/NNG
식육/NNG
보철물/NNP
##교육사/NNG
주야간/NNG
##구본/NNG
##Feat/SL
담론/NNG
전민정/NNP
외국산/NNG
거문고/NNG
힐티/NNP
##포말/NNG
##NHK/SL
##파나마/NNG
JYP/SL
##애더/NNP
##찬/NNB+JX
##크리스마스/NNP
도봉구/NNP
원어/NNG
##양곡/NNG
레이싱/NNP
##마이스터/NNP
윈슬로우/NNP
##마침내/MAG
물들/VV
##SUMMER/SL
MADNESS/SL
명륜동/NNP
발포주/NNP
세븐/NNG
오비/NNG
roof/SL
그레그/NNP
파브레가스/NNP
오리건주/NNP
장재영/NNP
##당뇨병/NNG
수제/NNG
##관리원/NNG
국내산/NNG
##용어/NNG
##특별법/NNG
정교사/NNG
돌봐야/VV+EC
도맡/VV
이동식/NNP
##둔/VX+ETM
집행유예/NNP
사회봉사/NNG
깔따구/NNG
##공론/NNG
언론인/NNG
힘줘/VV+EC
##무한도전/NNP
##정우성/NNP
칵테일/NNG
올라가/VV+EC
##비해/VV+EC
447/SN
대웅/NNG
대행업체/NNG
전면전/NNG
1651/SN
옥천/NNG
##액티브/NNG
##파일/NNG
관망/NNG
이어진다면/VV+EC
##스타크래프트/NNP
식감/NNG
##갈비/NNG
##해와/XSV+EC+VX+EC
배나/NNP
만만찮/VA
##교총/NNP
줄다리기/NNG
##김병주/NNP
저탄소/NNG
##twomc/SL
##티엔티/NNG
교두보/NNG
##FOOD/SL
다가갈/VV+ETM
걸린다고/VV+EC
호러/NNP
판타지/NNG
##중략/NNG
cjyou/SL
##김대현/NNP
kun/SL
##5783/SN
착/MAG
##마르카/NNP
당혹/NNG
##우린/NP+JX
바램/NNG
##IPTV/SL
별관/NNG
박승대/NNP
##김나율/NNP
##고향/NNG
식혀/VV+EC
고즈넉/XR
바위/NNG
##관비/NNG
##에이치/NNG
달굴/VV+ETM
심심찮/VA
번질/NNG+JX
금물/NNG
되돌린다는/VV+ETM
짝/NNG
나눈다/VV+EF
vividhan/SL
노팅엄/NNP
##kimkija/SL
달라져야/VA+EC+VX+EC
목말라/VA+EC
##자영업/NNG
##미운털/NNG
박힌/VV+ETM
나바로/NNP
댄/NNG
보인다는/VV+ETM
##테즈/NNP
증식/NNG
HIV/SL
guspower/SL
운집/NNG
레너드/NNP
leekm/SL
하라/NNP
##양은/NNG
파마/NNG
##수티/NNG
제너릭/NNG
가한다/VV+EF
토픽/NNG
망포/NNG
환승/NNG
##가상현실/NNP
신월/NNG
##빙/MAG
효창/NNP
종목별/NNG
부대시/NNG
권순우/NNP
벤치마크/NNG
제련/NNG
징크/NNG
##크린/NNP
##엄청난/VA+ETM
##enormous/SL
destruction/SL
폭스/NNP
##쌀/NNG
가디언/NNP
방음벽/NNG
추운/VA+ETM
##독서/NNG
김나영/NNP
소수자/NNG
불러일으킨/VV+ETM
되새겨/VV+EC
##석이/NNG
투이/NNP
대구경/NNG
##진입로/NNG
##813/SN
##947/SN
##729/SN
##153/SN
건너간/VV+ETM
##진권/NNG
빚어진/VV+ETM
리프트/NNG
##버드/NNP
##Zoom/SL
##붓/VV
##육지/NNG
##원청/NNG
2700/SN
진솔/XR
생동감/NNG
일관된/NNP
북돋/VV
어떤가/MM+EC
텐데/NNB+VCP+EF
손색/NNG
직업인/NNG
고난도/NNG
4600/SN
4295/SN
밀알/NNG
폐막/NNG
배리/NNG
##3006/SN
##렉/NNP
##닉/NNP
cynical/SL
김병덕/NNP
##㎚/SY
##난의/NNG
비상계단/NNG
종적/NNG
##득/NNG
435/SN
관람료/NNG
아가/NNG
나바호/NNP
내리막/NNG
##질/NNG
평평/XR
자니/NNG
아녜스/NNP
허수아비/NNG
##北京/NNG
##파이/NNG
애용/NNG
##라면/NNG
새우/NNG
##콕/MAG
##프라이어/NNP
유효성/NNP
주교동/NNP
줄였으나/VV+EP+EC
##멀린다/NNP
정맥/NNG
어린아이/NNG
김준호/NNP
1993/SN
엑스포/NNG
##분명/NNG
켄터키/NNG
##온리/NNP
##병실/NNG
mumford/SL
언젠가/NP+VCP+EC
만능/NNG
그렸/VV+EP
대남/NNG
##굴종/NNG
무모한/NNG
달려가/VV+EC
부나비/NNG
나설수록/VV+EC
배격/NNG
##해진다는/XSA+EC+VX+ETM
힘든데/VA+EC
##전법/NNG
##상공인/NNG
에프/NNP
아워홈/NNP
##접대/NNG
내사/NNP
예정일/NNG
애국심/NNG
232/SN
##정태관/NNP
ctk/SL
##3312/SN
##햄튼/NNP
##피터스/NNP
스킵/NNG
세세뇽/NNP
트로이/NNP
패럿/NNG
##문평/NNP
##가단/NNG
##직접/MAG
고위층/NNG
realbighead/SL
메릴/NNP
헨드릭스/NNP
##완/NNP
추신수/NNP
슬라이더/NNG
##연승/NNG
##435/SN
##273/SN
##286/SN
버팔로/NNP
블라디미르/NNP
MVP/SL
터커/NNP
##마일/NNBC
##182/SN
김광/NNP
히메네스/NNP
잠재웠/VV+EP
내보냈/VV+EP
DH/SL
##레/NNG
##263/SN
##385/SN
##저/NNG
카이/NNP
하필/MAG
베이커/NNP
##싱커/NNG
샌디에이고/NNP
대타/NNG
샌디/NNP
타순/NNG
윌리/NNP
랜디/NNP
캐/VV
김형준/NNP
##폰세/NNP
치러진/VV+EC
##남시우/NNP
##정상진/NNP
##북극/NNG
##채희/NNG
미추홀대로/NNP
691/SN
졸음/NNG
##절의/NNG
두드리/VV
동과/NNG
반포동/NNP
사채/NNG
AAA/SL
141/SN
##호용/NNG
면역원성/NNG
클로닝/NNG
##색성/NNG
철책/NNG
##대해/VV+EC
##수욕/NNG
해수욕/NNG
##425/SN
##158/SN
찾아뵙/VV
##와서/VV+EC
##최희서/NNP
##줘서/VX+EC
slowlife/SL
##양평/NNG
구자관/NNP
안이/XR
##거품/NNG
##일렉트릭/NNP
932/SN
무료입장/NNG
정반대/NNG+VCP+EP
비언/NNG
##어극/NNG
##버벌/NNP
어린이극/NNG
새/VV
공업/NNG
하루하루/NNG
푸/IC
이상한/NNP
섣부른/VA+ETM
기약/NNG
돌아볼/VV+ETM
허술/XR
전시물/NNG
몸집/NNG
생명체/NNG
##한데요/XSA+EF
아일랜드/NNP
천장/NNG
##인류/NNG
외교통/NNG
##시진핑/NNP
김현환/NNP
최승우/NNP
##장르/NNG
홍보가/NNP
기색/NNG
전단/NNG
오/IC
##크루트/NNP
##해/XSA
hs/SL
##말레/NNP
윤주호/NNP
##합창단/NNG
퍼레이드/NNG
##셀프/NNG
아름다움을/VA+ETN+JKB+JKO
##이승훈/NNP
제발/NNG
신드롬/NNG
롯데시네마/NNP
로맨스/NNG
##지지/VV
던져/VV+EC
공공요금/NNG
위태/XR
흥미진진/XR
1115/SN
초라/XR
위급/XR
적재/NNG
외침/NNG
권덕철/NNP
종근당/NNP
##퍼시픽/NNG
##이력/NNG
내국/NNG
비정부/NNP
##스푸트니크/NNG
##미국인/NNG
##490/SN
퇴/NNG
기차/NNG
노/XPN
##채팅/NNG
건너/VV
빠져야/VV+EC
코놀리/NNP
분기점/NNG
김예나/NNP
##데크/NNP
응원단/NNG
활기찬/VA+ETM
##쿡/NNP
##쿡/MAG
##홈플러스/NNP
매개/NNG
닥칠/VV+ETM
돌봐/VV+EC
##조성신/NNP
robgud/SL
총망라/NNG
##유세진/NNP
우파/NNG
스텔라/NNP
보텀스/NNP
최고령/NNG
이규하/NNP
##Travellers/SL
Choice/SL
Awards/SL
##1050/SN
##％),/SY
자치단/NNG
구했/VV+EP
주무르/VV
##이원일/NNP
익힌/VV+ETM
송산리/NNP
##공모전/NNG
담백/XR
깨우친/VV+ETM
믿기/VV
펴내/VV
엮/VV
하한가/NNG
박상익/NNP
dirn/SL
파르/NNP
스왑/NNP
##광해/NNG
##HACCP/SL
쟁취/NNG
대수롭/VA
경보/NNG
울리/NP
도피/NNG
##요법/NNG
##kormedi/SL
##강습/NNG
향진/NNG
이원섭/NNP
회분/NNG
김범주/NNP
##u/SL
##3111/SN
##619/SN
##바로/MAG
면면/NNG
브루스/NNP
근원/NNG
##귓속말/NNG
만졌/VV+EP
##진상/NNG
응할/VV+ETM
##구주/NNG
명백/XR
확약/NNG
잘라/VV+EC
##359/SN
띕니다/VV+EF
##차입금/NNG
배당금/NNG
뭘까요/NP+VCP+EF
##직관/NNG
바랄/NNG
스쿼드/NNP
더그아웃/NNG
고독/NNG
지녔/VV+EP
강원/NNG
습지/NNG
최혁준/NNP
재작년/NNG
급락세/NNG
반등세/NNG
시사평론가/NNP
난간/NNG
부린/VV+ETM
고종/NNP
개항/NNG
##이가/EC
던킨/NNP
이랬/VV+EP
##박채/NNG
들여다/VV+EC
갈아치우/VV
금제품/NNG
##%…/SY
##묻/VV
미디/NNG
##shoonyi/SL
종말/NNG
##지위/NNG
##벌/NNG
##횡령/NNG
##성성/NNG
##헤지/NNG
##리치/NNG
김소현/NNP
##jay/SL
다가섰/VV+EP
할부/NNG
이의한/NNP
탄다/VV+EC
사려/NNG
털리도/NNP
양당/NNG
리치먼드/NNP
스파르탄/NNP
7600/SN
승전/NNG
독재자/NNG
만연/NNG
정답/NNG
양심/NNG
원로/NNG
##사회관/NNG
릴/NNG
##준수/NNG
##율의/NNG
스타일러/NNP
3244/SN
##배움/MAG
톰슨/NNP
##충돌/NNG
##마/IC
둔촌/NNP
골든/NNG
##비씨카드/NNP
이민영/NNP
체육계/NNG
바란다는/VV+ETM
##휴관/NNG
##샘/VV+ETN
##크래프트/NNP
##이송용/NNP
##단막/NNG
정무경/NNP
침산동/NNP
##㎡~/SY
찰스/NNP
##트래블/NNG
괴물/NNG
웰스/NNP
세인트/NNG
류형/NNG
rhy/SL
빈발/NNG
##시중/NNG
심해/VA+EC
변곡점/NNG
지구의/NNG
마사/NNP
muse/SL
##縣/NNG
강해졌/VA+EC+VX+EP
내정자/NNG
척수/NNG
##뇌손상/NNP
##골격계/NNG
홍진/NNG
##곱창/NNG
꽝남/NNP
뒤따르/VV
남긴다/VV+EF
지킨다/VV+EF
안트베르펜/NNP
이베이/NNP
호황/NNG
##완성/NNG
와야/VV+EC
당권/NNG
##MBC/SL
당원/NNG
상응/NNG
히스패닉/NNP
돌려놓/VV
임이자/NNP
##재택/NNG
##법과/NNP
김현준/NNP
엘스/NNP
##남아공/NNP
진취/NNG
데드/NNG
##5670/SN
폭도/NNG
##470/SN
##역시/MAJ
덧붙여/VV+EC
싸워/VV+EC
걸쳐서/VV+EC
당해/VV+EC
##만호/NNG
회의장/NNG
백혜련/NNP
##내수/NNG
##전혀/MAG
밀어붙이기/NNG
책무/NNG
##지도부/NNG
달래/VV
폭언/NNG
거동/NNG
견딜/VV+ETM
휴게실/NNG
가끔/MAG
교도소/NNG
호/NNG
불안전성/NNG
##옆/NNG
라/JKQ
김진호/NNP
##인은/NNG
배차/NNG
늘어납니다/VV+EF
##ATDPS/SL
##전자동/NNG
지네딘/NNP
파리/NNP
##생제르맹/NNP
##860/SN
##할아버지/NNG
돼요/VV+EF
##어린/VA+ETM
비닐/NNG
모셔/VV+EC
능숙/XR
돌보/NNG
생긴다면/VV+EC
될까/VV+EF
운전대/NNG
엄청나/VA
걸/NNG
만류/NNG
345/SN
##hymn/SL
##아랍에미리트/NNP
##이스라엘/NNP
힘써야/VV+EC
완제품/NNG
##남용/NNG
주원료/NNG
퀴아젠/UNKNOWN
한민수/NNP
hms/SL
뒤집/NNG
##져도/VX+EC
수그러들/VV+ETM
불러일으킬/VV+ETM
불어난/VV+ETM
쓸/VV
##환매/NNG
292/SN
이릅니다/VV+EF
##욕의/NNG
번식/NNG
840/SN
합성어/NNG
출몰/NNG
브루클린/NNG
사재/NNG
킴/NNP
##중순/NNG
##중고/NNG
오름/VV+ETN
9208/SN
받쳐/VV+EC
ikjo/SL
제쳤/VV+EP
실은/MAG
김동윤/NNP
에릭/NNP
거/IC
배달원/NNG
##로지스/NNP
바빴/VA+EP
더스틴/NNP
득실/NNG
##DISTANCE/SL
##Educational/SL
돔/NNP
다뤄야/VV+EC
힘차/VA
재도/NNG
페르난데스/NNP
hjn/SL
##디펜/NNP
파비안/NNP
로만/NNG
루카/NNP
##연습/NNG
스케이트/NNG
갈래/VV+EF
김광석/NNP
jjyoon/SL
밝혔으며/VV+EP+EC
오스틴/NNP
1951/SN
##촌/NNBC
산화/NNG
385/SN
성동구/NNP
가로지르/VV
##저성장/NNG
##↑,/SY
유산균/NNG
프라이빗/NNG
##직접/NNG
빈약/NNG
그런지/VA+EC
##수송/NNG
##패자/NNG
##검/NNG
정규장/NNP
OPEC/SL
늘린다/VV+EF
상한선/NNG
YCC/SL
한파/NNG
체외/NNG
##ATM/SL
기지국/NNG
테라/NNG
##택/NNG
유재희/NNP
시네/VV+EP+EC
##학설/NNG
##지자/NNG
##클/VA+ETM
##타이어/NNG
211/SN
소급/NNG
##범/XPN
앞당기/VV
##단지/MAG
김주영/NNP
온전/XR
전혜숙/NNP
엄중히/MAG
##케이스/NNG
##락다운/NNP
##경제학상/NNP
산다는/VV+ETM
여명/NNG
##살/VV+ETM
##덴/NNB+JKB+JX
##서울역/NNP
부천시/NNP
보탤/VV+ETM
판가/NNG
##제곱미터/NNBC
##연간/NNG
장규석/NNP
군용/NNG
##시작/NNG
##아이즈/NNP
무한정/NNG
##자기/NP
##격인/NNG
##242/SN
이동금/NNP
##항인/NNG
##강진/NNG
##307/SN
##730/SN
읽힌다/VV+EF
##6707/SN
7834/SN
8873/SN
오너/NNG
걸립니다/VV+EF
##FOMO/SL
out/SL
##낙/NNG
##시일/NNG
경산/NNG
##김국현/NNP
뜬/VV+ETM
##동아닷컴/NNP
##고스/NNP
##체/NNP
후쿠오카/NNP
psy/SL
406/SN
##대체/NNG
찾아내/VV+EC
곧장/MAG
yisr/SL
##납부/NNG
##찬/VV+ETM
이매동/NNP
미스/NNG
날/NP+JKO
듬뿍/MAG
그림책/NNG
##댐/NNG
##굽/NNG
무승부/NNG
##니스트/NNP
긋/VV
임지선/NNP
##한림원/NNG
김병수/NNP
미친다/VV+EC
농산/NNG
뭉쳤/VV+EP
엿/NNG
노렸/VV+EP
##해운대/NNG
였/EP
##습의/NNG
482/SN
##건위/NNG
##게/NNG
션/NNG
재능/NNG
후반부/NNG
##마땅/XR
준결승전/NNG
교수법/NNG
##교육회/NNG
##실시/NNG
##155/SN
##박정규/NNP
fob/SL
한솔제지/NNP
견고/NNG
교전/NNG
##금과/NNG
##인하/NNG
1372/SN
##상임/NNG
외빈/NNG
##청비/NNG
##체인징/NNP
##신과/NNG
내재/NNG
##제정/NNG
##이남/NNG
한종수/NNP
꺾였/VV+EP
##이정현/NNP
리제/NNP
사교/NNG
normal/SL
오정인/NNP
양양군/NNG
##MVP/SL
##감각/NNG
빅맨/NNP
르브론/NNP
건재/NNG
다쳤/VV+EP
재래/NNG
##원금/NNG
##유니콘/NNG
##고배/NNG
Jazz/SL
Week/SL
송영주/NNP
서영도/NNP
##신현필/NNP
##조재범/NNP
성수동/NNP
##티세/NNP
북촌/NNG
한옥/NNP
첼리스트/NNG
##HOM/SL
##피닝/NNG
##울프/NNP
성수/NNG
아티스트/NNP
구획/NNG
기울인다는/VV+ETM
편중/NNG
판도/NNG
동화약품/NNP
필로/NNP
##위서/NNG
들쭉날쭉/MAG
적반하장/NNG
소매점/NNG
풍속도/NNG
당일치기/NNG
스트레칭/NNG
진급/NNG
저마다/NNG
이솔/NNP
대꾸/NNG
대산문화재단/NNP
##석강/NNG
옳다/IC
hyj/SL
##박쥐/NNG
펜실베이니아/NNP
마시/NNG
##바이올로지/NNG
주뉴/NNG
##질랜드/NNG
문양/NNG
데님/NNG
웰빙/NNP
##시에/NNP
수작/NNG
##문화부/NNG
pjw/SL
박종원/NNP
조슈아/NNP
웡/NNP
정한다/VV+EF
##청문/NNG
##부액/NNG
IDC/SL
아제르바이잔/NNP
이지영/NNP
##jiyoung/SL
스플릿/NNG
주저앉/VV
임시회/NNG
##지도자/NNG
읍/NNG
부시/NNP
새만금/NNP
높인다/VV+EC
##지점/NNG
투석/NNG
콘크리트/NNG
파편/NNG
장례/NNG
아베노/NNP
후생노동성/NNP
ck/SL
내몰린/VV+ETM
펴/VV+EC
##귤/NNG
기대치/NNG
##SKIET/SL
언제/MAG
##5122/SN
서울우유/NNP
##서울우유/NNP
윤석열/NNP
경실련/NNP
##+'/SY
##+(/SY
##539/SN
기리/VV
사지/NNG
##꾸/VV
##연못/NNG
jjang/SL
##로/EC
##seantour/SL
##트론/NNG
##이온/NNG
메르세데스/NNP
CATL/SL
##1100/SN
서혜란/NNP
Digital/SL
간사이/NNG
통신원/NNG
세/VA
##흠/NNG
##’”/SY
천명/NNG
전가/NNG
소란/NNG
비우/VV
다닥다닥/MAG
##호이/NNP
##질/EC+JKO
어려워질/VA+EC+VX+ETM
##자국/NNG
불가리아/NNP
##교/NNBC
지터/NNG
yjra/SL
##히/IC
대진/NNG
신환/NNG
FICC/SL
휴전/NNG
유난히/MAG
##데드/NNG
크로스/NNG
타이거/NNG
##베터/NNP
1543/SN
##bottom/SL
##단/MAJ
키친/NNG
##개입/NNG
눌러/VV+EC
창당/NNG
달리기/NNG
명작/NNG
Rapid/SL
kit/SL
dschoi/SL
최두선/NNP
편차/NNG
고민거리/NNG
##118/SN
세스/NNP
레벨/NNG
환상/NNG
##성행/NNG
##경기자/NNG
강제노동/NNP
김봄/NNP
bom/SL
##ADL/SL
##다던/EC
##3300/SN
##나흘/NNG
##오오/NNG
사이드/NNP
##통사/NNG
김효정/NNP
##범죄인/NNG
잠자리/NNG
친척/NNG
##적/VA
음악가/NNG
##십의/NNG
##그/EC
불철주야/NNG
소염/NNG
성희롱/NNG
철인/NNG
가혹/NNG
대담/XR
##6926/SN
##전청/NNG
##6883/SN
kysplanet/SL
##국고/NNG
예결/NNG
yjkim/SL
##우위/NNG
최창환/NNP
故/SH
##파크텔/NNP
##주소/NNG
##최창환/NNP
maxwindow/SL
##수집/NNG
##파동/NNG
##하원/NNG
181/SN
##스마트/NNP
##자발/NNG
문화일보/NNP
유서/NNG
힘찬/VA+ETM
##아래/NNG
걸까요/NNB+VCP+EF
##셔야/EP+EC+VX
##본격/NNG
깎아내리/VV
우크라/NNP
##우하/VA
위즈덤/NNP
매니지먼트/NNG
풀백/NNG
아탈란타/NNG
##us/SL
##꾸러미/NNG
와이파이/NNP
아메리카노/NNP
##이혜미/NNP
##나자/NNG
##쿼터/NNG
##충분/XR
##흡수성/NNG
광주광역시/NNP
##CAPEX/SL
withsuu/SL
##티스/NNP
##바를/NNG
무용/NNG
견뎌/VV+EC
흔들렸/VV+EP
승부차기/NNG
484/SN
선종/NNG
##로비스/NNP
유이치/NNP
산악자전거/NNG
페달/NNG
흡입/NNG
그레타/NNP
툰베리/NNG
1038/SN
OLED/SL
신음/NNG
##한다면/VV+EC
##벤/NNP
##비카/NNP
##사유리/NNP
붙였/VV+EP
붐/NNG
간단히/MAG
##새/MM
##SUMMEREST/SL
##카카오/NNP
늪/NNG
헤어/NNG
찾기/NNP
文/NNG
##사제/NNG
##갈등/NNG
##던데/EC
아냐/IC
##무시/NNG
##비도/NNG
취해질/VV+EC+VX+ETM
##떡/NNG
##1970/SN
이동준/NNP
임신부/NNG
##초급/NNG
##웃사랑/NNG
김윤/NNP
##동행/NNG
미시시피/NNP
CDC/SL
되돌려/VV+EC
캐스터/NNG
쇠퇴/NNG
없애/VV+EC
##스태프/NNG
비대/NNG
##육체/NNG
##연구실/NNG
춘란/NNG
로망/NNG
박정선/NNP
아리랑/NNG
##윅/NNP
브레/NNP
투발/NNG
윤성훈/NNP
쑥/NNG
##텐/NR
##CS/SL
namy/SL
##급과/NNG
중첩/NNG
설교/NNG
출교/NNG
##라든지/EC
성직자/NNG
##군요/VCP+EF
가시/VV
자행/NNG
기독/NNG
##시켜서/XSV+EC
가진다/VV+EF
없앨/VV+ETM
넘겨진/VV+EC+VX+ETM
문예/NNG
도미닉/NNP
도의/NNG
반대편/NNG
교육위/NNP
미온/NNG
##영동군/NNG
##플래닛/NNP
##수준의/NNG
다가서/VV
##이태석/NNP
KODEX/SL
1960/SN
USB/SL
청신호/NNG
##러브/NNG
기대/VV
ANVISA/SL
##전역/NNG
##시공/NNG
토의/NNG
취해야/VV+EC
##퇴근길/NNG
틈새/NNG
##경철/NNP
임성재/NNP
##북아일랜드/NNP
화단/NNG
뒷면/NNG
드롭/NNG
그린/NNG
##5589/SN
##수인/NNG
252/SN
##2668/SN
218/SN
수출국/NNG
족쇄/NNG
쉰다는/VV+ETM
##jung/SL
묵인/NNG
팔려/VV+EC
색감/NNG
##tenasia/SL
보령/NNG
글귀/NNG
##지역인/NNG
붓/VV
##KISTI/SL
입자/NNG
김재수/NNP
빗물/NNG
담벼락/NNG
대문/NNG
보성/NNP
양승조/NNP
이앙/NNG
교배/NNG
##미와/NNP
##여태/MAG
수자원/NNG
333/SN
##농약/NNG
##벼/NNG
하든/NNP
야수/NNG
임종석/NNP
결정력/NNG
##도자/NNG
학예/NNG
1918/SN
1955/SN
슬픈/VA+ETM
원형/NNG
UNIST/SL
##장지승/NNP
jjs/SL
미첼/NNP
손목/NNG
##중등/NNG
맡긴/VV+ETM
아바/NNG
최진/NNP
PT/SL
정지형/NNP
kingkong/SL
##대한요트협회/NNP
박진감/NNG
저명/NNG
이와테/NNP
##岩/SH
##手/NNG
고투/NNG
##온스/NNG
프로그래밍/NNG
빨라진/VA+EC+VX+ETM
1531/SN
횡성/NNP
쑥쑥/MAG
다질/VV+ETM
이나시우/NNP
시우바/NNP
##618/SN
방인권/NNP
pch/SL
쓴다/VV+EF
##전소/NNG
##했어야/XSV+EP+EC
##시체/NNG
의정/NNP
작계/NNG
##재/VCP+EC
##슬립/NNG
##기항/NNG
##순찰대/NNG
카페리/NNG
박희영/NNP
양희영/NNP
##9133/SN
##인테리어/NNG
##결식/NNG
##나스닥/NNG
유나이티드항공/NNP
스파이/NNG
모건/NNP
##사업체/NNG
##각서/NNG
이재민/NNP
심혈/NNG
현시점/NNG
다문화가정/NNP
홍준석/NNP
##RPK/SL
편수/NNG
honk/SL
##0216/SN
590/SN
척이/NNG
콘서트홀/NNG
멘델스존/NNP
##필/NNG
##에디/NNP
##슬/VV+ETM
##COVE/SL
메신저/NNG
##바라/VV
평탄/NNG
효험/NNG
sisyphe/SL
an/SL
두텁/VA
연주가/NNG
우석/NNP
관학/NNG
도비/NNG
EBS/SL
##서철/NNG
펭/NNG
진출로/NNG
샤이/NNP
필/VV+ETM
모순/NNG
##영암/NNP
##신안/NNG
곡물/NNG
평시/NNG
농어/NNG
##남과/NNG
변한/NNG
##2359/SN
##이혼/NNG
장재훈/NNP
스카이라운지/NNG
골프클럽/NNP
작심/NNG
##위상/NNG
유화/NNG
입영/NNG
##온난화/NNG
사투리/NNG
##제한/VV+ETM
##열의/NNG
뚫린/VV+ETM
##선인/NNG
않아/NNP
##이방인/NNG
##청소/NNG
▲'/SY
둘러봤/VV+EP
skpark/SL
전투력/NNG
##태안/NNG
외환보유고/NNP
##3932/SN
해역/NNG
##영주/NNG
##1861/SN
##인가/VCP+EF+VCP
그래/VA+EC
##음의/NNG
이현정/NNP
##웨이트/NNG
##대립/NNG
컨테이너선/NNG
단가/NNG+VCP+EC
적층/NNG
##세라믹/NNG
##커패시터/NNG
UNWTO/SL
##지심/NNG
병원장/NNG
##최원혁/NNP
김선갑/NNP
choigo/SL
##3800/SN
##환급금/NNG
##임형/NNG
##부의장/NNG
imne/SL
홍예/NNG
##성인/NNG
고구마/NNG
##협동/NNG
빈곤/NNG
##다이아몬드/NNG
살려야/VV+EC
##전효진/NNP
##850/SN
중남부/NNP
간병인/NNG
착륙/NNG
442/SN
인절미/NNG
옥석/NNG
심할/VA+ETM
버클리/NNP
##연호/NNG
##UAE/SL
##토르/NNG
##7100/SN
어깨동무/NNG
##밀워키/NNP
ideaed/SL
약보합/NNG
##려니/EC
가르쳐/VV+EC
부수/VV
할인율/NNG
무효/NNG
달아오른/VV+ETM
애칭/NNG
##어린이재단/NNP
##양안/NNG
kirimi/SL
임택/NNP
##매직/NNG
얄팍/XR
국토연구원/NNP
##z/SL
##원서/NNG
평택시/NNP
Zone/SL
살아날/VV+ETM
돌아서/VV
어겼/VV+EP
상거래/NNG
저울/NNG
##동지/NNG
김연수/NNP
코칭/NNP
우익/NNG
##유재동/NNP
jarrett/SL
##교주/NNG
##해적단/NNG
평했/VV+EP
##켈로그/NNP
##해경/NNG
회전/NNG
변론/NNG
컬처/NNG
쫓기/VV
시신/NNG
##동부/NNG
방역망/NNG
제이알/NNP
samuel/SL
##날지/VV+EC
갇혀/VV+EC
햇빛/NNG
선글라스/NNG
프레임/NNG
벤/NNP
멋/NNG
##Valneva/SL
hub/SL
승패/NNG
앙금/NNG
험난/XR
##270/SN
##693/SN
크리스토프/NNP
##공문/NNG
##본사/NNG
##모씨/NNG
##탈북자/NNG
##근본/NNG
##스트라이크/NNG
##랴오닝/NNG
324/SN
김홍섭/NNP
##1995/SN
##권진/NNG
302/SN
##거대/NNG
빅리그/NNP
blooming/SL
사드/NNP
##고고/NNG
##방어/NNG
피코/NNG
##피코/NNG
##CMO/SL
##경마장/NNG
##중심지/NNG
##문명/NNG
2258/SN
##기축/NNG
라파엘/NNP
##띠/NNG
유례없/VA
서울광장/NNP
살/VV+ETM
스릴러/NNG
유수/NNG
##캐/VV+ETM
##프리오/NNP
1858/SN
재가동/NNG
##유로/NNG
주둔/NNG
##방배/NNG
##내곡/NNP
갖출/VV+ETM
##용기/NNG
사유지/NNG
##오페라/NNG
빠짐없이/MAG
엘리/NNP
##투호/NNG
유의미/NNG
조명래/NNP
투르/NNP
##나바/NNP
##문인/NNG
집결/NNG
입선작/NNG
##카오산/NNP
김경훈/NNP
독일어/NNG
##관념/NNG
사이클/NNG
김가을/NNP
최저가/NNG
신상/NNG
##기강/NNG
도리어/MAJ
김영수/NNP
argos/SL
교육장/NNG
##키오스/NNP
물감/NNG
어김없이/MAG
싱싱/XR
줘서/VV+EC
공헌/NNG
유병재/NNP
재전송/NNG
실존/NNG
휩쓴/VV+ETM
닦/VV
슈완/NNP
##즈/NNP
외연/NNG
##감자/NNG
거처/NNG
합격자/NNG
박제철/NNP
##발진/NNG
실트/NNG
##급유기/NNG
##림/NNG
허벅지/NNG
박민지/NNP
##korea/SL
##기일/NNG
들어도/VV+EC
이투/NNG
##탈/NNP
노트/NNG
열린다고/VV+EC
피난/NNG
##단체장/NNG
박세복/NNP
상부/NNG
##장년/NNG
캠퍼스/NNP
기법/NNG
돌연변이/NNG
맥켄지/NNP
##알렉산더/NNP
설립자/NNG
##與/NNG
규명/NNG
박모/NNG
빌렸/VV+EP
역차별/NNG
##수와/NNG
예배당/NNG
개월/NNBC
##035/SN
전성훈/NNP
lucho/SL
##역증/NNG
수난/NNG
##간다는/VV+ETM
구이/NNG
영도/NNG
##겟/EP
##여종/NNG
김희준/NNP
##060/SN
##르/NNP
##274/SN
##열린/VV+ETM
WTO/SL
색칠/NNG
싶어요/NNP
##조회/NNG
##겐/JKB+JX
##Hiroto/SL
Mitsugi/SL
##카/NNP
##Peter/SL
Csoka/SL
##자본주의/NNG
##내수/NNP
##공황/NNG
아랍어/NNP
길목/NNG
부유/NNG
STN/SL
##합니다/XSV+EC+VCP
##파와/NNG
가스공사/NNP
악순환/NNG
감경/NNG
사자/NNG
##골드선/NNP
엘르/NNP
Hoody/SL
##敏/SH
##充/SH
네트/NNG
인내심/NNG
박지현/NNP
waste/SL
##컨텐츠/NNG
허용도/NNP
##동아/NNP
##임식/NNP
##말린스/NNP
##ㆍ롯데/UNKNOWN
##기협/NNG
##란/VCP+ETM
메리트/NNG
달라진다/VV+EF
짜리/NNG
##티비/NNG
##해커/NNG
##DT/SL
피팅/NNP
##이중/NNG
알람/NNP
이홍석/NNP
##redstone/SL
내야수/NNG
외야수/NNG
뒤흔들/VV
##유소연/NNP
보정/NNG
강행군/NNG
사상가/NNG
km/SL
기다려야/VV+EC
끊겼/VV+EP
통틀/VV
경이/NNG
원고/NNG
조나단/NNP
##브리/NNP
##하만/NNG
##바쁜/VA+ETM
##GAVI/SL
잎/NNG
약하/VA
신중섭/NNP
##사슬/NNG
##4700/SN
##옥천/NNG
옥천군/NNG
Competition/SL
##우스/NNG
##모니터링/NNG
##인용/NNG
실험실/NNG
##규명/NNG
최문순/NNP
이쪽/NP
거지/NNG
##냐면/EC
물어야/VV+EC
porque/SL
##전파/NNG
##탁족/NNG
##왕세자/NNG
지은/NNG
계곡/NNG
주악/NNG
원소병/NNG
약밥/NNG
##물방/NNG
밀/NNP
오수희/NNP
osh/SL
##9981/SN
##클립/NNG
##EB/SL
형의/NNG
이윤이/NNP
여제/NNG
천공병/NNG
농사/NNG
##봄철/NNG
새겼/VV+EP
##얼마나/MAG
##How/SL
얇/VA
하얀/VA+ETM
##0514/SN
김용훈/NNP
##초량/NNG
##동일/NNG
##양산/NNG
市/NNG
##가점/NNG
##2024/SN
등/NNB
일반직/NNG
##무게/NNG
윤태호/NNP
천동/NNG
##내부/NNG
URL/SL
다비/NNG
##이모/NNG
##손자/NNG
##거의/NNG
##장성/NNG
전통주/NNG
멸종/NNG
##은어/NNG
##종위/NNG
##기종/NNG
##1004/SN
설명서/NNG
WNBA/SL
380/SN
비올라/NNG
비올/NNG
설명도/NNG
##유니온/NNP
##001/SN
제공권/NNG
장종호/NNP
bellho/SL
##정가/NNG
문석진/NNP
##할지/XSV+EF
##단식/NNG
##연고/NNG
시민군/NNP
##재테크/NNG
패널로/NNP
일으킨다/VV+EF
##유지한/NNP
jhyoo/SL
전설/NNG
덱/NNG
최철/NNP
##디스크/NNG
매립/NNG
소설가/NNG
콤바인/NNG
웅/NNG
##톱/NNG
숙취/NNG
레디/NNP
##실무/NNG
사감/NNG
##고양/NNG
##착할/VA+ETM
##축비/NNG
스무/MM
##보위/NNG
~/SY
섬세/XR
신진/NNG
최남수/NNP
개인전/NNG
##회화/NNG
생산력/NNG
돌아가/VV+EC
좌완/NNG
##신정훈/NNP
##례/NNG
##음직/EC
경제난/NNG
기민/NNG
##352/SN
우월/NNG
##약령시/NNG
##815/SN
##뉴클레오시드/NNG
추산/NNP
시골/NNG
도나/NNP
##Edge/SL
꺼려/VV+EC
3600/SN
줄게/VV+EC
오/VV+EC
습격/NNG
몰래/MAG
저지/NNP
액/NNG
칼로리/NNG
스파클/NNP
기댈/VV+ETM
값싼/VA+ETM
절도/NNG
보랏빛/NNG
##휴/IC
##역이/NNG
디미트로프/NNP
심경/NNG
##찰옥수수/NNG
##놀이터/NNG
##프라자/NNP
권혁운/NNP
##005690/SN
헤이먼/NNP
##발효/NNG
낙농/NNG
##혹시/MAG
##윤정원/NNP
김정연/NNP
##My/SL
##스킨/NNG
해남군/NNG
##전사/NNG
236/SN
혼잡/NNG
튀/NNG
간다는/VV+ETM
아무튼/MAJ
잇/NNG
여사/NNG
##중기업/NNG
김지연/NNP
No/SL
백군기/NNP
##731/SN
택한/VV+ETM
4300/SN
신입생/NNG
##반수/NNG
양대/NNG
SaaS/SL
##스텔라/NNP
##007/SN
아동학/NNG
##겨울/NNG
흘러간/VV+ETM
##입니다/EP+EF
##9634/SN
출생지/NNG
##정수장/NNG
이원/NNG
##韓/NNG
너스레/NNG
##예능/NNG
##가평/NNG
##PB/SL
##퍼펙트/NNG
베이식/NNG
제천/NNP
테크놀로지/NNG
##급자/NNG
돌려보내/VV
##귀향/NNG
##비법/NNG
월경/NNG
마주치/VV
##끼/NNBC
수건/NNG
##생각/NNG
##국수전/NNG
은밀히/MAG
##지파/NNG
##보혜사/NNG
목자/NNG
와해/NNG
##종말/NNG
윤재덕/NNP
착잡/XR
총기/NNG
아담/NNP
담양군/NNG
guest/SL
##Night/SL
Paradise/SL
터질/VV+ETM
조인영/NNP
##ciy/SL
부산광역시/NNP
꾸며질/VV+EC+VX+ETM
재가/NNG
비웃/VV
##으세요/EF
##웃/VV
말렸/VV+EP
역정/NNG
휴머/NNP
윤활/NNG
##기유/NNG
##7821/SN
##나요/EC
##읽/VV
쓰시/NNG
빠져나가/VV
낸시/NNP
펠로시/NNP
맞잡/VV
WTI/SL
##오늘/MAG
##뉴스룸/NNP
여직/MAG
##스터디/NNP
##면식/NNG
강소/NNG
##경제자유구역/NNP
##마카오/NNP
outbreak/SL
월가/NNG
과테말라/NNP
1882/SN
에디슨/NNP
내야/NNG
##강판/NNG
##영입/NNG
천차만별/NNG
##RBD/SL
운반/NNG
##궤도/NNG
낚시/NNG
RDT/SL
##백의/NNG
분청/NNG
버려/VV+EC
지성/NNG
##준/NNG
익스플로러/NNP
데이리/NNP
늦춘/VV+ETM
##건설사/NNG
허물/VV
##여의도/NNP
##남대문/NNP
대작/NNG
##왓치맨/NNP
가치주/NNP
모욕/NNG
울림/NNG
옮김/VV+ETN
닭다리/NNG
찢/VV
바비큐/NNG
##단/EC
히어로/NNG
##설치/NNG
청산리/NNG
막중/NNG
극한/NNG
파이브/NNG
388/SN
강탁/NNP
씨도/NNG
신선미/NNG
건강보험공단/NNP
##대별/NNG
ks/SL
도당/NNG
신호탄/NNG
구축함/NNG
키즈카/NNP
ㄱ/NNG
수동/NNG
시드니/NNP
##식사/NNG
차츰/MAG
선단/NNG
상사/NNG
체지방/NNG
김희선/NNP
##229/SN
무상급식/NNP
회/MAG
내성/NNP
kimhj/SL
미래사/NNG
##저인/XSN+VCP+ETM
시킬/VV+ETM
필/NNG
처사/NNG
호원/NNP
단단히/MAG
##대한/NNP
##KDJ/SL
##ACE/SL
1962/SN
근현/NNG
##mom/SL
HOOXI/SL
예단/NNG
##감찰/NNG
##언론사/NNG
##클리닉/NNG
수현/NNP
##주차장/NNG
AC/SL
갤럽/NNG
퇴사/NNG
##굿/NNP
##디가/NNP
##명동/NNG
튜닝/NNG
화소/NNG
##GB/SL
디자이너/NP
##뜰/NNG
소파/NNG
##아웃도어/NNG
##소세/NNG
##전증/NNG
##강세/NNG
유승민/NNP
##Green/SL
화학사/NNG
##계인/NNG
임용수/NNP
##라이언/NNP
##퍼트/NNG
활짝/MAG
##쪽/MAG
##티키/NNP
##타카/NNP
##지를/VV+ETM
팔불출/NNG
부러움/VA+ETN
##법정/NNG
김태호/NNP
##울진/NNP
지대/NNG
##독/NNG
##음악극/NNG
##벨기에/NNP
큰일/NNG
수학여행/NNG
팟/NNG
영봉/NNG
##노인회/NNG
김상수/NNP
개장식/NNG
##냉장실/NNG
이상익/NNP
확대도/NNG
대표단/NNG
일회용/NNG
##이상현/NNP
##choi/SL
최창원/NNP
##부스/NNG
정적/NNG
동일점/NNG
##오법/NNG
줄기세포/NNG
368/SN
애착/NNG
UP/SL
관록/NNG
인선/NNG
##저녁/NNG
한송/NNP
목가구/NNG
도제/NNG
##손실액/NNG
□/SY
자금난/NNG
곰/NNG
##스투어/NNP
째보/NNG
##선창/NNG
김영종/NNP
##난이/NNG
##항도/NNG
비속어/NNG
##려다/EC
덴마크/NNP
이현/NNP
빌릴/VV+ETM
##클루/NNP
##시브/NNG
##세인/NNG
헌법재판/NNP
##요/EC
수술대/NNG
3594/SN
1351/SN
조석/NNG
##채워/VV+EC
뜨거워/VA+EC
지지가/NNP
대한병원협회/NNP
##팀원/NNG
국립보건연구원/NNP
1948/SN
청도/NNG
##전동/NNG
그쪽/NP
##연방/NNG
구름/NNG
저작권법/NNG
##성전/NNG
##134/SN
##이유/NNG
마법/NNG
##쥬/EC
용적/NNG
##으셨/EP+EP
뻔했/VA+EP
색조/NNG
바지락/NNG
던질/VV+ETM
이모티콘/NNG
두류역/NNP
##그런데/MAJ
디스/NNP
유니클로/NNP
##쿨/NNP
조르다노/NNP
sunwoo/SL
##의자/NNG
마찬가집니다/NNG+VCP+EF
##하고/JC
##車/NNG
##포천시/NNP
박윤국/NNP
##석탄/NNG
밑반찬/NNG
폭격/NNG
##판다/NNG
몰/XPN
발이/NNG
Xbox/SL
장경/NNG
##염증/NNG
공놀이/NNG
아동복/NNG
유가족/NNG
##fsale/SL
도장/NNG
##김포/NNP
일간지/NNG
딱딱/XR
지치/VV
강류/NNG
샤오밍/NNP
듀폰/NNP
##니어/NNG
##Dupont/SL
Pioneer/SL
몬산토/NNP
##Monsanto/SL
Seeds/SL
박준성/NNP
##예총/NNG
312/SN
##대교/NNP
청송군/NNG
195/SN
조동철/NNP
농성/NNG
개이/NNG
##우드/NNP
yycub/SL
여쭤/VV+EC
산수국/NNG
이효리/NNP
고시원/NNP
##003/SN
##갔으나/VV+EP+EC
의령/NNP
하이/NNG
##재부/NNG
장기영/NNP
고창군/NNG
컨셉/NNG
숙식/NNG
찾아와/VV+EC
치러져야/VV+EC+VX+EC
##조정기/NNP
두드러져/VA+EC
구자/NNG
당겨/VV+EC
연합체/NNG
##구례/NNG
네안데르탈인/NNG
청와/NNG
펴낸/VV+ETM
##경로당/NNG
##↓,/SY
##정시/NNG
녹색교통/NNP
##중개/NNG
배민/NNG
욕실/NNG
매립지/NNG
##4203/SN
##자격증/NNG
노란색/NNG
786/SN
배움/VV+ETN
지드래곤/NNP
가호/NNG
음악회/NNG
굴레/NNG
청/NNP
강력/NNG
lionking/SL
##㎏)/SY
월곳리/NNP
타월/NNG
경동나비엔/NNP
연석회의/NNG
알뜰/NNG
조니/NNP
##포레/NNP
##넥스트/NNP
일사병/NNG
크래커/NNG
오영수/NNP
##야행/NNG
최종천/NNP
##목사/NNG
##소규모/NNP
김호중/NNP
석차/NNG
-[/SY
장욱진/NNP
##블리/NNP
김세진/NNP
##양회/NNG
후원자/NNG
##하나님/NNG
메트로/NNP
와/NNG
건계/NNG
##초가집/NNG
##터치/NNG
##ERP/SL
산문/NNG
메리/NNP
금메달/NNG
양구군/NNG
금동/NNG
한국신용평가/NNP
EXPO/SL
##네이버스/NNP
KOICA/SL
모란트/NNP
##다방/NNG
슬럼프/NNG
바닐라/NNG
김비오/NNP
사면/NNG
롯데제과/NNP
##쉘/NNP
질소/NNG
이대목동병원/NNP
지망/NNG
##구해/VV+EC
홈즈/NNP
구리역/NNP
##는다네/EC
인버스/NNP
산모/NNG
댄싱/NNG
우드/NNG
열대성/NNG
##상당산성/NNP
##음주/NNG
##명맥/NNG
##Lacci/SL
##보처/NNG
양동/NNP
민물/NNG
거야/NNG
원희룡/NNP
정수장/NNG
의논/NNG
맞닥뜨리/VV
탄천/NNP
##굉장히/MAG
##신다/EP+EC
안타까웠/VA+EP
맨날/MAG
해수/NNG
chego/SL
총수입/NNG
저유/NNG
##리얄/NNBC
##290/SN
성립/NNG
부가가치세/NNP
수개/NNG
411/SN
광고주/NNG
통/MAG
elikim/SL
##자아/NNG
##잖아/EF
##집의/NNG
드넓/VA
뛰어놀/VV+ETM
부럽/VA
##영업장/NNG
##노후/NNG
Tournament/SL
두부/NNG
버섯/NNG
##자니/EC
줄여서/VV+EC
확연/XR
##박진/NNG
##어업/NNG
농어민/NNG
임충식/NNP
##산업용/NNG
비약/NNG
##chung/SL
##변신/NNG
후발/NNG
##렐/NNP
##특집/NNG
##이벤트/NNG
##좀/MAG
##위로/NNG
##여/JKV
##종일/NNG
원망/NNG
##두붓국/NNG
배움/MAG
##안전성/NNG
##처에/NNG
장용호/NNP
##실트론/NNP
이디야/NNP
##강희/NNG
##준성/NNG
얽매이/VV
##측이/NNG
여지도/NNG
##공격/NNG
##이오/NNG
바이오테크놀로지/NNG
##계정/NNG
거창/NNP
##녀/NNG
사위/NNG
디아즈/NNP
##개봉/NNG
##칼/NNP
세계관/NNG
황범/NNP
부시장/NNG
테이프/NNG
9300/SN
4235/SN
duck/SL
농활/NNG
원정대/NNG
##인방/NNG
수덕사/NNG
스님/NNG
비상근/NNG
##410/SN
##%↑[/SY
##170900/SN
##ikpark/SL
영암군/NNG
박혜숙/NNP
##대/EC
##전할/VV+ETM
조재영/NNP
##응진/NNG
##담대/NNG
##장지/NNG
##차주/NNG
pej/SL
거침없이/MAG
합세/NNG
무능/NNG
##선임/NNG
##비르/NNBC
암/IC
##결핍/NNG
캡슐/NNG
베벌리/NNP
떨쳐/VV+EC
포탈/NNG
김기문/NNP
이슬람/NNP
하지/NNG
넥타이/NNG
hunhun/SL
DFC/SL
망한/VV+EC
이뤄진다는/VV+ETM
##영통/NNG
예치금/NNG
##분대/NNG
##릅니다/UNKNOWN
##동선/NNG
샤워실/MAG
##용태/NNG
##소유/NNG
##스타쉽/NNP
##152/SN
무분규/NNG
판매장/NNG
##포대/NNG
유해/XR
##로렌/NNP
##tool/SL
촙/NNG
##작과/NNG
학살/NNG
추상/NNG
양쪽/NNG
##관/JKB+JX
##TUI/SL
##CEHAT/SL
##문도/NNG
뒤/VV
곽상도/NNP
부적합/NNG
##121/SN
##이민/NNG
프레스센터/NNP
##통로/NNG
##7113/SN
엄습/NNG
##레저/NNP
##GKL/SL
##천사/NNG
양연수/NNP
##으나마/EC
##최나영/NNP
##신예/NNG
jurik/SL
##라임/NNG
##모가/NNG
323/SN
지나온/VV+ETM
##IN/SL
##앙의/NNG
##아니스/NNP
랩터스/NNP
깨어나/VV
##인문/NNG
권의/NNG
##재/VV
부가가치/NNP
염수/NNG
적폐/NNG
떠받치/VV
##낸다/VX+EF
키워야/VV+EC
##내역/NNG
우스갯소리/NNG
##학점/NNG
##지능/NNG
백년가약/NNG
김민석/NNP
사역/NNG
김이/NNP
둬야/VV+EC
##픽스/NNG
손창욱/NNP
##망인/NNG
고용현/NNP
##니로/NNP
##인승/NNG
209/SN
EV/SL
따라오/VV
①/SY
##非/NNG
묵묵히/MAG
sports/SL
이지수/NNP
456/SN
재료비/NNG
본소/NNG
다름없/VA
휴일/NNG
번졌/VV+EP
바꿔서/VV+EC
하이트진로/NNP
##토닉/NNG
연두/NNG
오뚜기/NNG
일품/NNG
##셰/NNG
▲‘/SY
##인후통/NNG
##근육통/NNG
대구광역시장/NNP
##회의장/NNG
##배후/NNG
##동군/NNG
##됩니다/VV+EF
꺼지/VV
천억/NR
미칠지/VV+EC
##가액/NNG
##226/SN
능가/NNG
윤상호/NNP
##IFRS/SL
2834/SN
##윤상호/NNP
##crow/SL
밑돈/NNG
##here/SL
384/SN
kjunho/SL
재개의/NNG
kch/SL
부자재/NNG
633/SN
바비/NNP
마텔/NNP
웨이/NNG
미라클/NNP
##림팩/NNP
공화국/NNG
천리/NNG
만리/NNG
##전광/NNG
아양/NNG
매달려/VV+EC
##패권/NNG
##추구/NNG
근해/NNG
##산점/NNG
치우치/VV
맞춰야/VV+EC
keon/SL
벌여왔/VV+EC+VX+EP
방파제/NNG
##너/VV+EC
##타면/NNG
##체자/NNG
모리뉴/NNP
##7500/SN
오리에/NNP
##품격/NNG
##상황도/NNG
##배심원/NNG
세밀히/MAG
hkkim/SL
푸시/NNG
가입비/NNG
##신동윤/NNP
일컫/VV
##248/SN
##카운트/NNG
수비/NNP
날렸/VV+EP
더블헤더/NNG
##316/SN
##플로/NNG
무안타/NNG
##저/XSN
커브/NNG
라이트/NNP
##파베/NNP
타구/NNG
그랜트/NNP
##장타/NNG
선취점/NNG
글러브/NNG
로어/NNG
##사구/NNG
터너/NNP
##토가/NNG
795/SN
피어슨/NNP
튼/VV+ETM
슈와/NNP
브라이언트/NNP
리조/NNG
레스터/NNP
말리/NNG
182/SN
##저의/NNG
프레이저/NNP
뼈아픈/VA+ETM
벅스턴/NNP
##231/SN
임한/NNG
미겔/NNP
##278/SN
되물/VV
단타/NNP
187/SN
브랜든/NNP
안드레/NNG
포머란츠/NNP
##688/SN
시애틀/NNP
##리빙/NNG
푸홀스/NNP
##951/SN
애런/NNP
밀러/NNP
오클랜드/NNP
##308/SN
스카/NNG
##우/JKG
박인/VV+ETM
끌어올려/VV+EC
다승/NNG
##BC/SL
##출신/NNG
##카카오/NNG
볼카운트/NNG
견제구/NNG
베이스/NNG
넘어졌/VV+EP
강령/NNG
##매뉴얼/NNG
##NSC/SL
NSC/SL
베네수엘라/NNP
파리기/NNP
##TP/SL
김광태/NNP
##AZD/SL
##식스/NNG
1540/SN
한명오/NNP
##판/NNB
뎅기열/NNG
김우주/NNP
수억/NR
##안원/NNP
AA/SL
부실화/NNG
##8800/SN
##1945/SN
시물/NR
원편광/NNG
##MicroScale/SL
Thermophoresis/SL
배아/NNG
나타난다/VV+EF
##670/SN
##휴양소/NNG
##578/SN
##518/SN
영덕군/NNG
##배급/NNG
##물론/NNG
소장품/NNG
셰익스피어/NNP
##작인/NNG
##새롭/VA
##Inc/SL
김철균/NNP
##성장률/NNG
쏠린/VV+ETM
##해야/XSA+EC
직시/NNG
1940/SN
잔고/NNG
아르바이트/NNG
김원배/NNP
튀기/NNG
김석/NNP
틀렸/VA+EP
오래/VA
탄식/NNG
늑장/NNG
보안법/NNG
베풀/VV
들렀/VV+EP
유혹/NNG
그리움/NNG
보좌/NNG
6500/SN
사다리/NNG
대왕고래/NNP
현존/NNG
##졌으나/VX+EP+EC
게이머/NNP
외자/NNG
뮤/NNG
중흥/NNG
황성익/NNP
##선학/NNG
중원/NNG
##사범/NNG
가뭄/NNG
임동욱/NNP
무난/XR
##체용/NNG
공신력/NNG
vrdw/SL
강중/MAG
경험자/NNG
정회성/NNP
##3400/SN
##다행히/MAG
사계절/NNG
##ㅋㅋ/IC
식/VA
##홍조/NNG
##032/SN
##대륙/NNG
내한/NNG
이어져야/VV+EC
##포식/NNG
알아본다/VV+EF
##연예/NNG
물리/VV
##%↑)/SY
덩치/NNG
연례/NNG
apple/SL
##바울/NNP
박해식/NNP
pistols/SL
##호음/NNG
##상도/NNG
완결/NNG
자원자/NNG
##리우/NNP
바르가스/NNP
##FGV/SL
##Ibre/SL
##..'/SY
##랜/NNG
에드거/NNP
후버/NNP
지척/NNG
##하구/JKB
띄우기/NNG
기습/NNG
##효정/NNG
철새/NNG
##대나무/NNG
생태관광/NNP
##삼영/NNG
함성/NNG
##대첩/NNG
시식/NNP
격주/NNG
로열티/NNG
##확장/NNG
역경/NNG
적법/XR
##하이테크/NNG
##Old/SL
People/SL
Active/SL
Life/SL
타임스/NNP
산부인과/NNG
악마/NNG
덕/NNP
##워스/NNP
보여야/VV+EC
##스켈레톤/NNG
##가속/NNG
##트래/NNP
##Top/SL
Airlines/SL
##따라/VV+EC
발작/NNG
##이때/NNG
다녀왔/VV+EP
##반석/NNG
소홀/XR
##실제/NNG
일흔/NR
##약우/NNG
##기업공개/NNP
##단기간/NNG
##츄/MAG
로수/NNP
둥지/NNG
기울일/VV+ETM
##미스틱/NNP
blossom/SL
피곤/NNG
##부위/NNG
##도피/NNG
심호흡/NNG
##증이/NNG
소화관/NNG
##호르몬/NNG
시력/NNG
문세영/NNP
##pomy/SL
336/SN
살펴봅니다/VV+EF
##힙/NNP
나올지/VV+EC
본다고/VV+EC
푸저우/NNP
업고/NNG
두드러진다/VV+EF
전석/NNG
##사격/NNG
##보여/VV+EC
이병찬/NNP
##맨/NNP
##효원/NNP
폭로/NNG
들릴/VV+ETM
##권위/NNG
##객관/XR
##종결/NNG
밀양역/NNP
삼랑진/NNG
##천문대/NNG
만어사/NNP
##원/NR
트윈/NNP
##만어사/NNP
폐선/NNG
##055/SN
##프레시/NNP
##차입/NNG
현대캐피탈/NNP
나타낸/VV+ETM
주선/NNG
##마리아노/NNP
##진시/NNG
nature/SL
##산업계/NNG
달렸/VV+EP
숙/VV
전해진/NNP
난동/NNG
##살라미나/NNP
사디/NNG
카르노/NNP
수호/NNP
꽂/VV
반화/NNG
예물/NNG
얹/VV
분통/NNG
편의치적선/NNG
425/SN
##國/NNG
316/SN
마샬/NNP
501/SN
발칵/MAG
choah/SL
##4586/SN
##프리미엄/NNG
김경은/NNP
인플레/NNG
##COMEX/SL
##판매원/NNG
##ginitree/SL
방청/NNG
과거사/NNG
연기론/NNG
외쳤/VV+EP
격렬/XR
기념일/NNG
광둥/NNP
황국/NNG
##연대/NNP
만든다고/VV+EC
호게/NNG
##여석/NNG
정혜윤/NNP
서북구/NNP
절세/NNG
이미나/NNP
##종류/NNG
##파생/NNG
##KRX/SL
한국거래소/NNP
##기말시험/NNG
##적절/XR
김지한/NNP
##jihan/SL
누그러졌/VV+EP
##다와/NNP
카르/NNG
##CBOE/SL
##VIX/SL
박윤진/NNP
##RIMPAC/SL
불장난/NNG
남의/NNG
##보드카/NNG
걸려도/VV+EC
열병식/NNG
신하영/NNP
다닐/VV+ETM
알려준/VV+ETM
##했었/XSA+EP
벡/NNP
리브스/NNP
저명/XR
닥친/VV+ETM
##보육/NNG
##공동생활/NNG
페트병/NNG
이광엽/NNP
##kyuplee/SL
##고강도/NNG
##쉐/VV
박성수/NNP
노원역/NNP
꾸며/VV+EC
##주북/NNG
_/SY
##할까/XSV+EF
##악성/NNG
석연/XR
김미지/NNP
am/SL
##8191/SN
##주공/NNP
드림/NNG
귀띔/NNG
##야드/NNBC
디펜/NNP
##오가/NNG
##텐/NNG
칸타타/NNG
위업/NNG
앞장선/VV+ETM
마스터즈/NNP
JLPGA/SL
기지/NNP
존치/NNG
씨네/NNG
시네마/NNG
대창/NNG
명륜/NNP
나라장터/NNP
1401/SN
이송용/NNP
대영/NNG
##채비/NNG
횡단/NNG
##잠실/NNP
성대/NNG
북적/NNG
유/NR
##니트/NNBC
느껴볼/VV+EC+VX+ETM
우성/NNG
익히/VV
형국/NNG
벙커/NNP
##그린/NNG
김성휘/NNP
짤막/XR
##약과/NNG
서안/NNG
불평/NNG
뒤따른다/VV+EF
##상당/NNG
클로징/NNG
[...]
